{
  "version": "1.0",
  "truncation": null,
  "padding": null,
  "added_tokens": [
    {
      "id": 0,
      "content": "[PAD]",
      "single_word": false,
      "lstrip": false,
      "rstrip": false,
      "normalized": false,
      "special": true
    },
    {
      "id": 1,
      "content": "[UNK]",
      "single_word": false,
      "lstrip": false,
      "rstrip": false,
      "normalized": false,
      "special": true
    },
    {
      "id": 2,
      "content": "[CLS]",
      "single_word": false,
      "lstrip": false,
      "rstrip": false,
      "normalized": false,
      "special": true
    },
    {
      "id": 3,
      "content": "[SEP]",
      "single_word": false,
      "lstrip": false,
      "rstrip": false,
      "normalized": false,
      "special": true
    },
    {
      "id": 4,
      "content": "[MASK]",
      "single_word": false,
      "lstrip": false,
      "rstrip": false,
      "normalized": false,
      "special": true
    }
  ],
  "normalizer": null,
  "pre_tokenizer": {
    "type": "ByteLevel",
    "add_prefix_space": true,
    "trim_offsets": true,
    "use_regex": true
  },
  "post_processor": null,
  "decoder": null,
  "model": {
    "type": "BPE",
    "dropout": null,
    "unk_token": "[UNK]",
    "continuing_subword_prefix": null,
    "end_of_word_suffix": null,
    "fuse_unk": false,
    "byte_fallback": false,
    "ignore_merges": false,
    "vocab": {
      "[PAD]": 0,
      "[UNK]": 1,
      "[CLS]": 2,
      "[SEP]": 3,
      "[MASK]": 4,
      "!": 5,
      "\"": 6,
      "#": 7,
      "$": 8,
      "%": 9,
      "&": 10,
      "'": 11,
      "(": 12,
      ")": 13,
      "*": 14,
      "+": 15,
      ",": 16,
      "-": 17,
      ".": 18,
      "/": 19,
      "0": 20,
      "1": 21,
      "2": 22,
      "3": 23,
      "4": 24,
      "5": 25,
      "6": 26,
      "7": 27,
      "8": 28,
      "9": 29,
      ":": 30,
      ";": 31,
      "<": 32,
      "=": 33,
      ">": 34,
      "?": 35,
      "@": 36,
      "A": 37,
      "B": 38,
      "C": 39,
      "D": 40,
      "E": 41,
      "F": 42,
      "G": 43,
      "H": 44,
      "I": 45,
      "J": 46,
      "K": 47,
      "L": 48,
      "M": 49,
      "N": 50,
      "O": 51,
      "P": 52,
      "Q": 53,
      "R": 54,
      "S": 55,
      "T": 56,
      "U": 57,
      "V": 58,
      "W": 59,
      "X": 60,
      "Y": 61,
      "Z": 62,
      "[": 63,
      "\\": 64,
      "]": 65,
      "_": 66,
      "a": 67,
      "b": 68,
      "c": 69,
      "d": 70,
      "e": 71,
      "f": 72,
      "g": 73,
      "h": 74,
      "i": 75,
      "j": 76,
      "k": 77,
      "l": 78,
      "m": 79,
      "n": 80,
      "o": 81,
      "p": 82,
      "q": 83,
      "r": 84,
      "s": 85,
      "t": 86,
      "u": 87,
      "v": 88,
      "w": 89,
      "x": 90,
      "y": 91,
      "z": 92,
      "{": 93,
      "|": 94,
      "~": 95,
      "¡": 96,
      "¢": 97,
      "£": 98,
      "¤": 99,
      "¥": 100,
      "¦": 101,
      "§": 102,
      "¨": 103,
      "©": 104,
      "ª": 105,
      "«": 106,
      "¬": 107,
      "®": 108,
      "¯": 109,
      "°": 110,
      "±": 111,
      "²": 112,
      "³": 113,
      "´": 114,
      "µ": 115,
      "¶": 116,
      "·": 117,
      "¸": 118,
      "¹": 119,
      "º": 120,
      "»": 121,
      "¼": 122,
      "½": 123,
      "¾": 124,
      "¿": 125,
      "Â": 126,
      "Ã": 127,
      "Ä": 128,
      "Å": 129,
      "Ç": 130,
      "È": 131,
      "Ê": 132,
      "Ð": 133,
      "Ñ": 134,
      "Ô": 135,
      "Ö": 136,
      "×": 137,
      "Ø": 138,
      "Ù": 139,
      "Û": 140,
      "à": 141,
      "á": 142,
      "â": 143,
      "ã": 144,
      "ä": 145,
      "å": 146,
      "æ": 147,
      "ç": 148,
      "è": 149,
      "é": 150,
      "ë": 151,
      "ì": 152,
      "í": 153,
      "ï": 154,
      "Ċ": 155,
      "č": 156,
      "Ġ": 157,
      "Ģ": 158,
      "ģ": 159,
      "Ĥ": 160,
      "ĥ": 161,
      "Ħ": 162,
      "ħ": 163,
      "Ĩ": 164,
      "ĩ": 165,
      "Ī": 166,
      "ī": 167,
      "Ĭ": 168,
      "ĭ": 169,
      "Į": 170,
      "į": 171,
      "İ": 172,
      "ı": 173,
      "Ĳ": 174,
      "ĳ": 175,
      "Ĵ": 176,
      "ĵ": 177,
      "Ķ": 178,
      "ķ": 179,
      "ĸ": 180,
      "Ĺ": 181,
      "ĺ": 182,
      "Ļ": 183,
      "ļ": 184,
      "Ľ": 185,
      "ľ": 186,
      "Ŀ": 187,
      "ŀ": 188,
      "Ł": 189,
      "ł": 190,
      "Ń": 191,
      "Ġt": 192,
      "he": 193,
      "Ġa": 194,
      "in": 195,
      "er": 196,
      "Ġthe": 197,
      "on": 198,
      "čĊ": 199,
      "ed": 200,
      "or": 201,
      "en": 202,
      "Ġw": 203,
      "an": 204,
      "at": 205,
      "Ġs": 206,
      "Ġo": 207,
      "is": 208,
      "re": 209,
      "ar": 210,
      "al": 211,
      "Ġin": 212,
      "Ġof": 213,
      "it": 214,
      "Ġf": 215,
      "nd": 216,
      "as": 217,
      "Ġc": 218,
      "es": 219,
      "Ġb": 220,
      "ic": 221,
      "Ġand": 222,
      "ing": 223,
      "Ġp": 224,
      "ĠS": 225,
      "ion": 226,
      "ou": 227,
      "Ġto": 228,
      "om": 229,
      "Ġm": 230,
      "le": 231,
      "ĠT": 232,
      "ĠA": 233,
      "Ġd": 234,
      "Ġ1": 235,
      "ĠC": 236,
      "Ġh": 237,
      "ent": 238,
      "il": 239,
      "am": 240,
      "ĠM": 241,
      "Ġwas": 242,
      "Ġre": 243,
      "ol": 244,
      "st": 245,
      "el": 246,
      "ĠH": 247,
      "ro": 248,
      "ĠI": 249,
      "Ġ2": 250,
      "ad": 251,
      "ĠP": 252,
      "ur": 253,
      "ac": 254,
      "iv": 255,
      "Ġl": 256,
      "ec": 257,
      "Ġon": 258,
      "em": 259,
      "ĠThe": 260,
      "Ġ19": 261,
      "ir": 262,
      "ĠB": 263,
      "ĠD": 264,
      "Ġn": 265,
      "ter": 266,
      "Ġth": 267,
      "Ġ\"": 268,
      "Ġfor": 269,
      "Ġis": 270,
      "Ġe": 271,
      "ly": 272,
      "ot": 273,
      "id": 274,
      "ation": 275,
      "ĠR": 276,
      "et": 277,
      "Ġhe": 278,
      "Ġ20": 279,
      "ĠL": 280,
      "ig": 281,
      "ay": 282,
      "ut": 283,
      "im": 284,
      "Ġat": 285,
      "us": 286,
      "Ġas": 287,
      "ĠF": 288,
      "ĠJ": 289,
      "ĠG": 290,
      "ch": 291,
      "ers": 292,
      "un": 293,
      "ĠN": 294,
      "Ġ(": 295,
      "Ġg": 296,
      "Ġby": 297,
      "ct": 298,
      "ist": 299,
      "ith": 300,
      "ce": 301,
      "ĠW": 302,
      "and": 303,
      "Ġst": 304,
      "th": 305,
      "ow": 306,
      "Ġwith": 307,
      "Ġbe": 308,
      "'s": 309,
      "ber": 310,
      "rom": 311,
      "ĠE": 312,
      "ag": 313,
      "ĠO": 314,
      "Ġan": 315,
      "Ġwh": 316,
      "Ġal": 317,
      "Ġ201": 318,
      "her": 319,
      "os": 320,
      "um": 321,
      "ri": 322,
      "est": 323,
      "Ġthat": 324,
      "ver": 325,
      "ul": 326,
      "oc": 327,
      "Ġfrom": 328,
      "ra": 329,
      "ĠU": 330,
      "ian": 331,
      "Ġcon": 332,
      "ĠK": 333,
      "hi": 334,
      "ud": 335,
      "ĠIn": 336,
      "Ġcom": 337,
      "âĢ": 338,
      "res": 339,
      "all": 340,
      "ity": 341,
      "ĠHe": 342,
      "ate": 343,
      "art": 344,
      "ain": 345,
      "op": 346,
      "Ġv": 347,
      "Ġde": 348,
      "ort": 349,
      "ew": 350,
      "av": 351,
      "Ġpro": 352,
      "our": 353,
      "Ġr": 354,
      "ary": 355,
      "if": 356,
      "ies": 357,
      "ated": 358,
      "ld": 359,
      "ak": 360,
      "ard": 361,
      "ub": 362,
      "ish": 363,
      "ill": 364,
      "Ġhis": 365,
      "igh": 366,
      "ia": 367,
      "pp": 368,
      "Ġit": 369,
      "od": 370,
      "ab": 371,
      "Ġch": 372,
      "ear": 373,
      "ich": 374,
      "ĠSt": 375,
      "ere": 376,
      "ĠCh": 377,
      "Ġse": 378,
      "oun": 379,
      "ov": 380,
      "ember": 381,
      "ong": 382,
      "ous": 383,
      "Ġwere": 384,
      "Ġpl": 385,
      "ess": 386,
      "end": 387,
      "ions": 388,
      "ell": 389,
      "ight": 390,
      "ant": 391,
      "ep": 392,
      "ork": 393,
      "ame": 394,
      "ap": 395,
      "ge": 396,
      "ment": 397,
      "og": 398,
      "Ġhad": 399,
      "qu": 400,
      "orn": 401,
      "ĠIt": 402,
      "Ġcomp": 403,
      "Ġex": 404,
      "Ġor": 405,
      "cl": 406,
      "ĠUn": 407,
      "mer": 408,
      "Ġare": 409,
      "Ġle": 410,
      "ast": 411,
      "ice": 412,
      "ound": 413,
      "ran": 414,
      "ive": 415,
      "ect": 416,
      "ust": 417,
      "Ġar": 418,
      "up": 419,
      "ial": 420,
      "ore": 421,
      "ict": 422,
      "erv": 423,
      "ug": 424,
      "ine": 425,
      "âĢĵ": 426,
      "Ġev": 427,
      "amp": 428,
      "so": 429,
      "Ġwhich": 430,
      "ue": 431,
      "rit": 432,
      "Ġfir": 433,
      "ĠY": 434,
      "uc": 435,
      "ical": 436,
      "Ġsp": 437,
      "fter": 438,
      "00": 439,
      "Ġk": 440,
      "ang": 441,
      "ond": 442,
      "ok": 443,
      "Ġy": 444,
      "ĠV": 445,
      "Ġte": 446,
      "hed": 447,
      "Ġ2019": 448,
      "ount": 449,
      "ost": 450,
      "ord": 451,
      "Ġun": 452,
      "ass": 453,
      "Ġalso": 454,
      "ie": 455,
      "out": 456,
      "Ġfirst": 457,
      "ack": 458,
      "Ġher": 459,
      "lect": 460,
      "Ġhas": 461,
      "hip": 462,
      "ry": 463,
      "ĠShe": 464,
      "ĠAr": 465,
      "Ġwho": 466,
      "ff": 467,
      "ik": 468,
      "ational": 469,
      "se": 470,
      "Ġnot": 471,
      "clud": 472,
      "Ġcl": 473,
      "ĠTh": 474,
      "Ġrep": 475,
      "ther": 476,
      "Ġtheir": 477,
      "ome": 478,
      "Ġ18": 479,
      "20": 480,
      "iz": 481,
      "ics": 482,
      "ater": 483,
      "ivers": 484,
      "Ġshe": 485,
      "Ġres": 486,
      "\".": 487,
      "man": 488,
      "ence": 489,
      "low": 490,
      "und": 491,
      "te": 492,
      "ey": 493,
      "Ġwhe": 494,
      "Ġpol": 495,
      "Ġpart": 496,
      "ave": 497,
      "Ġoff": 498,
      "ire": 499,
      "ubl": 500,
      "Ġab": 501,
      "Ġbeen": 502,
      "Ġsh": 503,
      "ition": 504,
      "ĠOn": 505,
      "rou": 506,
      "ace": 507,
      "ach": 508,
      "\",": 509,
      "ĠAl": 510,
      "land": 511,
      "ign": 512,
      "Ġad": 513,
      "ied": 514,
      "ĠMar": 515,
      "age": 516,
      "Ġ200": 517,
      "Ġinclud": 518,
      "ide": 519,
      "gh": 520,
      "ult": 521,
      "ree": 522,
      "Ġ198": 523,
      "ure": 524,
      "Ġag": 525,
      "ade": 526,
      "Ġplay": 527,
      "Ġwork": 528,
      "ĠCom": 529,
      "per": 530,
      "cc": 531,
      "Ġ199": 532,
      "oy": 533,
      "Ġbec": 534,
      "wo": 535,
      "uring": 536,
      "Ġserv": 537,
      "ally": 538,
      "Ġ3": 539,
      "Ġits": 540,
      "Ġsu": 541,
      "ason": 542,
      "Ġapp": 543,
      "own": 544,
      "let": 545,
      "aw": 546,
      "ss": 547,
      "Ġj": 548,
      "Ġafter": 549,
      "ations": 550,
      "Ġone": 551,
      "ip": 552,
      "we": 553,
      "ased": 554,
      "ake": 555,
      "oin": 556,
      "ime": 557,
      "iversity": 558,
      "Ġthis": 559,
      "ilm": 560,
      "Ġteam": 561,
      "uary": 562,
      "over": 563,
      "ward": 564,
      "ited": 565,
      "eg": 566,
      "to": 567,
      "ould": 568,
      "ild": 569,
      "Ġyear": 570,
      "ren": 571,
      "ident": 572,
      "Ġcont": 573,
      "Ġatt": 574,
      "ince": 575,
      "tern": 576,
      "ĠUniversity": 577,
      "ind": 578,
      "ood": 579,
      "Ġbut": 580,
      "ĠAn": 581,
      "ball": 582,
      "ican": 583,
      "Ġman": 584,
      "outh": 585,
      "fer": 586,
      "ens": 587,
      "Ġtwo": 588,
      "Ġdis": 589,
      "ator": 590,
      "Ġsc": 591,
      "Ġhave": 592,
      "Ġrec": 593,
      "eop": 594,
      "ft": 595,
      "ates": 596,
      "),": 597,
      "oot": 598,
      "gan": 599,
      "Ġwe": 600,
      "ĠPar": 601,
      "cho": 602,
      "Ġthey": 603,
      "old": 604,
      "ĠNew": 605,
      "Ġseason": 606,
      "ampions": 607,
      "Ġsec": 608,
      "Ġcomm": 609,
      "istr": 610,
      "Ġdes": 611,
      "Ġelect": 612,
      "br": 613,
      "ĠSen": 614,
      "eople": 615,
      "les": 616,
      "Ġus": 617,
      "Ġover": 618,
      "ters": 619,
      ").": 620,
      "ath": 621,
      "iss": 622,
      "ted": 623,
      "ts": 624,
      "ener": 625,
      "Ġout": 626,
      "orld": 627,
      "uct": 628,
      "one": 629,
      "ile": 630,
      "ived": 631,
      "Ġ5": 632,
      "ecember": 633,
      "resent": 634,
      "Ġevent": 635,
      "ric": 636,
      "rop": 637,
      "ces": 638,
      "Ġloc": 639,
      "for": 640,
      "mp": 641,
      "urn": 642,
      "Ġfin": 643,
      "Ġreg": 644,
      "ollow": 645,
      "ĠLe": 646,
      "ĠThis": 647,
      "ory": 648,
      "Ġro": 649,
      "ely": 650,
      "Ġ195": 651,
      "chool": 652,
      "ons": 653,
      "ement": 654,
      "Ġund": 655,
      "Ġother": 656,
      "Ġfilm": 657,
      "ĠEn": 658,
      "ished": 659,
      "ĠDecember": 660,
      "Ġ4": 661,
      "Ġact": 662,
      "oh": 663,
      "Ġup": 664,
      "Ġcol": 665,
      "ean": 666,
      "med": 667,
      "ĠCol": 668,
      "ex": 669,
      "ĠZ": 670,
      "Ġnew": 671,
      "ook": 672,
      "ampionship": 673,
      "Ġen": 674,
      "ered": 675,
      "usic": 676,
      "ĠJan": 677,
      "ress": 678,
      "irect": 679,
      "ah": 680,
      "Ġpre": 681,
      "are": 682,
      "Ġ197": 683,
      "rib": 684,
      "Ġabout": 685,
      "Ġpr": 686,
      "Ġkn": 687,
      "wn": 688,
      "Ã©": 689,
      "Ġinto": 690,
      "ional": 691,
      "act": 692,
      "ĠComm": 693,
      "ail": 694,
      "born": 695,
      "pl": 696,
      "Ġim": 697,
      "Ġfollow": 698,
      "Ġmen": 699,
      "Ġall": 700,
      "able": 701,
      "Ġstud": 702,
      "19": 703,
      "âĢĻ": 704,
      "Ġduring": 705,
      "ament": 706,
      "ark": 707,
      "Ġpubl": 708,
      "Ġmade": 709,
      "Ġ194": 710,
      "Ġwhere": 711,
      "Ġhous": 712,
      "iver": 713,
      "Ġsecond": 714,
      "ĠInd": 715,
      "emb": 716,
      "Ġ2020": 717,
      "Ġunder": 718,
      "az": 719,
      "ral": 720,
      "ather": 721,
      "ite": 722,
      "rab": 723,
      "Ġoffic": 724,
      "ious": 725,
      "sp": 726,
      "Ġbu": 727,
      "ram": 728,
      "rad": 729,
      "ootball": 730,
      "Ġrele": 731,
      "hire": 732,
      "Ġcompet": 733,
      "arn": 734,
      "ĠSp": 735,
      "Ġ192": 736,
      "overn": 737,
      "Ġret": 738,
      "air": 739,
      "vel": 740,
      "ai": 741,
      "ision": 742,
      "Ġfound": 743,
      "ase": 744,
      "ĠAmer": 745,
      "Ġspec": 746,
      "li": 747,
      "Ġnum": 748,
      "ĠUnited": 749,
      "aj": 750,
      "ob": 751,
      "ance": 752,
      "Ġhim": 753,
      "olog": 754,
      "Ġagain": 755,
      "ann": 756,
      "Ġper": 757,
      "ĠJanuary": 758,
      "ĠSh": 759,
      "ĠPro": 760,
      "Ġ196": 761,
      "io": 762,
      "orth": 763,
      "ily": 764,
      "Ġ193": 765,
      "Ġsince": 766,
      "Ġass": 767,
      "duc": 768,
      "Ġthem": 769,
      "ank": 770,
      "ĠBrit": 771,
      "Ġbecame": 772,
      "ix": 773,
      "Ġ6": 774,
      "Ġsong": 775,
      "ock": 776,
      "Ġthen": 777,
      "ĠArab": 778,
      "urr": 779,
      "Ġpolit": 780,
      "eneral": 781,
      "ph": 782,
      "ĠDay": 783,
      "ose": 784,
      "ober": 785,
      "Ġpeople": 786,
      "ĠSy": 787,
      "ĠFor": 788,
      "my": 789,
      "Ġtime": 790,
      "Ġind": 791,
      "ities": 792,
      "Ġfam": 793,
      "Ġbet": 794,
      "ced": 795,
      "ton": 796,
      "Ġwould": 797,
      "Ġheld": 798,
      "inn": 799,
      "Ġcall": 800,
      "istrict": 801,
      "ĠEng": 802,
      "Ġfour": 803,
      "ior": 804,
      "Ġent": 805,
      "Ġsa": 806,
      "Ġyears": 807,
      "che": 808,
      "ague": 809,
      "ina": 810,
      "Ġsing": 811,
      "Ġ16": 812,
      "oci": 813,
      "pr": 814,
      "Ġend": 815,
      "use": 816,
      "overnment": 817,
      "Ġnumber": 818,
      "pt": 819,
      "ans": 820,
      "Ġsome": 821,
      "roup": 822,
      "ib": 823,
      "Ġinv": 824,
      "Ġco": 825,
      "omen": 826,
      "str": 827,
      "urch": 828,
      "Ġlater": 829,
      "ĠJun": 830,
      "rough": 831,
      "ween": 832,
      "eat": 833,
      "ten": 834,
      "Ġacc": 835,
      "ative": 836,
      "ĠAt": 837,
      "ĠAfter": 838,
      "ĠJew": 839,
      "Ġevict": 840,
      "Ġsupp": 841,
      "Ġborn": 842,
      "Ġmore": 843,
      "Ġ17": 844,
      "ĠWorld": 845,
      "ĠBritish": 846,
      "led": 847,
      "til": 848,
      "Ġdirect": 849,
      "Ġrece": 850,
      "ĠGer": 851,
      "mpics": 852,
      "ef": 853,
      "way": 854,
      "ings": 855,
      "ĠSum": 856,
      "Ġonly": 857,
      "Ġcons": 858,
      "Ã¡": 859,
      "Ġsur": 860,
      "Ġmay": 861,
      "resident": 862,
      "Ġincluding": 863,
      "bum": 864,
      "ors": 865,
      "Ġmusic": 866,
      "stit": 867,
      "ek": 868,
      "ier": 869,
      "ĠQ": 870,
      "Ġmov": 871,
      "Ġsever": 872,
      "ugust": 873,
      "any": 874,
      "ĠAs": 875,
      "uth": 876,
      "ĠAugust": 877,
      "ilit": 878,
      "ĠOly": 879,
      "Ġwhen": 880,
      "als": 881,
      "oth": 882,
      "ĠSummer": 883,
      "ev": 884,
      "Ġbetween": 885,
      "lish": 886,
      "aly": 887,
      "Ġart": 888,
      "ty": 889,
      "ough": 890,
      "ĠAmerican": 891,
      "Ġagainst": 892,
      "ating": 893,
      "ently": 894,
      "ames": 895,
      "ĠNov": 896,
      "The": 897,
      "ke": 898,
      "Ġqu": 899,
      "Ġwill": 900,
      "ĠCl": 901,
      "ĠThey": 902,
      "Ġname": 903,
      "Ġlead": 904,
      "Ġwon": 905,
      "Ġser": 906,
      "Ġbeing": 907,
      "Ġdef": 908,
      "ever": 909,
      "Ġcount": 910,
      "Ġ10": 911,
      "ĠJu": 912,
      "Ġknown": 913,
      "Ġsub": 914,
      "ese": 915,
      "Ġmar": 916,
      "ĠJoh": 917,
      "ĠChampionship": 918,
      "Ġ-": 919,
      "ĠAss": 920,
      "Ġuntil": 921,
      "Ġserved": 922,
      "Ġfollowing": 923,
      "ĠâĢĵ": 924,
      "Ġmember": 925,
      "ĠCon": 926,
      "other": 927,
      "Ġalbum": 928,
      "Ġ2018": 929,
      "Ġinter": 930,
      "Ġdo": 931,
      "Ġthree": 932,
      "ourn": 933,
      "Ġfamily": 934,
      ".\"": 935,
      "fore": 936,
      "iel": 937,
      "min": 938,
      "Ġwrit": 939,
      "ĠIs": 940,
      "uss": 941,
      "ept": 942,
      "Ġreport": 943,
      "ĠMarch": 944,
      "Ġthere": 945,
      "Ġwell": 946,
      "Ġcre": 947,
      "Ġcar": 948,
      "ĠPol": 949,
      "ife": 950,
      "Ġreleased": 951,
      "ĠOlympics": 952,
      "red": 953,
      "Ġ7": 954,
      "Ġ8": 955,
      "row": 956,
      "rat": 957,
      "Ġtran": 958,
      "ick": 959,
      "ĠAd": 960,
      "ives": 961,
      "iment": 962,
      "ĠNovember": 963,
      "ĠJuly": 964,
      "ĠâĢ": 965,
      "ale": 966,
      "ĠApr": 967,
      "Ġrel": 968,
      "cess": 969,
      "ĠSc": 970,
      "Ġrepresent": 971,
      "Ġpolice": 972,
      "Ġsaid": 973,
      "Ġseveral": 974,
      "cy": 975,
      "ject": 976,
      "Ġest": 977,
      "ĠAust": 978,
      "Ġed": 979,
      "Ġgroup": 980,
      "Ġstate": 981,
      "Ġwhile": 982,
      "Ġprov": 983,
      "ission": 984,
      "ĠSyri": 985,
      "oon": 986,
      "ony": 987,
      "alk": 988,
      "ĠCount": 989,
      "ĠPl": 990,
      "ĠRep": 991,
      "ĠOct": 992,
      "ĠJune": 993,
      "aug": 994,
      "hen": 995,
      "ern": 996,
      "Ġbook": 997,
      "Ġthrough": 998,
      "Ġbefore": 999,
      "aint": 1000,
      "ĠApril": 1001,
      "pen": 1002,
      "Ġ12": 1003,
      "ech": 1004,
      "ĠNational": 1005,
      "der": 1006,
      "fess": 1007,
      "uen": 1008,
      "ual": 1009,
      "lege": 1010,
      "amed": 1011,
      "Ġform": 1012,
      "Ġattack": 1013,
      "ĠOctober": 1014,
      "ism": 1015,
      "Ġcompeted": 1016,
      "Ġra": 1017,
      "Ġschool": 1018,
      "Ġdec": 1019,
      "ĠMay": 1020,
      "Ġlist": 1021,
      "ĠReg": 1022,
      "ific": 1023,
      "ron": 1024,
      "enn": 1025,
      "Ġset": 1026,
      "Ġme": 1027,
      "Ġmed": 1028,
      "ĠHis": 1029,
      "Ġear": 1030,
      "ĠFran": 1031,
      "Ġadd": 1032,
      "shire": 1033,
      "ued": 1034,
      "arg": 1035,
      "urk": 1036,
      "ivision": 1037,
      "ĠGe": 1038,
      "ried": 1039,
      "ized": 1040,
      "Ġdesc": 1041,
      "ĠJohn": 1042,
      "reat": 1043,
      "Ġcent": 1044,
      "Ġprom": 1045,
      "Ġmat": 1046,
      "Ġrem": 1047,
      "Ġchild": 1048,
      "form": 1049,
      "velop": 1050,
      "Ġeviction": 1051,
      "ures": 1052,
      "ve": 1053,
      "Ġtit": 1054,
      "Ġac": 1055,
      "ĠSa": 1056,
      "ĠPh": 1057,
      "ĠRiver": 1058,
      "erson": 1059,
      "Ġgovernment": 1060,
      "ĠEu": 1061,
      "ike": 1062,
      "Ġappear": 1063,
      "ternational": 1064,
      "ilitary": 1065,
      "Ġaward": 1066,
      "Ġown": 1067,
      "ĠPr": 1068,
      "ĠDem": 1069,
      "ott": 1070,
      "ĠState": 1071,
      "Ġimp": 1072,
      "Ġseries": 1073,
      "eptember": 1074,
      "oard": 1075,
      "son": 1076,
      "ret": 1077,
      "Ġmon": 1078,
      "ular": 1079,
      "000": 1080,
      "ĠGerman": 1081,
      "Ġfl": 1082,
      "ents": 1083,
      "Ġrefer": 1084,
      "ained": 1085,
      "ĠLeague": 1086,
      "radu": 1087,
      "Ġreceived": 1088,
      "ister": 1089,
      "Ġpos": 1090,
      "ĠSeptember": 1091,
      "Ġmost": 1092,
      "Ġday": 1093,
      "Ġ191": 1094,
      "Ġnear": 1095,
      "apt": 1096,
      "oyal": 1097,
      "augh": 1098,
      "rist": 1099,
      "sh": 1100,
      "ital": 1101,
      "ash": 1102,
      "aced": 1103,
      "igin": 1104,
      "ĠStates": 1105,
      "Ġexp": 1106,
      "ĠSenator": 1107,
      "ology": 1108,
      "Ã³": 1109,
      "Ġ9": 1110,
      "ĠCan": 1111,
      "ĠCar": 1112,
      "Ġtrans": 1113,
      "gram": 1114,
      "ll": 1115,
      "Ġam": 1116,
      "ĠSouth": 1117,
      "Ġthan": 1118,
      "ĠFe": 1119,
      "ĠUS": 1120,
      "uction": 1121,
      "Ġlocated": 1122,
      "embers": 1123,
      "its": 1124,
      "Ġcurr": 1125,
      "ĠWar": 1126,
      "Ġ2016": 1127,
      "hern": 1128,
      "Ġused": 1129,
      "Ġtr": 1130,
      "leg": 1131,
      "ĠPort": 1132,
      "imes": 1133,
      "Ġorgan": 1134,
      "ĠEurop": 1135,
      "aim": 1136,
      "lif": 1137,
      "omin": 1138,
      "ĠCent": 1139,
      "ired": 1140,
      "Ġhead": 1141,
      "Ġstart": 1142,
      "Ġvi": 1143,
      "ightlif": 1144,
      "Ġfinal": 1145,
      "Ġpublished": 1146,
      "Ġsupport": 1147,
      "ightlifter": 1148,
      "rand": 1149,
      "ert": 1150,
      "Ġsuc": 1151,
      "ised": 1152,
      "Ġfootball": 1153,
      "Ġph": 1154,
      "ĠTurk": 1155,
      "Ġdied": 1156,
      "Ġconf": 1157,
      "udi": 1158,
      "Ġincluded": 1159,
      "ĠDemoc": 1160,
      "Ġwomen": 1161,
      "Ġfeat": 1162,
      "Ġcour": 1163,
      "ĠAnd": 1164,
      "Ġ15": 1165,
      "elf": 1166,
      "ured": 1167,
      "iving": 1168,
      "Ġ2017": 1169,
      "uthor": 1170,
      "Ġsix": 1171,
      "icip": 1172,
      "Ġtop": 1173,
      "Ġ13": 1174,
      "Ġla": 1175,
      "Ġrecord": 1176,
      "Ġcalled": 1177,
      "Ġsingle": 1178,
      "ĠAustral": 1179,
      "Ġtra": 1180,
      "Ġoper": 1181,
      "Ġopen": 1182,
      "reet": 1183,
      "Ġbl": 1184,
      "ĠSchool": 1185,
      "Ġmain": 1186,
      "Ġmembers": 1187,
      "ĠDep": 1188,
      "ĠWest": 1189,
      "Ġann": 1190,
      "very": 1191,
      "Ġvis": 1192,
      "Ġdep": 1193,
      "Ġdevelop": 1194,
      "ĠYork": 1195,
      "Ġresp": 1196,
      "bruary": 1197,
      "liament": 1198,
      "stitut": 1199,
      "Ġbro": 1200,
      "Ġtook": 1201,
      "Ġmin": 1202,
      "ley": 1203,
      "Ġhist": 1204,
      "ilt": 1205,
      "ĠPart": 1206,
      "Ġno": 1207,
      "ĠGu": 1208,
      "osp": 1209,
      "Ġorigin": 1210,
      "Ġsuch": 1211,
      "Ġcontin": 1212,
      "Ġhouse": 1213,
      "ĠDemocrat": 1214,
      "au": 1215,
      "Ġ.": 1216,
      "ana": 1217,
      "ask": 1218,
      "Ġbased": 1219,
      "Ġdr": 1220,
      "ĠMid": 1221,
      "ross": 1222,
      "Ġstr": 1223,
      "Ġdeb": 1224,
      "ĠFebruary": 1225,
      "ez": 1226,
      "Ġwar": 1227,
      "Ġcan": 1228,
      "ica": 1229,
      "Ġworked": 1230,
      "ĠCollege": 1231,
      "Ġdescrib": 1232,
      "tal": 1233,
      "yn": 1234,
      "Ġem": 1235,
      "Ġter": 1236,
      "Ġocc": 1237,
      "Ġback": 1238,
      "ĠCork": 1239,
      "ĠMin": 1240,
      "Ġformer": 1241,
      "Ġbegan": 1242,
      "Ġdeath": 1243,
      "Ġkill": 1244,
      "ika": 1245,
      "Ġteams": 1246,
      "Ġbuild": 1247,
      "Ġpar": 1248,
      "ĠAm": 1249,
      "Ġref": 1250,
      "ĠHer": 1251,
      "Ġplace": 1252,
      "Ġweightlifter": 1253,
      "Ġspecies": 1254,
      "ne": 1255,
      "ven": 1256,
      "ins": 1257,
      "orp": 1258,
      "ald": 1259,
      "Ġdid": 1260,
      "ĠNorth": 1261,
      "Ġgo": 1262,
      "ĠEd": 1263,
      "ounc": 1264,
      "igned": 1265,
      "Ġ1952": 1266,
      "Ġestab": 1267,
      "ved": 1268,
      "Ġcould": 1269,
      "Ġboth": 1270,
      "Ġdistrict": 1271,
      "Ġgu": 1272,
      "Ġprot": 1273,
      "Ġleft": 1274,
      "Ġjoin": 1275,
      "Ġlocal": 1276,
      "urned": 1277,
      "Ġactiv": 1278,
      "ĠCounty": 1279,
      "Ġsm": 1280,
      "ury": 1281,
      "eller": 1282,
      "ield": 1283,
      "uk": 1284,
      "arge": 1285,
      "Ġcity": 1286,
      "ician": 1287,
      "ĠSec": 1288,
      "Ġ190": 1289,
      "ists": 1290,
      "avy": 1291,
      "Ġplayed": 1292,
      "rench": 1293,
      "18": 1294,
      "ise": 1295,
      "ĠMan": 1296,
      "ĠRuss": 1297,
      "Ġproduc": 1298,
      "Ġprogram": 1299,
      "Ġrun": 1300,
      "aking": 1301,
      "angu": 1302,
      "ĠArmy": 1303,
      "Ġelection": 1304,
      "ful": 1305,
      "Ġbel": 1306,
      "ada": 1307,
      "ĠRo": 1308,
      "ung": 1309,
      "Ġ2015": 1310,
      "umb": 1311,
      "Ġvar": 1312,
      "ouse": 1313,
      "Ġclub": 1314,
      "Ġappoin": 1315,
      "Ġmany": 1316,
      "CA": 1317,
      "aff": 1318,
      "eed": 1319,
      "ham": 1320,
      "ms": 1321,
      "ines": 1322,
      "ering": 1323,
      "Ġsame": 1324,
      "alif": 1325,
      "ondon": 1326,
      "Ġprev": 1327,
      "ĠEnglish": 1328,
      "ĠRepubl": 1329,
      "ling": 1330,
      "Ġauthor": 1331,
      "aster": 1332,
      "Ġmid": 1333,
      "Ġdem": 1334,
      "Ġhow": 1335,
      "Ġhome": 1336,
      "ĠDivision": 1337,
      "ĠFootball": 1338,
      "ĠGeneral": 1339,
      "Ġgradu": 1340,
      "ogra": 1341,
      "Ġarea": 1342,
      "ĠGeor": 1343,
      "oman": 1344,
      "Ġ11": 1345,
      "Ġ14": 1346,
      "ivil": 1347,
      "ird": 1348,
      "ĠFrench": 1349,
      "Ġexpl": 1350,
      "weight": 1351,
      "Ġbuilt": 1352,
      "ajor": 1353,
      "ler": 1354,
      "vi": 1355,
      "hel": 1356,
      "ĠCity": 1357,
      "ages": 1358,
      "ountain": 1359,
      "lection": 1360,
      "Ġpublic": 1361,
      "ĠIndian": 1362,
      "Ġchildren": 1363,
      "app": 1364,
      "by": 1365,
      "com": 1366,
      "ient": 1367,
      "lp": 1368,
      "Ġpresident": 1369,
      "ĠTr": 1370,
      "Ġlast": 1371,
      "ĠDuring": 1372,
      "ĠLondon": 1373,
      "ĠJewish": 1374,
      "ĠParty": 1375,
      "oir": 1376,
      "side": 1377,
      "ually": 1378,
      "ĠSe": 1379,
      "ĠSw": 1380,
      "Ġmilitary": 1381,
      "ĠRoyal": 1382,
      "ĠLake": 1383,
      "ĠOr": 1384,
      "Ġalong": 1385,
      "ended": 1386,
      "ially": 1387,
      "Ġdisc": 1388,
      "ribut": 1389,
      "Ġpolitician": 1390,
      "Ġpromot": 1391,
      "Ġtitle": 1392,
      "..": 1393,
      "ause": 1394,
      "na": 1395,
      "ves": 1396,
      "Ġair": 1397,
      "Ġpoin": 1398,
      "ĠBel": 1399,
      "ided": 1400,
      "aving": 1401,
      "earch": 1402,
      "Ġcompany": 1403,
      "Ġeng": 1404,
      "Ġsurv": 1405,
      "Ġdebut": 1406,
      "Âł": 1407,
      "ĠÃ": 1408,
      "onom": 1409,
      "Ġso": 1410,
      "rew": 1411,
      "alth": 1412,
      "itions": 1413,
      "itte": 1414,
      "ility": 1415,
      "iven": 1416,
      "Ġresult": 1417,
      "ournament": 1418,
      "ĠEuropean": 1419,
      "co": 1420,
      "ged": 1421,
      "ars": 1422,
      "Ġinc": 1423,
      "Ġcr": 1424,
      "Ġlong": 1425,
      "ĠRe": 1426,
      "used": 1427,
      "Ġany": 1428,
      "ocial": 1429,
      "ants": 1430,
      "ĠComp": 1431,
      "Ġappointed": 1432,
      "ae": 1433,
      "cer": 1434,
      "eh": 1435,
      "rid": 1436,
      "ĠÐ": 1437,
      "ales": 1438,
      "Ġdif": 1439,
      "Ġlit": 1440,
      "Ġland": 1441,
      "emen": 1442,
      "âĢĿ": 1443,
      "Ġvill": 1444,
      "Ġprofess": 1445,
      "Ġpolitical": 1446,
      "ouncil": 1447,
      "ched": 1448,
      "Ġsy": 1449,
      "alian": 1450,
      "ality": 1451,
      "Ġpost": 1452,
      "Ġpresent": 1453,
      "ĠMich": 1454,
      "emp": 1455,
      "Ġnational": 1456,
      "Ġeach": 1457,
      "ety": 1458,
      "ower": 1459,
      "ĠEx": 1460,
      "ection": 1461,
      "Ġaround": 1462,
      "ording": 1463,
      "lands": 1464,
      "Ġcommun": 1465,
      "Ġhousem": 1466,
      "Ġearly": 1467,
      "ium": 1468,
      "ner": 1469,
      "ting": 1470,
      "iness": 1471,
      "era": 1472,
      "Ġfac": 1473,
      "ĠAb": 1474,
      "els": 1475,
      "ural": 1476,
      "eth": 1477,
      "ĠFrom": 1478,
      "Ġgeneral": 1479,
      "artment": 1480,
      "Ġvot": 1481,
      "ĠChrist": 1482,
      "ĠItalian": 1483,
      "ĠArt": 1484,
      "Ġclaim": 1485,
      "Ġmanag": 1486,
      "ĠParliament": 1487,
      "ĠJews": 1488,
      "Ġmoved": 1489,
      "ministr": 1490,
      "tle": 1491,
      "Ġworld": 1492,
      "ata": 1493,
      "ĠCup": 1494,
      "Ġ23": 1495,
      "ĠDistrict": 1496,
      "ides": 1497,
      "oung": 1498,
      "ĠQue": 1499,
      "Ġwritten": 1500,
      "Ġdescribed": 1501,
      "iber": 1502,
      "oor": 1503,
      "eng": 1504,
      "ĠThere": 1505,
      "Ġbeg": 1506,
      "ards": 1507,
      "Ġchar": 1508,
      "Ġshow": 1509,
      "ext": 1510,
      "ĠâĢľ": 1511,
      "Ġsuccess": 1512,
      "ĠTurkey": 1513,
      "ange": 1514,
      "Ġob": 1515,
      "Ġfather": 1516,
      "omb": 1517,
      "Ġmod": 1518,
      "Ġhigh": 1519,
      "Ġ24": 1520,
      "ets": 1521,
      "raft": 1522,
      "Ġchampionship": 1523,
      "ĠSyrian": 1524,
      "ais": 1525,
      "aur": 1526,
      "ble": 1527,
      "ford": 1528,
      "ti": 1529,
      "ys": 1530,
      "ze": 1531,
      "ats": 1532,
      "ĠPresident": 1533,
      "Ġlaw": 1534,
      "Ġhelp": 1535,
      "uten": 1536,
      "usiness": 1537,
      "Ġchurch": 1538,
      "Ġclass": 1539,
      "Ġ188": 1540,
      "Ġaddition": 1541,
      "Ġkilled": 1542,
      "ience": 1543,
      "lin": 1544,
      "ison": 1545,
      "Ġmajor": 1546,
      "ĠTom": 1547,
      "ĠMon": 1548,
      "Ġ25": 1549,
      "ĠPe": 1550,
      "ĠBe": 1551,
      "ĠDe": 1552,
      "Ġnamed": 1553,
      "Ġiss": 1554,
      "ĠEduc": 1555,
      "Ġ2014": 1556,
      "ull": 1557,
      "Ġright": 1558,
      "ieuten": 1559,
      "ible": 1560,
      "Ġdirector": 1561,
      "ospital": 1562,
      "Ġbuilding": 1563,
      "Ġprevious": 1564,
      "ittee": 1565,
      "ieutenant": 1566,
      "af": 1567,
      "ks": 1568,
      "ked": 1569,
      "ring": 1570,
      "Ã¶": 1571,
      "Ġfive": 1572,
      "ama": 1573,
      "ster": 1574,
      "urd": 1575,
      "ette": 1576,
      "Ġstation": 1577,
      "ĠOg": 1578,
      "osed": 1579,
      "ĠUK": 1580,
      "illion": 1581,
      "ĠChar": 1582,
      "ĠYemen": 1583,
      "Ġcountry": 1584,
      "ĠPortug": 1585,
      "Ġviol": 1586,
      "Ġsmall": 1587,
      "rol": 1588,
      "Ġcame": 1589,
      "ĠMor": 1590,
      "stem": 1591,
      "ĠIran": 1592,
      "ĠPal": 1593,
      "ached": 1594,
      "ively": 1595,
      "Ġnomin": 1596,
      "Ġthird": 1597,
      "Ġanother": 1598,
      "Ġcond": 1599,
      "orthern": 1600,
      "ove": 1601,
      "ellow": 1602,
      "ments": 1603,
      "Ġcomplet": 1604,
      "Ġexper": 1605,
      "ected": 1606,
      "wards": 1607,
      "ociation": 1608,
      "Ġeduc": 1609,
      "iam": 1610,
      "me": 1611,
      "inc": 1612,
      "reen": 1613,
      "Ġband": 1614,
      "Ġbest": 1615,
      "Ġpass": 1616,
      "ĠSch": 1617,
      "Ġrest": 1618,
      "Ġnorth": 1619,
      "ĠLac": 1620,
      "ĠInternational": 1621,
      "ĠAll": 1622,
      "Ġserving": 1623,
      "Ġelected": 1624,
      "Ġreported": 1625,
      "ĠSaudi": 1626,
      "Ġcurrently": 1627,
      "ĠDemocratic": 1628,
      "aut": 1629,
      "mit": 1630,
      "Ġri": 1631,
      "enus": 1632,
      "arm": 1633,
      "Ġint": 1634,
      "Ġcare": 1635,
      "Ġpop": 1636,
      "ĠCo": 1637,
      "ention": 1638,
      "ĠMal": 1639,
      "ĠHamp": 1640,
      "ĠHouse": 1641,
      "Ġled": 1642,
      "Ġlarge": 1643,
      "ecut": 1644,
      "imin": 1645,
      "Ġgiven": 1646,
      "ĠSenate": 1647,
      "ĠSenior": 1648,
      "Ġofficial": 1649,
      "ograph": 1650,
      "rich": 1651,
      "uch": 1652,
      "Ġ&": 1653,
      "hes": 1654,
      "Ġthese": 1655,
      "ared": 1656,
      "Ġcamp": 1657,
      "Ġmer": 1658,
      "Ġhand": 1659,
      "ille": 1660,
      "Ġrequ": 1661,
      "Ġ22": 1662,
      "ĠKing": 1663,
      "que": 1664,
      "ically": 1665,
      "Ġworks": 1666,
      "Ġsurf": 1667,
      "Ġvillage": 1668,
      "get": 1669,
      "ature": 1670,
      "esp": 1671,
      "Ġdist": 1672,
      "ĠCour": 1673,
      "ĠII": 1674,
      "ĠIr": 1675,
      "Ġearn": 1676,
      "ander": 1677,
      "Ġwhat": 1678,
      "hile": 1679,
      "Ġ189": 1680,
      "Ġparticip": 1681,
      "Ġadv": 1682,
      "ches": 1683,
      "off": 1684,
      "Ġ,": 1685,
      "ences": 1686,
      "anc": 1687,
      "Ġtotal": 1688,
      "ĠTex": 1689,
      "ĠAf": 1690,
      "ĠCast": 1691,
      "ctor": 1692,
      "ody": 1693,
      "Ġchart": 1694,
      "ĠCommission": 1695,
      "ĠIndia": 1696,
      "Ġofficers": 1697,
      "Ġperfor": 1698,
      "Ġmarried": 1699,
      "echn": 1700,
      "Ġstarted": 1701,
      "Ġdiffer": 1702,
      "ĠHampshire": 1703,
      "bec": 1704,
      "fl": 1705,
      "ĠÂ": 1706,
      "Ġson": 1707,
      "Ġsold": 1708,
      "isl": 1709,
      "Ġcivil": 1710,
      "omet": 1711,
      "Ġlake": 1712,
      "ots": 1713,
      "ĠEl": 1714,
      "Ġ2010": 1715,
      "Ġ2012": 1716,
      "Ġdeg": 1717,
      "orts": 1718,
      "Ġproject": 1719,
      "ours": 1720,
      "Ġround": 1721,
      "ounced": 1722,
      "Ġbecause": 1723,
      "letree": 1724,
      "Ġroad": 1725,
      "inning": 1726,
      "ĠCanada": 1727,
      "ĠOgletree": 1728,
      "12": 1729,
      "16": 1730,
      "ax": 1731,
      "dom": 1732,
      "Äĩ": 1733,
      "ari": 1734,
      "ĠAcc": 1735,
      "ĠMus": 1736,
      "Ġlife": 1737,
      "Ġnext": 1738,
      "Ġ2008": 1739,
      "Ġinclude": 1740,
      "Ġreturned": 1741,
      "ĠEngland": 1742,
      "Ġmatch": 1743,
      "Ġbrother": 1744,
      "Ġjoined": 1745,
      "ĠTexas": 1746,
      "iod": 1747,
      "ues": 1748,
      "uel": 1749,
      "vers": 1750,
      "Ġtour": 1751,
      "Ġwin": 1752,
      "anish": 1753,
      "ately": 1754,
      "ara": 1755,
      "itiz": 1756,
      "ices": 1757,
      "Ġmark": 1758,
      "ĠAg": 1759,
      "olic": 1760,
      "adem": 1761,
      "ĠPika": 1762,
      "Ġprop": 1763,
      "Ġleg": 1764,
      "Ġyoung": 1765,
      "Ġparty": 1766,
      "Ġregion": 1767,
      "Ġinvest": 1768,
      "Ġcreated": 1769,
      "anguage": 1770,
      "ĠRepublican": 1771,
      "view": 1772,
      "Ġcharac": 1773,
      "ĠEducation": 1774,
      "dle": 1775,
      "lo": 1776,
      "the": 1777,
      "zer": 1778,
      "Ġ'": 1779,
      "ena": 1780,
      "Ġwro": 1781,
      "Ġsl": 1782,
      "Ġperson": 1783,
      "lev": 1784,
      "Ġhaving": 1785,
      "urther": 1786,
      "Ġeff": 1787,
      "Ġprod": 1788,
      "lower": 1789,
      "ĠOne": 1790,
      "ĠSyria": 1791,
      "retary": 1792,
      "itizens": 1793,
      "Ġwrote": 1794,
      "ru": 1795,
      "Ġel": 1796,
      "Ġfew": 1797,
      "Ġfield": 1798,
      "Ġbusiness": 1799,
      "Ġpe": 1800,
      "Ġpo": 1801,
      "Ġdaugh": 1802,
      "ĠPeople": 1803,
      "Ġvo": 1804,
      "ĠChurch": 1805,
      "Ġservice": 1806,
      "Ġ30": 1807,
      "Ġweek": 1808,
      "Ġoverall": 1809,
      "Ġfounded": 1810,
      "Ġentered": 1811,
      "Ġrepresented": 1812,
      "Ġhistory": 1813,
      "uge": 1814,
      "Ã¼": 1815,
      "Ġaut": 1816,
      "Ġwent": 1817,
      "ream": 1818,
      "alf": 1819,
      "Ġfund": 1820,
      "Ġfact": 1821,
      "Ġfellow": 1822,
      "Ġche": 1823,
      "Ġcric": 1824,
      "ĠAc": 1825,
      "Ġdue": 1826,
      "ĠCouncil": 1827,
      "isted": 1828,
      "ĠWhen": 1829,
      "Ġ2013": 1830,
      "Ġconstit": 1831,
      "Ġshort": 1832,
      "Ġjust": 1833,
      "Ġregiment": 1834,
      "ĠPhil": 1835,
      "Ġannounced": 1836,
      "ha": 1837,
      "hy": 1838,
      "iÄĩ": 1839,
      "ji": 1840,
      "sy": 1841,
      "Ġtimes": 1842,
      "Ġage": 1843,
      "Ġsent": 1844,
      "Ġopp": 1845,
      "alc": 1846,
      "Ġinternational": 1847,
      "astern": 1848,
      "ĠSk": 1849,
      "Ġmy": 1850,
      "Ġmillion": 1851,
      "ĠHar": 1852,
      "aces": 1853,
      "acher": 1854,
      "cept": 1855,
      "ĠWill": 1856,
      "ries": 1857,
      "Ġconc": 1858,
      "ource": 1859,
      "ified": 1860,
      "ĠStreet": 1861,
      "Ġord": 1862,
      "Ġresearch": 1863,
      "Ġrole": 1864,
      "sport": 1865,
      "Ġinvol": 1866,
      "ĠChampionships": 1867,
      "Ġamong": 1868,
      "Ġlaun": 1869,
      "ĠAustralia": 1870,
      "ĠDepartment": 1871,
      "Ġsurvived": 1872,
      "Ġsystem": 1873,
      "ĠCourt": 1874,
      "ger": 1875,
      "well": 1876,
      "Ġtw": 1877,
      "ini": 1878,
      "ories": 1879,
      "Ġwater": 1880,
      "Ġold": 1881,
      "rest": 1882,
      "Ġface": 1883,
      "Ġput": 1884,
      "ĠSup": 1885,
      "Ġmass": 1886,
      "ĠHow": 1887,
      "Ġ21": 1888,
      "ĠBro": 1889,
      "ĠGood": 1890,
      "ĠEast": 1891,
      "ests": 1892,
      "Ġrank": 1893,
      "epend": 1894,
      "apan": 1895,
      "ailed": 1896,
      "Ġspecial": 1897,
      "Ġfourth": 1898,
      "Ġcontinued": 1899,
      "Ġproduced": 1900,
      "Ġpromoted": 1901,
      "ĠAccording": 1902,
      "ck": 1903,
      "gy": 1904,
      "ox": 1905,
      "ship": 1906,
      "yle": 1907,
      "Ġec": 1908,
      "Ġship": 1909,
      "Ġmult": 1910,
      "ĠMed": 1911,
      "Ġlight": 1912,
      "irc": 1913,
      "Ġnov": 1914,
      "Ġforces": 1915,
      "uty": 1916,
      "Ġorder": 1917,
      "ization": 1918,
      "mann": 1919,
      "ĠAng": 1920,
      "embly": 1921,
      "Ġdirected": 1922,
      "ĠFrance": 1923,
      "Ġawards": 1924,
      "Ġposition": 1925,
      "Ã³n": 1926,
      "Ġvisit": 1927,
      "Ġpoints": 1928,
      "Ġliter": 1929,
      "Ġprofessional": 1930,
      "17": 1931,
      "bor": 1932,
      "sc": 1933,
      "Ã¨": 1934,
      "Ġ$": 1935,
      "Ġident": 1936,
      "Ġvery": 1937,
      "heast": 1938,
      "ense": 1939,
      "ency": 1940,
      "Ġsim": 1941,
      "read": 1942,
      "Ġfif": 1943,
      "Ġca": 1944,
      "Ġmet": 1945,
      "ĠChe": 1946,
      "ĠCath": 1947,
      "ĠRober": 1948,
      "ĠJos": 1949,
      "Ġgame": 1950,
      "Ġconstr": 1951,
      "ĠInc": 1952,
      "ĠChin": 1953,
      "ĠChina": 1954,
      "ending": 1955,
      "Ġext": 1956,
      "class": 1957,
      "ĠThom": 1958,
      "Ġrepl": 1959,
      "Ġplayer": 1960,
      "ĠCommittee": 1961,
      "Ġperiod": 1962,
      "useum": 1963,
      "Ġartist": 1964,
      "ĠCentral": 1965,
      "ĠAustralian": 1966,
      "Ġsurface": 1967,
      "Ġinvestig": 1968,
      "band": 1969,
      "eep": 1970,
      "lished": 1971,
      "ness": 1972,
      "round": 1973,
      "west": 1974,
      "work": 1975,
      "atives": 1976,
      "Ġside": 1977,
      "Ġsite": 1978,
      "Ġcrit": 1979,
      "Ġcase": 1980,
      "lex": 1981,
      "ĠAth": 1982,
      "Ġ100": 1983,
      "ĠMusic": 1984,
      "ĠHen": 1985,
      "Ġ26": 1986,
      "Ġlarg": 1987,
      "Ġlieutenant": 1988,
      "ĠDav": 1989,
      "ids": 1990,
      "ĠLeg": 1991,
      "ĠGl": 1992,
      "ĠNo": 1993,
      "Ġ(\"": 1994,
      "Ġgenus": 1995,
      "ĠWil": 1996,
      "anding": 1997,
      "Ġstated": 1998,
      "Ġbeh": 1999,
      "uman": 2000,
      "ians": 2001,
      "hib": 2002,
      "ains": 2003,
      "Ġproper": 2004,
      "Ġarr": 2005,
      "Ġbecome": 2006,
      "Ġ--": 2007,
      "Ġmeet": 2008,
      "Ġmonth": 2009,
      "Ġfeatured": 2010,
      "Ġestablished": 2011,
      "ĠRussia": 2012,
      "oirang": 2013,
      "Ġhousemates": 2014,
      "Ġconstituen": 2015,
      "eal": 2016,
      "rd": 2017,
      "tr": 2018,
      "Ġif": 2019,
      "Ġty": 2020,
      "ery": 2021,
      "only": 2022,
      "onstr": 2023,
      "ane": 2024,
      "isc": 2025,
      "reed": 2026,
      "Ġfoc": 2027,
      "Ġfurther": 2028,
      "esh": 2029,
      "ĠServ": 2030,
      "Ġdet": 2031,
      "ĠMart": 2032,
      "ĠHorn": 2033,
      "ival": 2034,
      "idae": 2035,
      "ĠRes": 2036,
      "ĠJapan": 2037,
      "ĠWood": 2038,
      "bert": 2039,
      "Ġallow": 2040,
      "riend": 2041,
      "ulation": 2042,
      "ĠItaly": 2043,
      "ĠPark": 2044,
      "Ġqualif": 2045,
      "ification": 2046,
      "Ġawarded": 2047,
      "asket": 2048,
      "Ġestablish": 2049,
      "Ġnominated": 2050,
      "ĠThomas": 2051,
      "ĠAthlet": 2052,
      "\")": 2053,
      "iet": 2054,
      "mi": 2055,
      "par": 2056,
      "water": 2057,
      "ÃŃ": 2058,
      "Ġtake": 2059,
      "Ġtournament": 2060,
      "eral": 2061,
      "Ġsol": 2062,
      "Ġsouth": 2063,
      "Ġinst": 2064,
      "itar": 2065,
      "Ġbomb": 2066,
      "Ġbody": 2067,
      "ĠSing": 2068,
      "ĠShire": 2069,
      "Ġtown": 2070,
      "Ġmot": 2071,
      "ĠAir": 2072,
      "ĠCam": 2073,
      "ĠMountain": 2074,
      "Ġreached": 2075,
      "ĠPer": 2076,
      "ĠPre": 2077,
      "acy": 2078,
      "Ġline": 2079,
      "ĠLou": 2080,
      "ays": 2081,
      "uses": 2082,
      "ĠNot": 2083,
      "istry": 2084,
      "Ġstory": 2085,
      "ump": 2086,
      "ĠKh": 2087,
      "ude": 2088,
      "abor": 2089,
      "Ġchang": 2090,
      "Ġlet": 2091,
      "Ġ1980": 2092,
      "Ġattended": 2093,
      "ference": 2094,
      "Ġelections": 2095,
      "Ġuse": 2096,
      "Ġroom": 2097,
      "Ġindust": 2098,
      "onym": 2099,
      "Ġhistor": 2100,
      "Ġrefuge": 2101,
      "Ġactivities": 2102,
      "Ġcompleted": 2103,
      "Ġcharacter": 2104,
      "Ġdaughter": 2105,
      "13": 2106,
      "bur": 2107,
      "eated": 2108,
      "ipp": 2109,
      "ming": 2110,
      "nect": 2111,
      "Ġcapt": 2112,
      "Ġpres": 2113,
      "ĠTe": 2114,
      "ĠMir": 2115,
      "olut": 2116,
      "ela": 2117,
      "Ġ29": 2118,
      "ĠBat": 2119,
      "ĠBar": 2120,
      "ĠDr": 2121,
      "ĠDef": 2122,
      "Ġnow": 2123,
      "Ġep": 2124,
      "ĠRev": 2125,
      "igan": 2126,
      "ĠFC": 2127,
      "ĠGra": 2128,
      "ĠNavy": 2129,
      "Ġgener": 2130,
      "ceed": 2131,
      "Ġstreet": 2132,
      "though": 2133,
      "ĠOx": 2134,
      "Ġ2011": 2135,
      "ĠInstitut": 2136,
      "Ġplaced": 2137,
      "Ġeven": 2138,
      "aching": 2139,
      "Ġ1983": 2140,
      "Ġworking": 2141,
      "indo": 2142,
      "Ġstudied": 2143,
      "ĠShindo": 2144,
      "Ġconsid": 2145,
      "Ġleaders": 2146,
      "ĠPolit": 2147,
      "Ġcentury": 2148,
      "Ġcourse": 2149,
      "Ġengine": 2150,
      "ĠMichigan": 2151,
      "ĠIrish": 2152,
      "Ġdifferent": 2153,
      "Ġdegree": 2154,
      "Ġeconom": 2155,
      "Ã¨re": 2156,
      "asketball": 2157,
      "15": 2158,
      "blower": 2159,
      "den": 2160,
      "tar": 2161,
      "Å¡": 2162,
      "ink": 2163,
      "atin": 2164,
      "Ġsign": 2165,
      "Ġcitizens": 2166,
      "Ġbat": 2167,
      "ĠSome": 2168,
      "Ġhost": 2169,
      "ĠMember": 2170,
      "ĠHigh": 2171,
      "Ġ27": 2172,
      "Ġlike": 2173,
      "ĠThese": 2174,
      "ĠBer": 2175,
      "Ġne": 2176,
      "Ġnight": 2177,
      "ĠLiber": 2178,
      "ĠFl": 2179,
      "ĠWall": 2180,
      "ĠWomen": 2181,
      "ĠWhile": 2182,
      "rain": 2183,
      "aining": 2184,
      "avi": 2185,
      "ĠArts": 2186,
      "Ġadministr": 2187,
      "Ġ2007": 2188,
      "Ġ1987": 2189,
      "Ġplaying": 2190,
      "ators": 2191,
      "ĠQu": 2192,
      "ĠClub": 2193,
      "ĠScott": 2194,
      "Ġappeared": 2195,
      "Ġcurrent": 2196,
      "ĠGeorge": 2197,
      "Ġcommunity": 2198,
      "ĠCatholic": 2199,
      "ĠHornblower": 2200,
      "ee": 2201,
      "kn": 2202,
      "ket": 2203,
      "Ġwife": 2204,
      "Ġsw": 2205,
      "Ġsum": 2206,
      "ico": 2207,
      "ĠSan": 2208,
      "ĠSal": 2209,
      "Ġdam": 2210,
      "Ġhit": 2211,
      "ĠMc": 2212,
      "ĠMu": 2213,
      "ĠMad": 2214,
      "ĠMun": 2215,
      "ĠHol": 2216,
      "urs": 2217,
      "acre": 2218,
      "Ġlate": 2219,
      "ĠBl": 2220,
      "ĠBy": 2221,
      "iga": 2222,
      "Ġ()": 2223,
      "ĠWe": 2224,
      "agaz": 2225,
      "aguen": 2226,
      "ĠOff": 2227,
      "hief": 2228,
      "abel": 2229,
      "Ġleague": 2230,
      "Ġoffice": 2231,
      "Ġplays": 2232,
      "Ġ1990": 2233,
      "Ġ1999": 2234,
      "Ġevents": 2235,
      "Ġcoll": 2236,
      "Ġstudents": 2237,
      "Ġcoal": 2238,
      "ĠAssociation": 2239,
      "Ġvarious": 2240,
      "Ġhowever": 2241,
      "ĠWilliam": 2242,
      "Ġnovel": 2243,
      "ĠAthletics": 2244,
      "MCA": 2245,
      "iÃ¨re": 2246,
      "sk": 2247,
      "ĠX": 2248,
      "Ġwoman": 2249,
      "ani": 2250,
      "atic": 2251,
      "Ġsit": 2252,
      "Ġsaw": 2253,
      "Ġinj": 2254,
      "Ġcand": 2255,
      "Ġball": 2256,
      "Ġpat": 2257,
      "Ġpri": 2258,
      "ĠShi": 2259,
      "ĠSince": 2260,
      "ĠSocial": 2261,
      "ĠSource": 2262,
      "Ġread": 2263,
      "ola": 2264,
      "urt": 2265,
      "urity": 2266,
      "irl": 2267,
      "ĠDon": 2268,
      "Ġheavy": 2269,
      "ute": 2270,
      "Ġwithout": 2271,
      "Ġrally": 2272,
      "ĠIts": 2273,
      "ugg": 2274,
      "ĠYMCA": 2275,
      "Ġ1982": 2276,
      "Ġ1929": 2277,
      "Ġ1968": 2278,
      "Ġindepend": 2279,
      "ĠAssembly": 2280,
      "ĠRegiment": 2281,
      "aught": 2282,
      "Ġgraduated": 2283,
      "Ġlaunched": 2284,
      "ĠHowever": 2285,
      "aguenay": 2286,
      "aul": 2287,
      "board": 2288,
      "ele": 2289,
      "iers": 2290,
      "lated": 2291,
      "mar": 2292,
      "self": 2293,
      "Ġ<": 2294,
      "Ġaff": 2295,
      "includ": 2296,
      "ored": 2297,
      "Ġway": 2298,
      "ances": 2299,
      "atus": 2300,
      "Ġfun": 2301,
      "Ġfriend": 2302,
      "estern": 2303,
      "Ġbase": 2304,
      "Ġmean": 2305,
      "Ġmother": 2306,
      "Ġdown": 2307,
      "Ġhold": 2308,
      "ĠHa": 2309,
      "Ġ28": 2310,
      "ĠBoard": 2311,
      "Ġnort": 2312,
      "Ġthose": 2313,
      "Ġevery": 2314,
      "ĠLaw": 2315,
      "ĠGames": 2316,
      "ĠNorthern": 2317,
      "Ġgun": 2318,
      "Ġanti": 2319,
      "oss": 2320,
      "osition": 2321,
      "ested": 2322,
      "Ġren": 2323,
      "ishop": 2324,
      "ape": 2325,
      "ogn": 2326,
      "Ġarrest": 2327,
      "Ġ2006": 2328,
      "Ġ1996": 2329,
      "ĠParaly": 2330,
      "Ġstudio": 2331,
      "airs": 2332,
      "ĠArabs": 2333,
      "ociety": 2334,
      "ĠâĢĺ": 2335,
      "formation": 2336,
      "Ġtrack": 2337,
      "Ġeducation": 2338,
      "ĠChinese": 2339,
      "olution": 2340,
      "ĠPolitical": 2341,
      "of": 2342,
      "ta": 2343,
      "ville": 2344,
      "ya": 2345,
      "Ġaway": 2346,
      "Ġwat": 2347,
      "Ġwind": 2348,
      "Ġsout": 2349,
      "reak": 2350,
      "Ġcast": 2351,
      "ĠSaint": 2352,
      "ĠSaguenay": 2353,
      "oming": 2354,
      "Ġmountain": 2355,
      "ĠTran": 2356,
      "ĠCalif": 2357,
      "Ġhon": 2358,
      "ental": 2359,
      "ĠHas": 2360,
      "iviÃ¨re": 2361,
      "irst": 2362,
      "Ġneed": 2363,
      "ĠLa": 2364,
      "Ġgather": 2365,
      "ript": 2366,
      "Ġvict": 2367,
      "uba": 2368,
      "aper": 2369,
      "ornia": 2370,
      "Ġ2009": 2371,
      "overed": 2372,
      "Ġcontrol": 2373,
      "Ġdesigned": 2374,
      "medi": 2375,
      "Ġofficer": 2376,
      "ĠProv": 2377,
      "Ġ1930": 2378,
      "Ġassist": 2379,
      "Ġsongs": 2380,
      "Ġmedal": 2381,
      "ĠAnderson": 2382,
      "Ġopened": 2383,
      "Ġoriginal": 2384,
      "ĠMidlands": 2385,
      "Ġdemonstr": 2386,
      "ĠQuebec": 2387,
      "Ġissued": 2388,
      "Ġviolence": 2389,
      "ĠPalest": 2390,
      "Ġearned": 2391,
      "echnology": 2392,
      "ĠAcadem": 2393,
      "ĠGoodrich": 2394,
      "Ġcandid": 2395,
      "ĠCalifornia": 2396,
      "'t": 2397,
      "30": 2398,
      "election": 2399,
      "ij": 2400,
      "pez": 2401,
      "Ġill": 2402,
      "Ġsess": 2403,
      "Ġsocial": 2404,
      "rey": 2405,
      "reland": 2406,
      "Ġfree": 2407,
      "Ġfull": 2408,
      "ĠSu": 2409,
      "ĠSer": 2410,
      "ĠSam": 2411,
      "oud": 2412,
      "Ġtold": 2413,
      "Ġtoget": 2414,
      "Ġmake": 2415,
      "ĠAct": 2416,
      "Ġhus": 2417,
      "ĠMil": 2418,
      "ĠMost": 2419,
      "Ġreb": 2420,
      "rov": 2421,
      "ĠIreland": 2422,
      "ĠPri": 2423,
      "Ġlost": 2424,
      "ĠRec": 2425,
      "ĠList": 2426,
      "ĠLater": 2427,
      "Ġasked": 2428,
      "ĠGovernment": 2429,
      "ĠGrand": 2430,
      "aged": 2431,
      "aging": 2432,
      "Ġvide": 2433,
      "Ġchampions": 2434,
      "Ġexhib": 2435,
      "sequ": 2436,
      "Ġaged": 2437,
      "ploy": 2438,
      "Ġrelease": 2439,
      "Ġcompetition": 2440,
      "ĠSpanish": 2441,
      "ĠAmerica": 2442,
      "ought": 2443,
      "rowd": 2444,
      "Ġrelations": 2445,
      "ĠGermany": 2446,
      "ĠRoad": 2447,
      "umbent": 2448,
      "ĠGeorg": 2449,
      "coming": 2450,
      "ĠSwed": 2451,
      "Ġvote": 2452,
      "ecutive": 2453,
      "ĠKingdom": 2454,
      "levision": 2455,
      "ĠDavid": 2456,
      "onlyinclud": 2457,
      "Ġtogether": 2458,
      "onlyinclude": 2459,
      "Jean": 2460,
      "aign": 2461,
      "mb": 2462,
      "men": 2463,
      "oz": 2464,
      "rant": 2465,
      "uation": 2466,
      "ont": 2467,
      "oral": 2468,
      "anies": 2469,
      "Ġfem": 2470,
      "Ġcult": 2471,
      "Ġcross": 2472,
      "Ġcrowd": 2473,
      "Ġbasketball": 2474,
      "Ġport": 2475,
      "Ġdu": 2476,
      "ĠMet": 2477,
      "ĠHot": 2478,
      "ĠHung": 2479,
      "ĠHospital": 2480,
      "roy": 2481,
      "Ġlanguage": 2482,
      "ĠBie": 2483,
      "ĠDan": 2484,
      "ĠDirect": 2485,
      "Ġformed": 2486,
      "ĠLÃ³": 2487,
      "ĠFirst": 2488,
      "ĠJer": 2489,
      "ĠGeller": 2490,
      "unt": 2491,
      "unch": 2492,
      "ĠNa": 2493,
      "ĠNor": 2494,
      "ĠWalk": 2495,
      "rian": 2496,
      "ope": 2497,
      "Ġvers": 2498,
      "Ġriver": 2499,
      "akes": 2500,
      "ords": 2501,
      "Ġ31": 2502,
      "Ġjourn": 2503,
      "Ġcommission": 2504,
      "Ġfinish": 2505,
      "Ġ1970": 2506,
      "Ġprim": 2507,
      "Ġsaf": 2508,
      "Ġleading": 2509,
      "Ġrail": 2510,
      "ront": 2511,
      "Ġconfir": 2512,
      "ĠSecretary": 2513,
      "ĠCompany": 2514,
      "Ġfifth": 2515,
      "ĠHenry": 2516,
      "Ġrefugees": 2517,
      "ĠInstitute": 2518,
      "agazine": 2519,
      "Ġheavyweight": 2520,
      "Ġhusband": 2521,
      "ĠBieber": 2522,
      "ĠLÃ³pez": 2523,
      "10": 2524,
      "><": 2525,
      "mad": 2526,
      "ning": 2527,
      "rs": 2528,
      "ris": 2529,
      "uter": 2530,
      "uese": 2531,
      "vent": 2532,
      "onel": 2533,
      "Ġinit": 2534,
      "Ġinfl": 2535,
      "esters": 2536,
      "Ġpower": 2537,
      "ĠAward": 2538,
      "Ġdou": 2539,
      "amb": 2540,
      "ivid": 2541,
      "ems": 2542,
      "Ġeight": 2543,
      "ĠFin": 2544,
      "ĠFilm": 2545,
      "ĠJames": 2546,
      "ĠNe": 2547,
      "istic": 2548,
      "ĠWh": 2549,
      "ĠKurd": 2550,
      "Ġvia": 2551,
      "iff": 2552,
      "ode": 2553,
      "ĠStud": 2554,
      "elling": 2555,
      "Ġcompanies": 2556,
      "Ġareas": 2557,
      "ective": 2558,
      "Ġarmy": 2559,
      "uck": 2560,
      "ĠVir": 2561,
      "Ġtelevision": 2562,
      "ize": 2563,
      "leton": 2564,
      "Ġrecogn": 2565,
      "ĠPara": 2566,
      "rica": 2567,
      "Ġreturn": 2568,
      "ĠCenter": 2569,
      "Ġfootballer": 2570,
      "Ġopening": 2571,
      "Ġdevelopment": 2572,
      "ynette": 2573,
      "ĠRussian": 2574,
      "Ġmiddle": 2575,
      "Ġbeginning": 2576,
      "ĠPeter": 2577,
      "ĠPortugal": 2578,
      "Ġordered": 2579,
      "ĠSuper": 2580,
      "EO": 2581,
      "ael": 2582,
      "bed": 2583,
      "cher": 2584,
      "ein": 2585,
      "ga": 2586,
      "gin": 2587,
      "iences": 2588,
      "time": 2589,
      "ino": 2590,
      "Ġwest": 2591,
      "atter": 2592,
      "Ġsk": 2593,
      "Ġsurn": 2594,
      "isation": 2595,
      "arr": 2596,
      "Ġfire": 2597,
      "icles": 2598,
      "Ġmouth": 2599,
      "Ġmaster": 2600,
      "Ġmuch": 2601,
      "ĠCons": 2602,
      "Ġhours": 2603,
      "enty": 2604,
      "ĠMuseum": 2605,
      "ĠPet": 2606,
      "ivate": 2607,
      "ota": 2608,
      "ĠJac": 2609,
      "ĠGr": 2610,
      "ĠNet": 2611,
      "Ġgames": 2612,
      "Ġgreat": 2613,
      "ands": 2614,
      "Ġstyle": 2615,
      "Ġanaly": 2616,
      "osen": 2617,
      "rael": 2618,
      "iang": 2619,
      "alls": 2620,
      "akh": 2621,
      "Ġleast": 2622,
      "ĠYou": 2623,
      "Ġteacher": 2624,
      "Ġ2001": 2625,
      "Ġ2003": 2626,
      "Ġ1984": 2627,
      "Ġ1991": 2628,
      "Ġdisp": 2629,
      "Ġweap": 2630,
      "Ġusing": 2631,
      "Ġ50": 2632,
      "Ġ1956": 2633,
      "Ġimmedi": 2634,
      "Ġ1960": 2635,
      "ĠForce": 2636,
      "Ġdoctor": 2637,
      "ĠPolice": 2638,
      "Ġmedia": 2639,
      "Ġimport": 2640,
      "Ġexpress": 2641,
      "Ġtoponym": 2642,
      "Ġoriginally": 2643,
      "ĠMinistry": 2644,
      "Ġauthorities": 2645,
      "Ġexplos": 2646,
      "ridge": 2647,
      "Ġfacility": 2648,
      "Ġclaimed": 2649,
      "Ġcareer": 2650,
      "islative": 2651,
      "Ġconstruction": 2652,
      "Ġconstituency": 2653,
      "Ġcoalition": 2654,
      ",\"": 2655,
      "Comet": 2656,
      "be": 2657,
      "go": 2658,
      "ih": 2659,
      "iated": 2660,
      "ko": 2661,
      "rac": 2662,
      "sis": 2663,
      "ties": 2664,
      "ux": 2665,
      "war": 2666,
      "Ġ/": 2667,
      "ĠÑ": 2668,
      "Ġtarg": 2669,
      "edo": 2670,
      "Ġwid": 2671,
      "Ġsen": 2672,
      "aring": 2673,
      "Ġfight": 2674,
      "Ġcas": 2675,
      "Ġboard": 2676,
      "omp": 2677,
      "ĠTournament": 2678,
      "Ġdra": 2679,
      "Ġhospital": 2680,
      "Ġhalf": 2681,
      "ĠMe": 2682,
      "ĠPat": 2683,
      "urb": 2684,
      "Ġ1920": 2685,
      "ĠBud": 2686,
      "Ġeast": 2687,
      "ĠRu": 2688,
      "ett": 2689,
      "uture": 2690,
      "imate": 2691,
      "ĠWynette": 2692,
      "Ġstop": 2693,
      "Ġstill": 2694,
      "ulf": 2695,
      "iana": 2696,
      "ĠHealth": 2697,
      "Ġrad": 2698,
      "aken": 2699,
      "illboard": 2700,
      "Ġplan": 2701,
      "ounded": 2702,
      "Ġarch": 2703,
      "ampion": 2704,
      "Ġpolic": 2705,
      "Ġshot": 2706,
      "ĠProfess": 2707,
      "Ġindivid": 2708,
      "Ġdefeat": 2709,
      "Ġcountries": 2710,
      "ĠIsrael": 2711,
      "Ġdecided": 2712,
      "Ġacross": 2713,
      "ĠPrice": 2714,
      "Ġmoney": 2715,
      "Ġdays": 2716,
      "Ġview": 2717,
      "Ġconfl": 2718,
      "Ġdeveloped": 2719,
      "Ġrespons": 2720,
      "ĠGuards": 2721,
      "Ġterm": 2722,
      "ĠMinister": 2723,
      "Ġbelie": 2724,
      "empor": 2725,
      "ĠCharles": 2726,
      "ĠPortuguese": 2727,
      "ĠCastle": 2728,
      "Ġinvolved": 2729,
      "Ġmonths": 2730,
      "Ġepis": 2731,
      "Ġeconomic": 2732,
      "ĠAcademy": 2733,
      "Ġvideo": 2734,
      "ĠDirector": 2735,
      "Ġsurname": 2736,
      ".,": 2737,
      "Billboard": 2738,
      "IC": 2739,
      "LA": 2740,
      "cis": 2741,
      "ead": 2742,
      "hand": 2743,
      "ibr": 2744,
      "most": 2745,
      "oog": 2746,
      "year": 2747,
      "zen": 2748,
      "Ð¾": 2749,
      "Ġz": 2750,
      "Ġav": 2751,
      "ined": 2752,
      "oned": 2753,
      "oration": 2754,
      "iting": 2755,
      "ither": 2756,
      "Ġcor": 2757,
      "Ġcap": 2758,
      "Ġmaking": 2759,
      "lement": 2760,
      "ĠTam": 2761,
      "ĠAk": 2762,
      "ĠAp": 2763,
      "ĠCard": 2764,
      "ĠMen": 2765,
      "ĠMoh": 2766,
      "ĠId": 2767,
      "ĠPan": 2768,
      "Ġlim": 2769,
      "Ġthrow": 2770,
      "Ġ2000": 2771,
      "usal": 2772,
      "ĠFalc": 2773,
      "ĠGal": 2774,
      "ĠOut": 2775,
      "Ġcomb": 2776,
      "ateg": 2777,
      "Ġvon": 2778,
      "Ġval": 2779,
      "Ġdead": 2780,
      "Ġred": 2781,
      "clus": 2782,
      "Ġyou": 2783,
      "Ġtex": 2784,
      "Ġ2004": 2785,
      "Ġplayers": 2786,
      "Ġ1993": 2787,
      "Ġcontribut": 2788,
      "Ġcollect": 2789,
      "Ġnewsp": 2790,
      "Ġprison": 2791,
      "Ġ1948": 2792,
      "airman": 2793,
      "ological": 2794,
      "ĠArabia": 2795,
      "Ġsinger": 2796,
      "Ġaccount": 2797,
      "keter": 2798,
      "ĠAdministr": 2799,
      "ĠPlat": 2800,
      "Ġcourt": 2801,
      "icipality": 2802,
      "Ġstrong": 2803,
      "Ġterrit": 2804,
      "orpedo": 2805,
      "Ġbelong": 2806,
      "Ġclubs": 2807,
      "ĠMichael": 2808,
      "Ġcampaign": 2809,
      "Ġperforman": 2810,
      "Ġautom": 2811,
      "Ġconcern": 2812,
      "ĠFalcÃ³n": 2813,
      "14": 2814,
      "An": 2815,
      "ius": 2816,
      "ka": 2817,
      "lim": 2818,
      "less": 2819,
      "ney": 2820,
      "yr": 2821,
      "yan": 2822,
      "Ã¸": 2823,
      "Ġ0": 2824,
      "Ġice": 2825,
      "Ġtri": 2826,
      "Ġtorpedo": 2827,
      "Ġwinn": 2828,
      "Ġsigned": 2829,
      "ising": 2830,
      "reational": 2831,
      "alt": 2832,
      "Ġfe": 2833,
      "Ġcirc": 2834,
      "esc": 2835,
      "Ġbas": 2836,
      "Ġpm": 2837,
      "ĠTal": 2838,
      "Ġdest": 2839,
      "ĠCop": 2840,
      "ami": 2841,
      "ĠMilitary": 2842,
      "acing": 2843,
      "Ġlow": 2844,
      "ĠBen": 2845,
      "Ġequ": 2846,
      "iding": 2847,
      "ĠLos": 2848,
      "ĠLov": 2849,
      "aying": 2850,
      "ush": 2851,
      "chie": 2852,
      "Ġgl": 2853,
      "Ġgood": 2854,
      "rik": 2855,
      "aval": 2856,
      "Ġprocess": 2857,
      "ources": 2858,
      "ify": 2859,
      "Ġseven": 2860,
      "ights": 2861,
      "eph": 2862,
      "ector": 2863,
      "erve": 2864,
      "Ġ1995": 2865,
      "ĠAnn": 2866,
      "Ġscreen": 2867,
      "Ġfollows": 2868,
      "Ġstudies": 2869,
      "Ġ1927": 2870,
      "Ġ1928": 2871,
      "Ġretired": 2872,
      "Ġhimself": 2873,
      "Ġassoci": 2874,
      "Ġmovement": 2875,
      "Ġcarried": 2876,
      "Ġfeatures": 2877,
      "ellerup": 2878,
      "ĠRepublic": 2879,
      "ĠÃł": 2880,
      "ethod": 2881,
      "Ġmodern": 2882,
      "ĠAfrica": 2883,
      "Ġtourism": 2884,
      "Ġcritic": 2885,
      "ĠWilson": 2886,
      "Ġestablishment": 2887,
      "ĠLouis": 2888,
      "burg": 2889,
      "Ġnortheast": 2890,
      "ĠWalker": 2891,
      "Ġconfirmed": 2892,
      "Ch": 2893,
      "day": 2894,
      "ique": 2895,
      "mm": 2896,
      "mas": 2897,
      "ole": 2898,
      "ple": 2899,
      "pro": 2900,
      "rican": 2901,
      "section": 2902,
      "yl": 2903,
      "za": 2904,
      "int": 2905,
      "aries": 2906,
      "Ġins": 2907,
      "itive": 2908,
      "Ġfig": 2909,
      "Ġbank": 2910,
      "icut": 2911,
      "ĠSm": 2912,
      "Ġmob": 2913,
      "ĠTon": 2914,
      "Ġdiv": 2915,
      "Ġdram": 2916,
      "ĠMul": 2917,
      "ĠHay": 2918,
      "ecially": 2919,
      "ĠTheir": 2920,
      "ira": 2921,
      "ĠBishop": 2922,
      "ĠDen": 2923,
      "ĠRam": 2924,
      "ĠRich": 2925,
      "iger": 2926,
      "thur": 2927,
      "Ġwithin": 2928,
      "ĠOther": 2929,
      "ument": 2930,
      "occer": 2931,
      "ĠKong": 2932,
      "udon": 2933,
      "Ġran": 2934,
      "ĠStaff": 2935,
      "Ġspe": 2936,
      "Ġ185": 2937,
      "Ġ187": 2938,
      "Ġable": 2939,
      "Ġ1989": 2940,
      "Ġ1994": 2941,
      "wood": 2942,
      "Ġappro": 2943,
      "iple": 2944,
      "Ġfinished": 2945,
      "Ġregular": 2946,
      "Ġcollection": 2947,
      "Ġprivate": 2948,
      "ĠCommun": 2949,
      "lier": 2950,
      "ways": 2951,
      "Ġformal": 2952,
      "Ġattacked": 2953,
      "Ġremained": 2954,
      "Ġsixth": 2955,
      "Ġrecorded": 2956,
      "Ġoperations": 2957,
      "alding": 2958,
      "Ġrights": 2959,
      "ĠIranian": 2960,
      "Ġconduct": 2961,
      "ography": 2962,
      "Ġmassacre": 2963,
      "ĠLegislative": 2964,
      "Ġproperty": 2965,
      "Ġarrived": 2966,
      "Ġgathered": 2967,
      "ĠJerusal": 2968,
      "Ġrailway": 2969,
      "Ġimmediately": 2970,
      "MA": 2971,
      "Reg": 2972,
      "ao": 2973,
      "bot": 2974,
      "bek": 2975,
      "mark": 2976,
      "pted": 2977,
      "sel": 2978,
      "writ": 2979,
      "Ġtaking": 2980,
      "erem": 2981,
      "ones": 2982,
      "ene": 2983,
      "Ġwarn": 2984,
      "Ġsqu": 2985,
      "reg": 2986,
      "itor": 2987,
      "Ġfind": 2988,
      "Ġbo": 2989,
      "icle": 2990,
      "ĠSun": 2991,
      "oul": 2992,
      "ĠTay": 2993,
      "Ġdel": 2994,
      "ĠCEO": 2995,
      "Ġhom": 2996,
      "ential": 2997,
      "ĠMount": 2998,
      "Ġreview": 2999,
      "Ġreelection": 3000,
      "ĠHam": 3001,
      "ĠHong": 3002,
      "adium": 3003,
      "ĠPand": 3004,
      "Ġliving": 3005,
      "Ġonce": 3006,
      "Ġ1919": 3007,
      "iron": 3008,
      "ĠBr": 3009,
      "idence": 3010,
      "uther": 3011,
      "usp": 3012,
      "ĠFound": 3013,
      "ĠWith": 3014,
      "berg": 3015,
      "ĠEm": 3016,
      "ĠEar": 3017,
      "esting": 3018,
      "ula": 3019,
      "udge": 3020,
      "ops": 3021,
      "ably": 3022,
      "Ġplann": 3023,
      "Ġarmed": 3024,
      "ordan": 3025,
      "Ġ180": 3026,
      "Ġ2002": 3027,
      "Ġbecoming": 3028,
      "Ġscience": 3029,
      "Ġusually": 3030,
      "Ġupon": 3031,
      "Ġenl": 3032,
      "ĠSpalding": 3033,
      "Ġ179": 3034,
      "Ã¡n": 3035,
      "Ġdefending": 3036,
      "Ġdoes": 3037,
      "Ġcrew": 3038,
      "ĠAdela": 3039,
      "Ġgroups": 3040,
      "alkin": 3041,
      "Ġthroughout": 3042,
      "ĠFrancis": 3043,
      "ĠCarol": 3044,
      "Ġtransfer": 3045,
      "Ġphys": 3046,
      "Ġoccurr": 3047,
      "Ġprotesters": 3048,
      "Ġdiscuss": 3049,
      "...": 3050,
      "Ġpresented": 3051,
      "Ġhousemate": 3052,
      "Ġsoldiers": 3053,
      "ĠMuslim": 3054,
      "Ġmarket": 3055,
      "ĠPikauba": 3056,
      "Ġproduction": 3057,
      "gypt": 3058,
      "Ġliterature": 3059,
      "Ġcaused": 3060,
      "ĠRobert": 3061,
      "ĠIncumbent": 3062,
      "Ġtyp": 3063,
      "Ġqualified": 3064,
      "Ġchanged": 3065,
      "Ġindustry": 3066,
      "necticut": 3067,
      "ceeded": 3068,
      "Ġwaters": 3069,
      "Ġsession": 3070,
      "ĠJerusalem": 3071,
      "Regional": 3072,
      "ĠAdelaide": 3073,
      "46": 3074,
      "FA": 3075,
      "Lac": 3076,
      "ST": 3077,
      "Sc": 3078,
      "bach": 3079,
      "craft": 3080,
      "gn": 3081,
      "lied": 3082,
      "yga": 3083,
      "Ðµ": 3084,
      "Ġtalk": 3085,
      "eration": 3086,
      "orter": 3087,
      "Ġshi": 3088,
      "Ġfood": 3089,
      "Ġcur": 3090,
      "Ġcerem": 3091,
      "Ġpast": 3092,
      "Ġpurch": 3093,
      "ĠSur": 3094,
      "Ġtow": 3095,
      "Ġmach": 3096,
      "Ġmission": 3097,
      "lear": 3098,
      "ĠTown": 3099,
      "Ġdate": 3100,
      "Ġdivision": 3101,
      "ĠCro": 3102,
      "ĠCong": 3103,
      "Ġhapp": 3104,
      "oll": 3105,
      "olit": 3106,
      "ĠHist": 3107,
      "ĠPaul": 3108,
      "Ġlik": 3109,
      "ĠDo": 3110,
      "Ġeither": 3111,
      "ĠRang": 3112,
      "ĠRoman": 3113,
      "ĠFer": 3114,
      "ĠGall": 3115,
      "ĠGroup": 3116,
      "istan": 3117,
      "Ġstat": 3118,
      "Ġstar": 3119,
      "Ġstaff": 3120,
      "ĠEgypt": 3121,
      "Ġalleg": 3122,
      "Ġalthough": 3123,
      "ummy": 3124,
      "ĠUk": 3125,
      "ĠKe": 3126,
      "resh": 3127,
      "Ġchampion": 3128,
      "Ġseat": 3129,
      "ender": 3130,
      "Ġlect": 3131,
      "Ġkeep": 3132,
      "ĠArthur": 3133,
      "Ġclose": 3134,
      "ublic": 3135,
      "Ġ1985": 3136,
      "Ġ1992": 3137,
      "Ġ1997": 3138,
      "Ġdesign": 3139,
      "mpic": 3140,
      "Ġregard": 3141,
      "Ġothers": 3142,
      "Ġcollege": 3143,
      "Ġ1974": 3144,
      "Ġ1940": 3145,
      "Ġ1944": 3146,
      "Ġ1934": 3147,
      "Ġentire": 3148,
      "Ġaccess": 3149,
      "Ġdefeated": 3150,
      "Ġprovided": 3151,
      "Ġattacks": 3152,
      "Ġraised": 3153,
      "Ġmeant": 3154,
      "Ġfloor": 3155,
      "Ġnearby": 3156,
      "talion": 3157,
      "Ġgoing": 3158,
      "ĠEdward": 3159,
      "anguages": 3160,
      "ĠQueen": 3161,
      "Ġsuccessful": 3162,
      "ĠBeach": 3163,
      "Ġriots": 3164,
      "Ġpopular": 3165,
      "especially": 3166,
      "ĠAfrican": 3167,
      "Ġperformed": 3168,
      "Ġcricket": 3169,
      "Ġcricketer": 3170,
      "ĠSkellerup": 3171,
      "Ġmultiple": 3172,
      "Ġmotor": 3173,
      "Ġgenerally": 3174,
      "Ġconsidered": 3175,
      "Ġcollabor": 3176,
      "Ġinjured": 3177,
      "Ġrenamed": 3178,
      "Ġarrested": 3179,
      "ĠTransport": 3180,
      "Ġvictim": 3181,
      "Ġcandidate": 3182,
      "ĠSwedish": 3183,
      "11": 3184,
      "25": 3185,
      "Me": 3186,
      "Moirang": 3187,
      "Saint": 3188,
      "Th": 3189,
      "ky": 3190,
      "ma": 3191,
      "pi": 3192,
      "right": 3193,
      "tic": 3194,
      "Ð¸": 3195,
      "Ġ!": 3196,
      "Ġ[": 3197,
      "Ġide": 3198,
      "Ġespecially": 3199,
      "Ġten": 3200,
      "Ġtrad": 3201,
      "Ġturned": 3202,
      "Ġtaught": 3203,
      "hem": 3204,
      "here": 3205,
      "inary": 3206,
      "onn": 3207,
      "Ġsil": 3208,
      "Ġsem": 3209,
      "Ġsound": 3210,
      "Ġsup": 3211,
      "arch": 3212,
      "aled": 3213,
      "icular": 3214,
      "Ġpay": 3215,
      "Ġpaint": 3216,
      "ĠSant": 3217,
      "ĠSass": 3218,
      "Ġtowards": 3219,
      "omm": 3220,
      "Ġmiss": 3221,
      "ĠTor": 3222,
      "ĠAwards": 3223,
      "ĠCorp": 3224,
      "ĠCivil": 3225,
      "Ġhot": 3226,
      "ilar": 3227,
      "amin": 3228,
      "ĠMat": 3229,
      "ĠMos": 3230,
      "ĠMore": 3231,
      "Ġreal": 3232,
      "elle": 3233,
      "ĠHill": 3234,
      "aded": 3235,
      "ura": 3236,
      "urer": 3237,
      "Ġlived": 3238,
      "ĠBac": 3239,
      "ĠBay": 3240,
      "ĠBra": 3241,
      "Ġnon": 3242,
      "Ġnorthern": 3243,
      "ĠRen": 3244,
      "Ġhealth": 3245,
      "ĠLog": 3246,
      "ayn": 3247,
      "ĠJust": 3248,
      "ĠJordan": 3249,
      "ĠGold": 3250,
      "ĠGreat": 3251,
      "ĠNeh": 3252,
      "Ġgot": 3253,
      "ĠWin": 3254,
      "ĠWestern": 3255,
      "ĠEst": 3256,
      "estry": 3257,
      "Ġconv": 3258,
      "ĠKar": 3259,
      "hio": 3260,
      "Ġrul": 3261,
      "aker": 3262,
      "illa": 3263,
      "ustr": 3264,
      "Ġarran": 3265,
      "Ġarms": 3266,
      "Ġspent": 3267,
      "Ġspir": 3268,
      "oute": 3269,
      "Ġclos": 3270,
      "Ġresident": 3271,
      "Ġparticular": 3272,
      "Ġ2005": 3273,
      "Ġ1988": 3274,
      "Ġ1998": 3275,
      "Ġscient": 3276,
      "Ġcommand": 3277,
      "Ġcommander": 3278,
      "Ġoutside": 3279,
      "Ġ1977": 3280,
      "ailing": 3281,
      "199": 3282,
      "atherine": 3283,
      "Ġthemsel": 3284,
      "Ġ166": 3285,
      "ansas": 3286,
      "Ġquar": 3287,
      "Ġcounty": 3288,
      "Ġsubject": 3289,
      "Ġsubmar": 3290,
      "ĠCont": 3291,
      "Ġalbums": 3292,
      "Ġwriter": 3293,
      "Ġprovince": 3294,
      "Ġmatches": 3295,
      "Ġmainly": 3296,
      "ĠDeputy": 3297,
      "Ġoccas": 3298,
      "Ġoccup": 3299,
      "Ġproducer": 3300,
      "ĠAbd": 3301,
      "ength": 3302,
      "Ġofficials": 3303,
      "Ġeffect": 3304,
      "ĠAngel": 3305,
      "Ġmeeting": 3306,
      "ĠOffice": 3307,
      "elebr": 3308,
      "Ġjournal": 3309,
      "ĠVirgin": 3310,
      "ĠJacob": 3311,
      "Ġsenior": 3312,
      "ĠProfessor": 3313,
      "emporary": 3314,
      "ĠFoundation": 3315,
      "ĠCongress": 3316,
      "ĠSassun": 3317,
      "Ġthemselves": 3318,
      "AC": 3319,
      "cent": 3320,
      "col": 3321,
      "cast": 3322,
      "cient": 3323,
      "fone": 3324,
      "gress": 3325,
      "hood": 3326,
      "line": 3327,
      "nel": 3328,
      "ps": 3329,
      "port": 3330,
      "serv": 3331,
      "van": 3332,
      "vement": 3333,
      "ãĥ": 3334,
      "ĠÅ": 3335,
      "Ġturn": 3336,
      "Ġtaken": 3337,
      "erous": 3338,
      "orm": 3339,
      "anop": 3340,
      "aney": 3341,
      "anfone": 3342,
      "Ġske": 3343,
      "alia": 3344,
      "alais": 3345,
      "Ġinstr": 3346,
      "itect": 3347,
      "Ġfar": 3348,
      "Ġflow": 3349,
      "Ġcert": 3350,
      "Ġbi": 3351,
      "iche": 3352,
      "Ġmethod": 3353,
      "lete": 3354,
      "ĠAff": 3355,
      "ĠAlex": 3356,
      "ĠCow": 3357,
      "ĠCap": 3358,
      "ĠMk": 3359,
      "ĠMo": 3360,
      "ĠMex": 3361,
      "Ġreve": 3362,
      "oli": 3363,
      "ĠIm": 3364,
      "ĠIra": 3365,
      "eck": 3366,
      "ĠBut": 3367,
      "ĠDes": 3368,
      "Ġnever": 3369,
      "Ġforced": 3370,
      "Ġever": 3371,
      "ĠLong": 3372,
      "utes": 3373,
      "ĠJon": 3374,
      "ĠGulf": 3375,
      "Ġstand": 3376,
      "Ġstars": 3377,
      "agement": 3378,
      "Ġwhom": 3379,
      "iano": 3380,
      "ĠKilm": 3381,
      "hier": 3382,
      "ĠInter": 3383,
      "ava": 3384,
      "pped": 3385,
      "odes": 3386,
      "Ġchosen": 3387,
      "ĠStein": 3388,
      "Ġseen": 3389,
      "elled": 3390,
      "ques": 3391,
      "Ġkey": 3392,
      "order": 3393,
      "Ġnotable": 3394,
      "Ġabs": 3395,
      "Ġrecreational": 3396,
      "ĠColumb": 3397,
      "ĠZyga": 3398,
      "Ġpract": 3399,
      "Ġstudent": 3400,
      "Ġ1942": 3401,
      "aji": 3402,
      "Ġassociation": 3403,
      "ockey": 3404,
      "Ġended": 3405,
      "Ġreceiving": 3406,
      "ĠClass": 3407,
      "Ġcentre": 3408,
      "Ġtitled": 3409,
      "Ġappearance": 3410,
      "Ġposs": 3411,
      "ĠEurope": 3412,
      "Ġblack": 3413,
      "Ġdrug": 3414,
      "Ġemer": 3415,
      "ĠSecond": 3416,
      "CAA": 3417,
      "ĠSea": 3418,
      "Ġmanager": 3419,
      "Ġslog": 3420,
      "Ġpoet": 3421,
      "ĠServices": 3422,
      "Ġletter": 3423,
      "ĠDefense": 3424,
      "ĠScottish": 3425,
      "ĠParalympics": 3426,
      "Ġsouthern": 3427,
      "ĠHaswell": 3428,
      "ĠPalestine": 3429,
      "Ġversion": 3430,
      "Ġprimary": 3431,
      "Ġepisodes": 3432,
      "ibrary": 3433,
      "Ġterritory": 3434,
      "Ġperformance": 3435,
      "ĠMulaney": 3436,
      "Ġwatershed": 3437,
      "200": 3438,
      "II": 3439,
      "ban": 3440,
      "break": 3441,
      "field": 3442,
      "gu": 3443,
      "ges": 3444,
      "tis": 3445,
      "uf": 3446,
      "viron": 3447,
      "wing": 3448,
      "yer": 3449,
      "zh": 3450,
      "zil": 3451,
      "Ġens": 3452,
      "heim": 3453,
      "ora": 3454,
      "ori": 3455,
      "ened": 3456,
      "ano": 3457,
      "Ġsan": 3458,
      "Ġsusp": 3459,
      "Ġovers": 3460,
      "ala": 3461,
      "Ġoften": 3462,
      "Ġcouncil": 3463,
      "Ġpark": 3464,
      "ĠSociety": 3465,
      "ĠTer": 3466,
      "ĠTechnology": 3467,
      "iled": 3468,
      "ĠMas": 3469,
      "ĠMac": 3470,
      "ĠMary": 3471,
      "Ġrev": 3472,
      "Ġreach": 3473,
      "ros": 3474,
      "adi": 3475,
      "adian": 3476,
      "ĠPublic": 3477,
      "ĠBh": 3478,
      "ĠBor": 3479,
      "ĠBank": 3480,
      "ĠDar": 3481,
      "ĠRub": 3482,
      "ĠRap": 3483,
      "ĠLab": 3484,
      "ĠLuc": 3485,
      "ayed": 3486,
      "ima": 3487,
      "ĠGaut": 3488,
      "ĠGalkin": 3489,
      "ership": 3490,
      "ĠNCAA": 3491,
      "Ġgave": 3492,
      "ction": 3493,
      "ĠWag": 3494,
      "ĠWales": 3495,
      "Ġstaging": 3496,
      "ĠEastern": 3497,
      "aga": 3498,
      "ĠOhio": 3499,
      "ria": 3500,
      "ĠKR": 3501,
      "ĠKir": 3502,
      "aka": 3503,
      "pper": 3504,
      "Ġseek": 3505,
      "Ġcomputer": 3506,
      "merged": 3507,
      "Ġlevel": 3508,
      "onded": 3509,
      "Ġuniversity": 3510,
      "lected": 3511,
      "ikh": 3512,
      "Ġshould": 3513,
      "Ġ1986": 3514,
      "Ġserves": 3515,
      "Ġsuff": 3516,
      "Ġdispl": 3517,
      "Ġsched": 3518,
      "ollowing": 3519,
      "arnock": 3520,
      "Ġtheme": 3521,
      "phoon": 3522,
      "Ġenter": 3523,
      "Ġsingles": 3524,
      "teneg": 3525,
      "ĠCla": 3526,
      "Ġsubsequ": 3527,
      "Ġcars": 3528,
      "ĠPolish": 3529,
      "ĠScot": 3530,
      "Ġedition": 3531,
      "ĠRepresent": 3532,
      "Ġschools": 3533,
      "Ġadded": 3534,
      "ĠPhanfone": 3535,
      "Ġorganiz": 3536,
      "Ġtrain": 3537,
      "Ġblock": 3538,
      "Ġvisits": 3539,
      "Ġrespect": 3540,
      "Ġparliament": 3541,
      "Ġpoint": 3542,
      "Ġresults": 3543,
      "ĠChristian": 3544,
      "Ġpreviously": 3545,
      "ĠÂ£": 3546,
      "Ġopposition": 3547,
      "ready": 3548,
      "Ġfocus": 3549,
      "ĠJapanese": 3550,
      "ĠNotable": 3551,
      "ĠBerlin": 3552,
      "ĠMunicipality": 3553,
      "Ġsafe": 3554,
      "Ġweapons": 3555,
      "Ġtext": 3556,
      "ĠPlatoon": 3557,
      "ĠPandit": 3558,
      "Ġoccurred": 3559,
      "Ġceremony": 3560,
      "ĠBrazil": 3561,
      "ĠVirginia": 3562,
      "ĠKilmarnock": 3563,
      "ĠSteinmann": 3564,
      "Ġslogans": 3565,
      "ĠGauthier": 3566,
      "21": 3567,
      "88": 3568,
      "GO": 3569,
      "Yummy": 3570,
      "ees": 3571,
      "gen": 3572,
      "hold": 3573,
      "lit": 3574,
      "pur": 3575,
      "rn": 3576,
      "ract": 3577,
      "uals": 3578,
      "yd": 3579,
      "ÅĦ": 3580,
      "head": 3581,
      "atov": 3582,
      "atics": 3583,
      "ises": 3584,
      "rees": 3585,
      "Ġinf": 3586,
      "Ġinstitut": 3587,
      "itzer": 3588,
      "Ġfear": 3589,
      "Ġfailed": 3590,
      "Ġfresh": 3591,
      "nder": 3592,
      "Ġbr": 3593,
      "ichel": 3594,
      "ington": 3595,
      "Ġpur": 3596,
      "Ġpow": 3597,
      "ĠSl": 3598,
      "ĠSout": 3599,
      "Ġmem": 3600,
      "Ġdone": 3601,
      "ĠCamp": 3602,
      "Ġhig": 3603,
      "Ġhuman": 3604,
      "ĠMa": 3605,
      "ĠMem": 3606,
      "ĠMod": 3607,
      "ĠMoirang": 3608,
      "olk": 3609,
      "oles": 3610,
      "ston": 3611,
      "ĠHunt": 3612,
      "Ġlive": 3613,
      "Ġlives": 3614,
      "Ġlabel": 3615,
      "Ġlatter": 3616,
      "Ġlength": 3617,
      "irth": 3618,
      "ĠBest": 3619,
      "ĠDor": 3620,
      "ĠDave": 3621,
      "Ġthough": 3622,
      "Ġfort": 3623,
      "Ġforce": 3624,
      "ĠRally": 3625,
      "ĠLu": 3626,
      "ayi": 3627,
      "ĠFed": 3628,
      "ĠFore": 3629,
      "ĠJo": 3630,
      "ĠJers": 3631,
      "ĠJean": 3632,
      "chol": 3633,
      "ĠNap": 3634,
      "ĠNiger": 3635,
      "Ġget": 3636,
      "ĠEv": 3637,
      "ĠOver": 3638,
      "Ġalmost": 3639,
      "rial": 3640,
      "ĠUrs": 3641,
      "iance": 3642,
      "ĠKansas": 3643,
      "Ġvol": 3644,
      "aves": 3645,
      "avel": 3646,
      "Ġrange": 3647,
      "aki": 3648,
      "Ġchose": 3649,
      "ĠChalais": 3650,
      "Ġsex": 3651,
      "Ġseats": 3652,
      "Ġsepar": 3653,
      "Ġplat": 3654,
      "oger": 3655,
      "quar": 3656,
      "Ġexist": 3657,
      "ĠUnion": 3658,
      "iction": 3659,
      "Ġevac": 3660,
      "Ġyouth": 3661,
      "ĠVo": 3662,
      "ĠVal": 3663,
      "Ġunc": 3664,
      "Ġnoted": 3665,
      "Ġ184": 3666,
      "undred": 3667,
      "Ġadapt": 3668,
      "pert": 3669,
      "oys": 3670,
      "awai": 3671,
      "Ġdiss": 3672,
      "Ġsecurity": 3673,
      "Ġcommon": 3674,
      "ucture": 3675,
      "Ġ1950": 3676,
      "Ġactive": 3677,
      "Ġ1979": 3678,
      "Ġknow": 3679,
      "Ġfollowed": 3680,
      "Ġ1926": 3681,
      "ĠProt": 3682,
      "Ġ1937": 3683,
      "Ġcoach": 3684,
      "Ġaccording": 3685,
      "ĠAsian": 3686,
      "Ġartists": 3687,
      "Ġsubmerged": 3688,
      "Ġinterview": 3689,
      "ĠIsland": 3690,
      "ĠSciences": 3691,
      "Ġsett": 3692,
      "Ġmedical": 3693,
      "Ġearth": 3694,
      "Ġowned": 3695,
      "ĠPrime": 3696,
      "ĠCanadian": 3697,
      "Ġsucceeded": 3698,
      "Ġphil": 3699,
      "ĠTurkish": 3700,
      "ĠAndr": 3701,
      "Ġresponded": 3702,
      "Ġemploy": 3703,
      "venue": 3704,
      "ĠRoom": 3705,
      "Ġincre": 3706,
      "ĠChristmas": 3707,
      "Ġmanaged": 3708,
      "Ġbegin": 3709,
      "Ġ1887": 3710,
      "ĠMonteneg": 3711,
      "ĠCharl": 3712,
      "espite": 3713,
      "Ġparticipated": 3714,
      "Ġpeak": 3715,
      "sych": 3716,
      "Ġsimilar": 3717,
      "ĠJosÃ©": 3718,
      "Ġlargest": 3719,
      "Ġinstead": 3720,
      "Ġhistorical": 3721,
      "ĠOxford": 3722,
      "Ġneigh": 3723,
      "Ġadministrative": 3724,
      "known": 3725,
      "ĠShiji": 3726,
      "Ġindependent": 3727,
      "Ġrelationship": 3728,
      "ĠKurdish": 3729,
      "Ġimportant": 3730,
      "Ġtarget": 3731,
      "Ġconflict": 3732,
      "Ġzone": 3733,
      "Ġnewspaper": 3734,
      "Ġfigures": 3735,
      "Ġphysical": 3736,
      "Ġmachine": 3737,
      "Ġhotel": 3738,
      "ĠIraq": 3739,
      "bs": 3740,
      "back": 3741,
      "bury": 3742,
      "cies": 3743,
      "duction": 3744,
      "fin": 3745,
      "fic": 3746,
      "han": 3747,
      "lom": 3748,
      "mes": 3749,
      "mond": 3750,
      "mier": 3751,
      "ror": 3752,
      "ying": 3753,
      "zech": 3754,
      "Ġaim": 3755,
      "Ġachie": 3756,
      "oring": 3757,
      "organ": 3758,
      "ening": 3759,
      "Ġwinning": 3760,
      "Ġschol": 3761,
      "isen": 3762,
      "reement": 3763,
      "reme": 3764,
      "Ġinformation": 3765,
      "itude": 3766,
      "Ġfr": 3767,
      "Ġfro": 3768,
      "Ġfall": 3769,
      "Ġfuture": 3770,
      "Ġcam": 3771,
      "Ġchief": 3772,
      "icated": 3773,
      "Ġpan": 3774,
      "Ġpot": 3775,
      "ĠTo": 3776,
      "ĠTw": 3777,
      "ĠTun": 3778,
      "ĠAy": 3779,
      "Ġdoc": 3780,
      "Ġdata": 3781,
      "ĠCzech": 3782,
      "illy": 3783,
      "ilities": 3784,
      "ĠMit": 3785,
      "Ġreason": 3786,
      "ĠHuman": 3787,
      "ĠIgn": 3788,
      "ades": 3789,
      "ĠPu": 3790,
      "ĠPass": 3791,
      "Ġlot": 3792,
      "Ġlook": 3793,
      "ecess": 3794,
      "emus": 3795,
      "ĠBol": 3796,
      "ĠBad": 3797,
      "ĠBur": 3798,
      "ĠBrand": 3799,
      "ĠDu": 3800,
      "ĠDou": 3801,
      "ĠDubl": 3802,
      "ĠDinn": 3803,
      "ĠDev": 3804,
      "Ġneg": 3805,
      "idi": 3806,
      "ider": 3807,
      "ĠLike": 3808,
      "ĠFI": 3809,
      "ĠFollowing": 3810,
      "une": 3811,
      "Ġgren": 3812,
      "Ġground": 3813,
      "Ġgirl": 3814,
      "ctions": 3815,
      "cepted": 3816,
      "ĠWend": 3817,
      "ĠWind": 3818,
      "andy": 3819,
      "Ġwhite": 3820,
      "osh": 3821,
      "ĠUnder": 3822,
      "Ġcoming": 3823,
      "ĠHead": 3824,
      "ĠHebr": 3825,
      "artel": 3826,
      "Ġdev": 3827,
      "Ġproble": 3828,
      "Ġroute": 3829,
      "odi": 3830,
      "ĠChic": 3831,
      "endant": 3832,
      "Ġexc": 3833,
      "icted": 3834,
      "ervation": 3835,
      "ordin": 3836,
      "Ġunit": 3837,
      "rying": 3838,
      "ĠAlpert": 3839,
      "ĠMark": 3840,
      "ultural": 3841,
      "Ġagent": 3842,
      "oint": 3843,
      "ensive": 3844,
      "Ġ40": 3845,
      "Ġcolonel": 3846,
      "Ġ1971": 3847,
      "Ġ1975": 3848,
      "Ġ1976": 3849,
      "Ã©n": 3850,
      "Ġ1943": 3851,
      "Ġ1921": 3852,
      "Ġ68": 3853,
      "rought": 3854,
      "ĠAssist": 3855,
      "Ġrelated": 3856,
      "ĠCountry": 3857,
      "Ġdecl": 3858,
      "ĠRegion": 3859,
      "Ġacqu": 3860,
      "Ġ1918": 3861,
      "Ġtranslated": 3862,
      "Ġorganization": 3863,
      "Ġorganisation": 3864,
      "Ġphone": 3865,
      "Ġrecording": 3866,
      "Ġtravel": 3867,
      "Ġblood": 3868,
      "Ġdepartment": 3869,
      "Ġdeputy": 3870,
      "Ġdriver": 3871,
      "ĠMiddle": 3872,
      "Ġprograms": 3873,
      "ĠBelt": 3874,
      "emple": 3875,
      "aurant": 3876,
      "Ġcivilians": 3877,
      "ĠPhilipp": 3878,
      "ĠJoseph": 3879,
      "ĠService": 3880,
      "Ġsolo": 3881,
      "ĠMuham": 3882,
      "Ġillustr": 3883,
      "ĠSupp": 3884,
      "></": 3885,
      "Ġcasual": 3886,
      "Ġarchitect": 3887,
      "Ġindividuals": 3888,
      "ooglin": 3889,
      "yrics": 3890,
      "Meudon": 3891,
      "ĠAffairs": 3892,
      "ĠColumbia": 3893,
      "vironment": 3894,
      "ĠWagner": 3895,
      "ĠRepresentatives": 3896,
      "ĠForeign": 3897,
      "ĠIgnatov": 3898,
      "ĠDublin": 3899,
      "ĠDinnayi": 3900,
      "\":": 3901,
      "02": 3902,
      "=\"": 3903,
      "AS": 3904,
      "BS": 3905,
      "People": 3906,
      "St": 3907,
      "bi": 3908,
      "des": 3909,
      "eur": 3910,
      "eter": 3911,
      "eign": 3912,
      "hana": 3913,
      "ias": 3914,
      "iec": 3915,
      "jing": 3916,
      "lan": 3917,
      "lam": 3918,
      "rt": 3919,
      "rated": 3920,
      "wa": 3921,
      "wen": 3922,
      "yc": 3923,
      "zz": 3924,
      "Ġâ": 3925,
      "Ġer": 3926,
      "Ġtask": 3927,
      "Ġtribut": 3928,
      "enced": 3929,
      "Ġsister": 3930,
      "Ġsyn": 3931,
      "Ġsector": 3932,
      "arian": 3933,
      "Ġinsp": 3934,
      "itation": 3935,
      "Ġfre": 3936,
      "Ġfoot": 3937,
      "Ġcover": 3938,
      "ester": 3939,
      "Ġbri": 3940,
      "Ġbrought": 3941,
      "ĠSo": 3942,
      "ĠSom": 3943,
      "ĠSir": 3944,
      "ĠSov": 3945,
      "Ġmix": 3946,
      "Ġmaint": 3947,
      "Ġdi": 3948,
      "Ġder": 3949,
      "ĠMah": 3950,
      "ĠMagazine": 3951,
      "elt": 3952,
      "ĠIves": 3953,
      "ĠPress": 3954,
      "Ġlig": 3955,
      "Ġlyrics": 3956,
      "ĠBorn": 3957,
      "ĠBef": 3958,
      "ĠDespite": 3959,
      "Ġnames": 3960,
      "Ġthreat": 3961,
      "ĠRay": 3962,
      "ĠRail": 3963,
      "ĠRiviÃ¨re": 3964,
      "ĠLord": 3965,
      "ĠLaur": 3966,
      "ĠLatin": 3967,
      "ĠLuther": 3968,
      "ĠJr": 3969,
      "ĠGar": 3970,
      "Ġ(;": 3971,
      "Ġgrew": 3972,
      "ĠWol": 3973,
      "ĠWang": 3974,
      "ĠEren": 3975,
      "agog": 3976,
      "Ġwhose": 3977,
      "osing": 3978,
      "osop": 3979,
      "uled": 3980,
      "ocal": 3981,
      "ĠUp": 3982,
      "Ġconclus": 3983,
      "âĢĶ": 3984,
      "Ġvac": 3985,
      "Ġrather": 3986,
      "Ġcho": 3987,
      "Ġchange": 3988,
      "ĠStadium": 3989,
      "ĠChance": 3990,
      "Ġsee": 3991,
      "apers": 3992,
      "orney": 3993,
      "ranch": 3994,
      "Ġarm": 3995,
      "Ġspread": 3996,
      "okes": 3997,
      "ĠArmen": 3998,
      "Ġclimate": 3999,
      "teen": 4000,
      "ulty": 4001,
      "Ġ1981": 4002,
      "Ġ33": 4003,
      "reng": 4004,
      "atory": 4005,
      "Ġcommit": 4006,
      "ĠLead": 4007,
      "Ġrock": 4008,
      "Ġaction": 4009,
      "Ġsecondary": 4010,
      "Ġretire": 4011,
      "Ġ1969": 4012,
      "Ġ1932": 4013,
      "ĠArabic": 4014,
      "Ġfamous": 4015,
      "Ġleader": 4016,
      "ĠConference": 4017,
      "ĠConnecticut": 4018,
      "Ġwriting": 4019,
      "Ġtransport": 4020,
      "ĠPlace": 4021,
      "Ġbooks": 4022,
      "ĠRegister": 4023,
      "ificant": 4024,
      "ronze": 4025,
      "Ġcentral": 4026,
      "Ġimpro": 4027,
      "raduate": 4028,
      "Ġ1916": 4029,
      "Ġbroad": 4030,
      "Ġminister": 4031,
      "Ġminutes": 4032,
      "Ġguitar": 4033,
      "Ġrunning": 4034,
      "Ġbelow": 4035,
      "ograp": 4036,
      "Ġpresidential": 4037,
      "Ġaircraft": 4038,
      "Ġcommunic": 4039,
      "Ġhelped": 4040,
      "Ġriot": 4041,
      "Ġintro": 4042,
      "Ġpopulation": 4043,
      "Ġlegal": 4044,
      "Ġvoice": 4045,
      "Ġreplaced": 4046,
      "Ġsumm": 4047,
      "Ġfuneral": 4048,
      "Ġmeaning": 4049,
      "Ġfemale": 4050,
      "Ġfighting": 4051,
      "Ġwinners": 4052,
      "ĠLovell": 4053,
      "ĠLouisiana": 4054,
      "ĠRichard": 4055,
      "Ġwarning": 4056,
      "ĠFrancisco": 4057,
      "Ġresidents": 4058,
      "ĠAngeles": 4059,
      "awaii": 4060,
      "ĠHebron": 4061,
      "ĠSoviet": 4062,
      "ĠBefore": 4063,
      ".âĢĿ": 4064,
      "37": 4065,
      "51": 4066,
      "BC": 4067,
      "December": 4068,
      "LGO": 4069,
      "aun": 4070,
      "bar": 4071,
      "based": 4072,
      "de": 4073,
      "house": 4074,
      "ja": 4075,
      "jan": 4076,
      "ken": 4077,
      "la": 4078,
      "mosp": 4079,
      "rin": 4080,
      "ua": 4081,
      "uit": 4082,
      "ule": 4083,
      "vention": 4084,
      "wide": 4085,
      "yo": 4086,
      "zbek": 4087,
      "Äį": 4088,
      "Ð°": 4089,
      "à¤": 4090,
      "Ġesc": 4091,
      "Ġtro": 4092,
      "oni": 4093,
      "orial": 4094,
      "Ġwant": 4095,
      "Ġwounded": 4096,
      "Ġsons": 4097,
      "Ġsales": 4098,
      "Ġsources": 4099,
      "Ġour": 4100,
      "arily": 4101,
      "Ġintern": 4102,
      "asz": 4103,
      "Ġcorn": 4104,
      "Ġbirth": 4105,
      "iced": 4106,
      "ingham": 4107,
      "Ġpun": 4108,
      "Ġpress": 4109,
      "ĠSS": 4110,
      "ĠSim": 4111,
      "ĠSher": 4112,
      "ĠSavi": 4113,
      "omest": 4114,
      "Ġmur": 4115,
      "Ġmus": 4116,
      "Ġmun": 4117,
      "lean": 4118,
      "ĠTwo": 4119,
      "ĠTai": 4120,
      "ĠTimes": 4121,
      "ĠAh": 4122,
      "ĠAv": 4123,
      "Ġdro": 4124,
      "ĠChief": 4125,
      "ĠCatherine": 4126,
      "Ġhockey": 4127,
      "Ġhundred": 4128,
      "ĠMy": 4129,
      "ĠMot": 4130,
      "ĠMall": 4131,
      "ĠMass": 4132,
      "standing": 4133,
      "eld": 4134,
      "ĠHouth": 4135,
      "ĠPers": 4136,
      "Ġlack": 4137,
      "eman": 4138,
      "iral": 4139,
      "ĠBal": 4140,
      "Ġnet": 4141,
      "Ġthous": 4142,
      "Ġforward": 4143,
      "Ġet": 4144,
      "ĠLiga": 4145,
      "igg": 4146,
      "igital": 4147,
      "imar": 4148,
      "imal": 4149,
      "change": 4150,
      "Ġgas": 4151,
      "ĠWork": 4152,
      "anded": 4153,
      "Ġstage": 4154,
      "Ġstates": 4155,
      "Ġstream": 4156,
      "ĠEp": 4157,
      "ĠOpen": 4158,
      "Ġalways": 4159,
      "ĠUzbek": 4160,
      "Ġcome": 4161,
      "Ġdeal": 4162,
      "Ġdeter": 4163,
      "Ġrace": 4164,
      "ĠStr": 4165,
      "ĠStan": 4166,
      "ounter": 4167,
      "ova": 4168,
      "oviÄĩ": 4169,
      "ĠUnivers": 4170,
      "Ġleave": 4171,
      "ĠYouth": 4172,
      "Ġspot": 4173,
      "Ġking": 4174,
      "angjing": 4175,
      "oke": 4176,
      "Ġteaching": 4177,
      "ĠArn": 4178,
      "ĠMarc": 4179,
      "ulture": 4180,
      "Ġservices": 4181,
      "iplom": 4182,
      "ĠAnton": 4183,
      "Ġrecently": 4184,
      "ĠParis": 4185,
      "Ġcommittee": 4186,
      "Ġoutlet": 4187,
      "Ġeventually": 4188,
      "Ġfinally": 4189,
      "Ġupcoming": 4190,
      "aho": 4191,
      "Ġ1946": 4192,
      "overnor": 4193,
      "annah": 4194,
      "Ġperform": 4195,
      "Ġ1966": 4196,
      "Ġ1936": 4197,
      "Ġ60": 4198,
      "Ġpolitics": 4199,
      "chell": 4200,
      "Ġ169": 4201,
      "Ġending": 4202,
      "Ġevicted": 4203,
      "Ġconsult": 4204,
      "Ġmoving": 4205,
      "Ġmarch": 4206,
      "ĠIslam": 4207,
      "Ġrelig": 4208,
      "ennis": 4209,
      "Ġpromin": 4210,
      "Ġ1917": 4211,
      "aptain": 4212,
      "Ġtransl": 4213,
      "Ġheadquar": 4214,
      "ĠAndrew": 4215,
      "Ġoperational": 4216,
      "Ġannual": 4217,
      "Ġparents": 4218,
      "Ġgoal": 4219,
      "Ġ1906": 4220,
      "Ġvaranop": 4221,
      "ĠOrgan": 4222,
      "ĠOrder": 4223,
      "ĠBelg": 4224,
      "ĠBelle": 4225,
      "Ġprofessor": 4226,
      "ĠExp": 4227,
      "Ġvotes": 4228,
      "Ġmanagement": 4229,
      "Ġobject": 4230,
      "Ġmodel": 4231,
      "iminal": 4232,
      "ĠCommissioner": 4233,
      "Ġfields": 4234,
      "Ġfunding": 4235,
      "ĠMedical": 4236,
      "ĠRoberts": 4237,
      "Ġallowed": 4238,
      "ĠMirbach": 4239,
      "Ġleadership": 4240,
      "Ġsignificant": 4241,
      "Ġfriends": 4242,
      "ĠProvince": 4243,
      "ĠRecords": 4244,
      "ĠGeorgian": 4245,
      "Ġdouble": 4246,
      "Ġanalysis": 4247,
      "Ġradio": 4248,
      "Ġavail": 4249,
      "ĠApica": 4250,
      "ĠCardiff": 4251,
      "Ġdestroy": 4252,
      "ĠSmith": 4253,
      "ĠTonna": 4254,
      "Ġplanned": 4255,
      "Script": 4256,
      "Ġpurchased": 4257,
      "ĠWinter": 4258,
      "Ġrevealed": 4259,
      "itzerland": 4260,
      "ĠMuhammad": 4261,
      "ĠSupport": 4262,
      "Ġbrief": 4263,
      "ĠLutheran": 4264,
      "LGOL": 4265,
      "Ġtroops": 4266,
      "ĠSaviola": 4267,
      "Ġmusical": 4268,
      "In": 4269,
      "Part": 4270,
      "RE": 4271,
      "Re": 4272,
      "SX": 4273,
      "bu": 4274,
      "burn": 4275,
      "cat": 4276,
      "gent": 4277,
      "ground": 4278,
      "hab": 4279,
      "hark": 4280,
      "iy": 4281,
      "iro": 4282,
      "law": 4283,
      "like": 4284,
      "mn": 4285,
      "oons": 4286,
      "sw": 4287,
      "sen": 4288,
      "wh": 4289,
      "wan": 4290,
      "Ãº": 4291,
      "Å«": 4292,
      "Ġ\\": 4293,
      "Ġver": 4294,
      "Ġera": 4295,
      "inem": 4296,
      "Ġwide": 4297,
      "Ġwood": 4298,
      "Ġwalk": 4299,
      "ati": 4300,
      "Ġsurr": 4301,
      "Ġself": 4302,
      "Ġsugg": 4303,
      "isher": 4304,
      "rep": 4305,
      "related": 4306,
      "ito": 4307,
      "aso": 4308,
      "Ġbronze": 4309,
      "inger": 4310,
      "ĠSat": 4311,
      "ĠSever": 4312,
      "Ġmater": 4313,
      "ĠTV": 4314,
      "ĠTel": 4315,
      "ĠALGOL": 4316,
      "ĠCross": 4317,
      "ĠCaptain": 4318,
      "Ġhor": 4319,
      "Ġhop": 4320,
      "iler": 4321,
      "ĠHon": 4322,
      "ĠHous": 4323,
      "ĠHaji": 4324,
      "room": 4325,
      "ady": 4326,
      "ĠProp": 4327,
      "ĠPenn": 4328,
      "Ġlog": 4329,
      "Ġlanguages": 4330,
      "emate": 4331,
      "ĠBig": 4332,
      "ĠDis": 4333,
      "ĠDanish": 4334,
      "ĠDream": 4335,
      "Ġnine": 4336,
      "Ġ\"\"": 4337,
      "idge": 4338,
      "ĠRos": 4339,
      "Ġhere": 4340,
      "imately": 4341,
      "ĠFred": 4342,
      "ĠJhark": 4343,
      "ĠGy": 4344,
      "ĠGreen": 4345,
      "unior": 4346,
      "Ġgrant": 4347,
      "istics": 4348,
      "ĠWay": 4349,
      "ande": 4350,
      "Ġstories": 4351,
      "ĠErd": 4352,
      "Ġalready": 4353,
      "umn": 4354,
      "rap": 4355,
      "ĠUN": 4356,
      "Ġconn": 4357,
      "Ġconst": 4358,
      "Ġconference": 4359,
      "ĠKim": 4360,
      "ĠKore": 4361,
      "ĠKaz": 4362,
      "ĠKÃ¶": 4363,
      "Ġvice": 4364,
      "Ġvoy": 4365,
      "Ġveh": 4366,
      "aved": 4367,
      "Ġraces": 4368,
      "Ġroles": 4369,
      "ability": 4370,
      "ĠStudi": 4371,
      "ends": 4372,
      "ells": 4373,
      "ogan": 4374,
      "Ġcompos": 4375,
      "Ġexamp": 4376,
      "Ġarg": 4377,
      "erved": 4378,
      "Ġkick": 4379,
      "angle": 4380,
      "Ġ186": 4381,
      "Ġshout": 4382,
      "ĠAlf": 4383,
      "Ġadult": 4384,
      "ĠMars": 4385,
      "Ġ38": 4386,
      "Ġitself": 4387,
      "Ġjudge": 4388,
      "ĠAnna": 4389,
      "Ġmanuf": 4390,
      "Ġsecretary": 4391,
      "Ġdesp": 4392,
      "Ġregional": 4393,
      "ĠZh": 4394,
      "Ġenc": 4395,
      "Ġpremi": 4396,
      "span": 4397,
      "ĠSpade": 4398,
      "Ġspecific": 4399,
      "ologist": 4400,
      "Ġassign": 4401,
      "Ġbetter": 4402,
      "Ã¡r": 4403,
      "Ġarticles": 4404,
      "Ġserious": 4405,
      "ĠAssad": 4406,
      "ĠIsabel": 4407,
      "Ġcreating": 4408,
      "Ġlisted": 4409,
      "Ġearlier": 4410,
      "ĠSaf": 4411,
      "Ġowner": 4412,
      "Ġimprov": 4413,
      "Ġflood": 4414,
      "Ġmostly": 4415,
      "Ġphot": 4416,
      "Ġcontinu": 4417,
      "ĠMidd": 4418,
      "Ġguest": 4419,
      "Ġ1905": 4420,
      "fully": 4421,
      "Ġgraduate": 4422,
      "ĠTrump": 4423,
      "ĠSwiss": 4424,
      "Ġdiscovered": 4425,
      "ributed": 4426,
      "ĠÃī": 4427,
      "Ġcrimes": 4428,
      "ĠArtemus": 4429,
      "Ġshows": 4430,
      "Ġobt": 4431,
      "Ã¶n": 4432,
      "Ġconditions": 4433,
      "Ġexperience": 4434,
      "Ġeducated": 4435,
      "Ġpassed": 4436,
      "Ġrestaurant": 4437,
      "mitted": 4438,
      "Ġrequired": 4439,
      "Ġadvis": 4440,
      "ĠÂ§": 4441,
      "Ġpersonal": 4442,
      "Ġpeace": 4443,
      "ĠBrother": 4444,
      "Ġmulti": 4445,
      "Ġliterary": 4446,
      "ĠPremier": 4447,
      "Ġcaptain": 4448,
      "ĠRevolution": 4449,
      "rainian": 4450,
      "Ġdamage": 4451,
      "Ġindependence": 4452,
      "Ġtracks": 4453,
      "Ġexhibition": 4454,
      "ĠFinland": 4455,
      "ĠStudies": 4456,
      "ICP": 4457,
      "Ġdrama": 4458,
      "writer": 4459,
      "Ġenlisted": 4460,
      "Ġtransferred": 4461,
      "Ġlikely": 4462,
      "Ġvictims": 4463,
      "ĠNehru": 4464,
      "Ġquarter": 4465,
      "Ġskeleton": 4466,
      "ĠMexico": 4467,
      "ĠScotland": 4468,
      "Ġrespectively": 4469,
      "ĠUrsus": 4470,
      "Ġsettled": 4471,
      "Ġgrenade": 4472,
      "ĠWendell": 4473,
      "ĠAssistant": 4474,
      "Ġligul": 4475,
      "Ġconclusion": 4476,
      "Ġretirement": 4477,
      "Ġprominent": 4478,
      "Ġavailable": 4479,
      "ĠHousemate": 4480,
      "ĠJharkhand": 4481,
      "ĠErdogan": 4482,
      "ĠKazakh": 4483,
      "ĠStudios": 4484,
      "Ġmanufact": 4485,
      "50": 4486,
      "80": 4487,
      "EE": 4488,
      "Ex": 4489,
      "IV": 4490,
      "RA": 4491,
      "aia": 4492,
      "bles": 4493,
      "ci": 4494,
      "cial": 4495,
      "din": 4496,
      "eff": 4497,
      "gement": 4498,
      "gency": 4499,
      "graduate": 4500,
      "ires": 4501,
      "ienn": 4502,
      "iety": 4503,
      "light": 4504,
      "loy": 4505,
      "lock": 4506,
      "more": 4507,
      "night": 4508,
      "uated": 4509,
      "uence": 4510,
      "val": 4511,
      "win": 4512,
      "ãĤ": 4513,
      "Ġ#": 4514,
      "Ġtrop": 4515,
      "Ġahead": 4516,
      "onia": 4517,
      "onse": 4518,
      "Ġwall": 4519,
      "Ġsn": 4520,
      "Ġsociety": 4521,
      "Ġoil": 4522,
      "rem": 4523,
      "arrow": 4524,
      "ali": 4525,
      "iter": 4526,
      "Ġfed": 4527,
      "Ġfront": 4528,
      "Ġcal": 4529,
      "Ġcovered": 4530,
      "Ġcelebr": 4531,
      "Ġbox": 4532,
      "Ġpen": 4533,
      "ĠSoccer": 4534,
      "Ġmilit": 4535,
      "Ġmagazine": 4536,
      "ĠTemple": 4537,
      "ĠAre": 4538,
      "Ġdon": 4539,
      "Ġdraft": 4540,
      "Ġdomest": 4541,
      "Ġdiplom": 4542,
      "ĠCor": 4543,
      "enth": 4544,
      "ili": 4545,
      "amm": 4546,
      "ĠMong": 4547,
      "ĠMake": 4548,
      "ĠHand": 4549,
      "ĠHoc": 4550,
      "ĠHall": 4551,
      "ĠHold": 4552,
      "road": 4553,
      "ĠIl": 4554,
      "ĠPier": 4555,
      "Ġlic": 4556,
      "ecial": 4557,
      "irm": 4558,
      "ĠBas": 4559,
      "ĠBand": 4560,
      "ĠBrom": 4561,
      "ĠBall": 4562,
      "ĠBear": 4563,
      "ĠBond": 4564,
      "ĠBarn": 4565,
      "ĠDun": 4566,
      "Ġnation": 4567,
      "otte": 4568,
      "ĠRaj": 4569,
      "ĠRights": 4570,
      "Ġheard": 4571,
      "ĠLi": 4572,
      "ĠLam": 4573,
      "ĠLower": 4574,
      "ĠLove": 4575,
      "ĠLane": 4576,
      "igr": 4577,
      "igible": 4578,
      "imated": 4579,
      "ĠFur": 4580,
      "ĠGirl": 4581,
      "cha": 4582,
      "ĠNag": 4583,
      "Ġgold": 4584,
      "Ġgrow": 4585,
      "Ġgrand": 4586,
      "ĠWat": 4587,
      "ĠWash": 4588,
      "Ġstreng": 4589,
      "thing": 4590,
      "romaia": 4591,
      "ĠElect": 4592,
      "ĠEll": 4593,
      "agh": 4594,
      "ago": 4595,
      "ĠOl": 4596,
      "ĠOper": 4597,
      "ĠOwen": 4598,
      "Ġancient": 4599,
      "estival": 4600,
      "Ġconnect": 4601,
      "ĠKok": 4602,
      "ĠKÃ¸": 4603,
      "alled": 4604,
      "ateur": 4605,
      "arts": 4606,
      "Ġris": 4607,
      "ift": 4608,
      "ishing": 4609,
      "ills": 4610,
      "iller": 4611,
      "pping": 4612,
      "Ġchap": 4613,
      "ĠChan": 4614,
      "Ġplaces": 4615,
      "endromaia": 4616,
      "quart": 4617,
      "quake": 4618,
      "Ġcompl": 4619,
      "Ġcompared": 4620,
      "Ġevidence": 4621,
      "Ġsports": 4622,
      "ĠArgent": 4623,
      "cluded": 4624,
      "Ġpartn": 4625,
      "Ġpartner": 4626,
      "Ġoffers": 4627,
      "Ġshore": 4628,
      "ĠAlso": 4629,
      "ĠAlthough": 4630,
      "Ġincludes": 4631,
      "Ġagreed": 4632,
      "Ġagreement": 4633,
      "Ġattemp": 4634,
      "Ġattention": 4635,
      "inder": 4636,
      "Ġscored": 4637,
      "choenus": 4638,
      "ĠNews": 4639,
      "Ġuses": 4640,
      "uctions": 4641,
      "rick": 4642,
      "Ġ1958": 4643,
      "Ġ47": 4644,
      "Ġactor": 4645,
      "ĠZeal": 4646,
      "Ġpred": 4647,
      "ĠCommiss": 4648,
      "aze": 4649,
      "Ġoffices": 4650,
      "Ġofficially": 4651,
      "Ġ1924": 4652,
      "anning": 4653,
      "annel": 4654,
      "ĠShaw": 4655,
      "Ġ1938": 4656,
      "duced": 4657,
      "ĠForces": 4658,
      "Ġinvited": 4659,
      "Ġaccomp": 4660,
      "Ġ177": 4661,
      "Ġmusicology": 4662,
      "ĠQat": 4663,
      "Ġsevere": 4664,
      "uthou": 4665,
      "Ġ1046": 4666,
      "Ġinterest": 4667,
      "ĠIslands": 4668,
      "ĠScience": 4669,
      "Ġprovides": 4670,
      "ĠFrank": 4671,
      "Ġaddress": 4672,
      "ĠJohnson": 4673,
      "Ġpositions": 4674,
      "Ġpositive": 4675,
      "ĠCentre": 4676,
      "Ġstarting": 4677,
      "Ġresponse": 4678,
      "Ġdeaths": 4679,
      "Ġdidn": 4680,
      "Ġprotest": 4681,
      "Ġjoint": 4682,
      "ukh": 4683,
      "ĠManagement": 4684,
      "Ġruns": 4685,
      "lington": 4686,
      "helor": 4687,
      "ĠSwitzerland": 4688,
      "Ġalongside": 4689,
      "Ġpromotion": 4690,
      "Ġclaims": 4691,
      "Ġobserv": 4692,
      "Ġadditional": 4693,
      "Ġissues": 4694,
      "ĠMoran": 4695,
      "incip": 4696,
      "Ġrequest": 4697,
      "offrey": 4698,
      "Ġpropeller": 4699,
      "Ġlegisl": 4700,
      "Ġranked": 4701,
      "Ġlarger": 4702,
      "Ġbehind": 4703,
      "Ġtyphoon": 4704,
      "Ġbombing": 4705,
      "Ġengineer": 4706,
      "Ġbattalion": 4707,
      "Ġhosted": 4708,
      "ĠLiberation": 4709,
      "ĠMadrid": 4710,
      "Ġballoon": 4711,
      "Ġmeans": 4712,
      "Ġguns": 4713,
      "Ġwindow": 4714,
      "Ġhonor": 4715,
      "Ġrebels": 4716,
      "ĠHungary": 4717,
      "Ġrecognized": 4718,
      "ĠRuiz": 4719,
      "Ġresponsible": 4720,
      "Ġbelieved": 4721,
      "ĠMoham": 4722,
      "ĠAdministration": 4723,
      "ĠTalbot": 4724,
      "Ġmobile": 4725,
      "Ġstatement": 4726,
      "ĠUkrainian": 4727,
      "Ġsemi": 4728,
      "ĠJustice": 4729,
      "Ġsubmarine": 4730,
      "ĠZygaena": 4731,
      "Ġscheduled": 4732,
      "Ġsubsequently": 4733,
      "ÅĦsk": 4734,
      "ĠJersey": 4735,
      "Ġadaptation": 4736,
      "ĠCharlotte": 4737,
      "Ġfrozen": 4738,
      "ecessary": 4739,
      "ĠBrandis": 4740,
      "ĠMalloy": 4741,
      "repren": 4742,
      "ĠSeveral": 4743,
      "Ġdespite": 4744,
      "ĠHocquart": 4745,
      "ĠKÃ¸pi": 4746,
      "ĠZealand": 4747,
      "'\"": 4748,
      "83": 4749,
      "Big": 4750,
      "DF": 4751,
      "IP": 4752,
      "SI": 4753,
      "Sec": 4754,
      "Un": 4755,
      "je": 4756,
      "lant": 4757,
      "ny": 4758,
      "net": 4759,
      "pin": 4760,
      "ray": 4761,
      "sar": 4762,
      "va": 4763,
      "ving": 4764,
      "Ã¤": 4765,
      "Ġ×": 4766,
      "Ġemb": 4767,
      "Ġtable": 4768,
      "Ġtechn": 4769,
      "hev": 4770,
      "Ġaux": 4771,
      "inal": 4772,
      "inian": 4773,
      "onheim": 4774,
      "edd": 4775,
      "oria": 4776,
      "Ġsoon": 4777,
      "Ġsailed": 4778,
      "aria": 4779,
      "aling": 4780,
      "also": 4781,
      "itt": 4782,
      "Ġcop": 4783,
      "Ġcorp": 4784,
      "Ġbring": 4785,
      "Ġborder": 4786,
      "icol": 4787,
      "Ġpers": 4788,
      "Ġpiec": 4789,
      "ĠSin": 4790,
      "ĠSub": 4791,
      "ouch": 4792,
      "Ġtoo": 4793,
      "ĠTeh": 4794,
      "ĠAut": 4795,
      "Ġdigital": 4796,
      "ĠCr": 4797,
      "ĠChi": 4798,
      "ils": 4799,
      "iles": 4800,
      "ilty": 4801,
      "ĠMain": 4802,
      "ĠMans": 4803,
      "ĠMajor": 4804,
      "eland": 4805,
      "ĠHor": 4806,
      "ĠHawaii": 4807,
      "ador": 4808,
      "ading": 4809,
      "ivals": 4810,
      "Ġless": 4811,
      "Ġliber": 4812,
      "Ġlove": 4813,
      "ĠBu": 4814,
      "ĠBos": 4815,
      "ĠBook": 4816,
      "ĠBurk": 4817,
      "ĠBrian": 4818,
      "ĠDer": 4819,
      "ĠDign": 4820,
      "Ġnarrow": 4821,
      "Ġforeign": 4822,
      "otan": 4823,
      "ĠRat": 4824,
      "ĠLine": 4825,
      "aya": 4826,
      "ayette": 4827,
      "imb": 4828,
      "imens": 4829,
      "ĠFoot": 4830,
      "ĠFoger": 4831,
      "ĠJava": 4832,
      "chi": 4833,
      "ching": 4834,
      "ĠNile": 4835,
      "ĠNaval": 4836,
      "cean": 4837,
      "ĠWild": 4838,
      "ĠWisc": 4839,
      "Ġstep": 4840,
      "Ġwithd": 4841,
      "ĠEag": 4842,
      "Ġconcept": 4843,
      "ĠKen": 4844,
      "ĠKat": 4845,
      "ĠInformation": 4846,
      "resp": 4847,
      "Ġdeleg": 4848,
      "Ġprogress": 4849,
      "odd": 4850,
      "aba": 4851,
      "ables": 4852,
      "abama": 4853,
      "Ġchair": 4854,
      "Ġcharg": 4855,
      "ĠChap": 4856,
      "ĠChairman": 4857,
      "Ġseem": 4858,
      "ously": 4859,
      "Ġexcept": 4860,
      "Ġexecutive": 4861,
      "claim": 4862,
      "mercial": 4863,
      "range": 4864,
      "ritsar": 4865,
      "Ġfirm": 4866,
      "ĠYoung": 4867,
      "Ġunique": 4868,
      "ĠThat": 4869,
      "Ġrepeated": 4870,
      "Ġaband": 4871,
      "itional": 4872,
      "ĠAlabama": 4873,
      "Ġadj": 4874,
      "Ġadop": 4875,
      "ĠComic": 4876,
      "Ġappeal": 4877,
      "Ġjavel": 4878,
      "ipur": 4879,
      "ilding": 4880,
      "Ġscore": 4881,
      "Ġseasons": 4882,
      "Ġelectric": 4883,
      "formed": 4884,
      "Ġ1955": 4885,
      "onsin": 4886,
      "Ġ41": 4887,
      "ĠZion": 4888,
      "Ġnews": 4889,
      "Ġpreced": 4890,
      "ĠCommand": 4891,
      "Ġimm": 4892,
      "Ġunderwater": 4893,
      "ĠProduction": 4894,
      "Ġ1965": 4895,
      "Ġcaller": 4896,
      "ĠEngine": 4897,
      "ĠJunior": 4898,
      "Ġaccused": 4899,
      "ĠAtt": 4900,
      "Ġdirectly": 4901,
      "Ġconsist": 4902,
      "orship": 4903,
      "Ġmovie": 4904,
      "ĠAsh": 4905,
      "Ġcreate": 4906,
      "Ġrepresentative": 4907,
      "ĠRegional": 4908,
      "Ġmeas": 4909,
      "Ġremov": 4910,
      "Ġacadem": 4911,
      "Ġreferred": 4912,
      "Ġnearly": 4913,
      "ashion": 4914,
      "Ġminor": 4915,
      "ĠEdson": 4916,
      "Ġactivist": 4917,
      "Ġactivity": 4918,
      "ĠSecurity": 4919,
      "Ġ1908": 4920,
      "Ġprogramming": 4921,
      "Ġprevent": 4922,
      "Ġgraduating": 4923,
      "Ġpublications": 4924,
      "Ġdebuted": 4925,
      "Ġincident": 4926,
      "Ġdiffic": 4927,
      "Ġlittle": 4928,
      "ĠExchange": 4929,
      "ĠMont": 4930,
      "Ġsmaller": 4931,
      "Ġexperiment": 4932,
      "Ġpassing": 4933,
      "Ġmerged": 4934,
      "ĠIII": 4935,
      "ancial": 4936,
      "ometimes": 4937,
      "ĠMuscat": 4938,
      "Ġfactory": 4939,
      "ĠPhilip": 4940,
      "Ġtwenty": 4941,
      "Ġlightweight": 4942,
      "Ġvisiting": 4943,
      "Ġidentified": 4944,
      "Ġmetres": 4945,
      "Ġinvestigation": 4946,
      "Ġbehavi": 4947,
      "ĠResearch": 4948,
      "Ġsummit": 4949,
      "Ġsituation": 4950,
      "ĠDonald": 4951,
      "ĠParalympic": 4952,
      "Ġdemonstration": 4953,
      "ĠGeorgia": 4954,
      "ĠHungarian": 4955,
      "ĠNetwork": 4956,
      "Ġwidth": 4957,
      "ĠPanama": 4958,
      "Ġlimited": 4959,
      "Ġcombat": 4960,
      "ĠEarth": 4961,
      "ĠHistor": 4962,
      "Ġstarring": 4963,
      "hematics": 4964,
      "ĠLogistic": 4965,
      "ĠGolden": 4966,
      "Ġspirit": 4967,
      "Ġcertain": 4968,
      "Ġpractice": 4969,
      "Ġplatform": 4970,
      "Ġexistence": 4971,
      "ĠMontenegro": 4972,
      "ĠFIFA": 4973,
      "Ġdeclared": 4974,
      "Ġcasualties": 4975,
      "Ġmixed": 4976,
      "Ġnetwork": 4977,
      "ĠPropst": 4978,
      "Ġvoyage": 4979,
      "Ġpremiered": 4980,
      "Ġligulatus": 4981,
      "ĠFurth": 4982,
      "ĠWashington": 4983,
      "repreneur": 4984,
      "ĠFogerty": 4985,
      "ĠJavaScript": 4986,
      "ĠWisconsin": 4987,
      "Ġjavelin": 4988,
      "Ġbehaviour": 4989,
      "01": 4990,
      "24": 4991,
      "39": 4992,
      "54": 4993,
      "87": 4994,
      "94": 4995,
      "Al": 4996,
      "Be": 4997,
      "EA": 4998,
      "Eb": 4999,
      "MP": 5000,
      "PS": 5001,
      "Park": 5002,
      "Schoenus": 5003,
      "ba": 5004,
      "but": 5005,
      "bai": 5006,
      "door": 5007,
      "furt": 5008,
      "jiang": 5009,
      "ki": 5010,
      "life": 5011,
      "limin": 5012,
      "language": 5013,
      "mine": 5014,
      "ng": 5015,
      "nam": 5016,
      "oo": 5017,
      "ool": 5018,
      "oid": 5019,
      "pan": 5020,
      "rup": 5021,
      "rence": 5022,
      "ses": 5023,
      "uce": 5024,
      "vey": 5025,
      "Ġtreat": 5026,
      "heastern": 5027,
      "ona": 5028,
      "eds": 5029,
      "Ġwa": 5030,
      "Ġwalls": 5031,
      "anced": 5032,
      "att": 5033,
      "atically": 5034,
      "Ġsection": 5035,
      "Ġsides": 5036,
      "Ġsought": 5037,
      "isional": 5038,
      "arim": 5039,
      "ites": 5040,
      "itness": 5041,
      "Ġfle": 5042,
      "Ġfans": 5043,
      "Ġfashion": 5044,
      "Ġcou": 5045,
      "Ġcost": 5046,
      "Ġcred": 5047,
      "Ġbow": 5048,
      "Ġbound": 5049,
      "Ġbrand": 5050,
      "Ġbreak": 5051,
      "Ġbridge": 5052,
      "Ġpra": 5053,
      "Ġpurs": 5054,
      "Ġpiano": 5055,
      "Ġpsych": 5056,
      "ĠSol": 5057,
      "ĠSem": 5058,
      "ĠSus": 5059,
      "ĠSand": 5060,
      "ĠSab": 5061,
      "ĠSche": 5062,
      "ĠSICP": 5063,
      "ionally": 5064,
      "Ġmention": 5065,
      "Ġmax": 5066,
      "Ġmuseum": 5067,
      "Ġmental": 5068,
      "ĠTa": 5069,
      "ĠTan": 5070,
      "ĠTar": 5071,
      "ĠTri": 5072,
      "ĠTop": 5073,
      "ĠTrib": 5074,
      "ĠApp": 5075,
      "ĠAzer": 5076,
      "ĠAvenue": 5077,
      "ĠCat": 5078,
      "Ġharm": 5079,
      "ĠMaim": 5080,
      "ols": 5081,
      "eler": 5082,
      "eless": 5083,
      "ĠHere": 5084,
      "rown": 5085,
      "ĠIB": 5086,
      "ĠPak": 5087,
      "Ġlo": 5088,
      "emper": 5089,
      "empt": 5090,
      "iry": 5091,
      "irol": 5092,
      "ĠBa": 5093,
      "ĠBoth": 5094,
      "ĠBridge": 5095,
      "ĠDist": 5096,
      "ĠDak": 5097,
      "ĠDue": 5098,
      "tered": 5099,
      "Ġforestry": 5100,
      "Ġisland": 5101,
      "Ġele": 5102,
      "oted": 5103,
      "ĠRT": 5104,
      "ĠRan": 5105,
      "ĠRad": 5106,
      "ĠRivers": 5107,
      "ĠRRE": 5108,
      "Ġheav": 5109,
      "ĠLieutenant": 5110,
      "imum": 5111,
      "Ġatmosp": 5112,
      "ĠJS": 5113,
      "ĠJa": 5114,
      "ĠJose": 5115,
      "ĠGi": 5116,
      "ĠGri": 5117,
      "chant": 5118,
      "chyan": 5119,
      "Ġgra": 5120,
      "isten": 5121,
      "Ġste": 5122,
      "Ġstone": 5123,
      "ĠEmp": 5124,
      "agn": 5125,
      "agon": 5126,
      "osl": 5127,
      "rie": 5128,
      "raine": 5129,
      "Ġconstitut": 5130,
      "ĠKr": 5131,
      "ĠKier": 5132,
      "oper": 5133,
      "orted": 5134,
      "avor": 5135,
      "Ġcharge": 5136,
      "Ġchairman": 5137,
      "ĠStar": 5138,
      "ĠStep": 5139,
      "ĠChand": 5140,
      "ĠChooglin": 5141,
      "apore": 5142,
      "ogne": 5143,
      "Ġcomposed": 5144,
      "ects": 5145,
      "ervative": 5146,
      "Ġfired": 5147,
      "ĠYear": 5148,
      "Ġkind": 5149,
      "ĠVis": 5150,
      "ĠVienn": 5151,
      "Ġunf": 5152,
      "Ġunivers": 5153,
      "Ġunknown": 5154,
      "ĠArch": 5155,
      "Ġnotes": 5156,
      "Ġclosed": 5157,
      "2019": 5158,
      "Ġparties": 5159,
      "Ġshop": 5160,
      "ĠAlbum": 5161,
      "ĠMarg": 5162,
      "reek": 5163,
      "Ġjunior": 5164,
      "Ġcontract": 5165,
      "Ġattend": 5166,
      "ĠAnth": 5167,
      "ĠAnne": 5168,
      "Ġdism": 5169,
      "Ġscene": 5170,
      "Ġelectoral": 5171,
      "ricultural": 5172,
      "Ġ1951": 5173,
      "ĠCologne": 5174,
      "Ġnewly": 5175,
      "aret": 5176,
      "Ġ1973": 5177,
      "Ġ1978": 5178,
      "Ġstudy": 5179,
      "Ġ1947": 5180,
      "ĠIndust": 5181,
      "aza": 5182,
      "ĠSports": 5183,
      "ĠProgram": 5184,
      "Ġ1963": 5185,
      "Ġthemes": 5186,
      "ĠBritain": 5187,
      "ĠForest": 5188,
      "ĠForester": 5189,
      "Ġcalling": 5190,
      "Ġ167": 5191,
      "ibility": 5192,
      "Ġcoordin": 5193,
      "Ġaccident": 5194,
      "Ġconsisted": 5195,
      "Ġmove": 5196,
      "tyard": 5197,
      "keep": 5198,
      "ĠJohann": 5199,
      "Ġinterests": 5200,
      "Ġwrite": 5201,
      "Ġreports": 5202,
      "Ġestimated": 5203,
      "Ġformation": 5204,
      "Ġdeck": 5205,
      "Ġsettle": 5206,
      "Ġremains": 5207,
      "Ġappearances": 5208,
      "Ġimplement": 5209,
      "rett": 5210,
      "ĠCarl": 5211,
      "Ġamateur": 5212,
      "Ġsupported": 5213,
      "Ġsupporting": 5214,
      "udience": 5215,
      "ĠGuer": 5216,
      "Ġcontinue": 5217,
      "Ġbuildings": 5218,
      "Ġvariety": 5219,
      "ĠTrust": 5220,
      "Ġmajority": 5221,
      "Ġexpert": 5222,
      "iamond": 5223,
      "Ġparticipate": 5224,
      "Ġcivilian": 5225,
      "Ġdegrees": 5226,
      "Ġroads": 5227,
      "Ġeligible": 5228,
      "Ġvoters": 5229,
      "Ġweeks": 5230,
      "Ġchess": 5231,
      "Ġoldest": 5232,
      "ĠSupreme": 5233,
      "ĠBrook": 5234,
      "ĠChess": 5235,
      "Ġconstruct": 5236,
      "Ġconstituencies": 5237,
      "track": 5238,
      "tract": 5239,
      "ĠMartin": 5240,
      "ĠMartres": 5241,
      "ĠReserve": 5242,
      "ÃŃa": 5243,
      "ĠSingapore": 5244,
      "Ġchanges": 5245,
      "Ġindustrial": 5246,
      "ĠMirza": 5247,
      "Å¡en": 5248,
      "Ġprior": 5249,
      "Ġprize": 5250,
      "Ġbaseball": 5251,
      "ĠHaack": 5252,
      "Ġassistant": 5253,
      "Ġcultural": 5254,
      "Ġmiddleweight": 5255,
      "ihar": 5256,
      "Ġ/>": 5257,
      "Ġ/><": 5258,
      "ĠÑģ": 5259,
      "ĠIsraeli": 5260,
      "ĠGalway": 5261,
      "ategic": 5262,
      "Ġconcerns": 5263,
      "Ġfeel": 5264,
      "Ġcirculation": 5265,
      "Ġassociated": 5266,
      "ĠDenmark": 5267,
      "ĠCommunity": 5268,
      "Ġconducted": 5269,
      "Ġboats": 5270,
      "Ġtower": 5271,
      "olitan": 5272,
      "ĠEgyptian": 5273,
      "Ġalleged": 5274,
      "Ġlecturer": 5275,
      "Ġarrangement": 5276,
      "Ġoccupation": 5277,
      "colspan": 5278,
      "Ġsanctions": 5279,
      "ĠModern": 5280,
      "ĠNaples": 5281,
      "ĠNigeria": 5282,
      "Ġearthquake": 5283,
      "Ġphilosop": 5284,
      "Ġdocument": 5285,
      "ĠMitchell": 5286,
      "Ġnegot": 5287,
      "rtchyan": 5288,
      "ĠLaurent": 5289,
      "ĠUpon": 5290,
      "Ġchoose": 5291,
      "Ġmurder": 5292,
      "Ġkingdom": 5293,
      "Ġheadquarters": 5294,
      "Ġmaterial": 5295,
      "angleirol": 5296,
      "ĠIsabelle": 5297,
      "ĠMiddleton": 5298,
      "loyd": 5299,
      "Ġdomestic": 5300,
      "ĠBromley": 5301,
      "Ġaccompan": 5302,
      "ĠDignan": 5303,
      "Ġdifficult": 5304,
      "liminary": 5305,
      "ĠAzerbai": 5306,
      "ĠMaimi": 5307,
      "ĠEmpire": 5308,
      "ĠKieran": 5309,
      "ĠVienna": 5310,
      "\"),": 5311,
      ")\"": 5312,
      "28": 5313,
      "57": 5314,
      "=|": 5315,
      "All": 5316,
      "CP": 5317,
      "DC": 5318,
      "Dendromaia": 5319,
      "IM": 5320,
      "Keep": 5321,
      "Pro": 5322,
      "Royal": 5323,
      "Sp": 5324,
      "We": 5325,
      "bon": 5326,
      "eb": 5327,
      "eas": 5328,
      "fare": 5329,
      "ging": 5330,
      "gun": 5331,
      "lor": 5332,
      "lers": 5333,
      "lvan": 5334,
      "miral": 5335,
      "named": 5336,
      "oes": 5337,
      "ping": 5338,
      "set": 5339,
      "tt": 5340,
      "uan": 5341,
      "vis": 5342,
      "vious": 5343,
      "ye": 5344,
      "zent": 5345,
      "£o": 5346,
      "Ã±": 5347,
      "Ã£o": 5348,
      "Åį": 5349,
      "ãģ": 5350,
      "ĠÄ": 5351,
      "Ġtechnology": 5352,
      "Ġaid": 5353,
      "onto": 5354,
      "edy": 5355,
      "eno": 5356,
      "anth": 5357,
      "atively": 5358,
      "Ġshire": 5359,
      "Ġsaying": 5360,
      "isi": 5361,
      "itz": 5362,
      "itch": 5363,
      "itable": 5364,
      "Ġfought": 5365,
      "asc": 5366,
      "asing": 5367,
      "ashev": 5368,
      "Ġcateg": 5369,
      "Ġben": 5370,
      "Ġbann": 5371,
      "Ġbike": 5372,
      "Ġbott": 5373,
      "Ġpict": 5374,
      "Ġpoor": 5375,
      "Ġpaper": 5376,
      "ĠSil": 5377,
      "ĠSong": 5378,
      "ĠSund": 5379,
      "Ġment": 5380,
      "ĠTit": 5381,
      "ĠTour": 5382,
      "ĠTang": 5383,
      "ĠAF": 5384,
      "ĠAz": 5385,
      "ĠAle": 5386,
      "ĠAld": 5387,
      "ĠCas": 5388,
      "ĠChen": 5389,
      "ĠCitizens": 5390,
      "ĠCape": 5391,
      "ĠCartel": 5392,
      "amich": 5393,
      "ĠMov": 5394,
      "ĠMaster": 5395,
      "ĠMandy": 5396,
      "Ġreign": 5397,
      "olus": 5398,
      "elar": 5399,
      "ĠHome": 5400,
      "ĠPo": 5401,
      "ĠPost": 5402,
      "ĠPie": 5403,
      "ĠPrat": 5404,
      "uris": 5405,
      "uries": 5406,
      "aches": 5407,
      "Ġlosing": 5408,
      "ĠBir": 5409,
      "ĠBill": 5410,
      "ĠBern": 5411,
      "ĠBusiness": 5412,
      "ĠBuck": 5413,
      "ĠDh": 5414,
      "ĠDel": 5415,
      "ĠDiamond": 5416,
      "Ġnature": 5417,
      "Ġnarr": 5418,
      "Ġnecessary": 5419,
      "lywood": 5420,
      "ĠRh": 5421,
      "ĠRon": 5422,
      "ĠLife": 5423,
      "ĠLanc": 5424,
      "ĠLibrary": 5425,
      "utch": 5426,
      "imi": 5427,
      "Ġasp": 5428,
      "ĠFr": 5429,
      "ĠFre": 5430,
      "ĠFort": 5431,
      "ĠFinn": 5432,
      "ĠFried": 5433,
      "ĠFaso": 5434,
      "ĠJab": 5435,
      "ĠJaze": 5436,
      "ĠGayn": 5437,
      "ĠGhana": 5438,
      "unal": 5439,
      "ĠNath": 5440,
      "ĠEc": 5441,
      "ĠElp": 5442,
      "agen": 5443,
      "ĠOld": 5444,
      "Ġwhy": 5445,
      "Ġaltern": 5446,
      "osun": 5447,
      "eston": 5448,
      "iant": 5449,
      "Ġconvers": 5450,
      "Ġconcluded": 5451,
      "ĠKÃ©n": 5452,
      "Ġcomes": 5453,
      "ainment": 5454,
      "Ġvan": 5455,
      "ortun": 5456,
      "ĠriviÃ¨re": 5457,
      "illed": 5458,
      "abeth": 5459,
      "ĠStokes": 5460,
      "Ġselected": 5461,
      "ovÃ¡": 5462,
      "Ġplus": 5463,
      "Ġplant": 5464,
      "Ġplants": 5465,
      "ello": 5466,
      "aps": 5467,
      "ogami": 5468,
      "quiry": 5469,
      "Ġexiled": 5470,
      "cles": 5471,
      "Ġarts": 5472,
      "ĠVa": 5473,
      "ĠVan": 5474,
      "Ġtele": 5475,
      "Ġunits": 5476,
      "assy": 5477,
      "ĠThrough": 5478,
      "Ġreporter": 5479,
      "izes": 5480,
      "Ġsha": 5481,
      "ĠAli": 5482,
      "ĠMarsh": 5483,
      "Ġserve": 5484,
      "Ġ35": 5485,
      "Ġjump": 5486,
      "Ġattached": 5487,
      "inda": 5488,
      "ĠAnt": 5489,
      "ĠAnother": 5490,
      "ensus": 5491,
      "ropri": 5492,
      "Ġlocation": 5493,
      "Ġ1957": 5494,
      "Ġfilms": 5495,
      "Ġ45": 5496,
      "Ġacting": 5497,
      "Ġactress": 5498,
      "ĠColomb": 5499,
      "Ġprep": 5500,
      "Ġprincip": 5501,
      "Ġknock": 5502,
      "Ã©bec": 5503,
      "aily": 5504,
      "Ġ1941": 5505,
      "Ġ1949": 5506,
      "Ġ1922": 5507,
      "Ġfounder": 5508,
      "Ġfounding": 5509,
      "chester": 5510,
      "Ġcoast": 5511,
      "Ġsuppress": 5512,
      "Ġconsists": 5513,
      "Ġmayor": 5514,
      "iera": 5515,
      "ĠAsia": 5516,
      "eviÄĩ": 5517,
      "ĠAssoci": 5518,
      "ĠPoland": 5519,
      "ĠAdashev": 5520,
      "Ġeditor": 5521,
      "Ġprovide": 5522,
      "Ġproviding": 5523,
      "ĠPlay": 5524,
      "Ġformat": 5525,
      "Ġraise": 5526,
      "Ġdecision": 5527,
      "enne": 5528,
      "enness": 5529,
      "Ġsets": 5530,
      "Ġchildhood": 5531,
      "velopment": 5532,
      "Ġaccepted": 5533,
      "Ġflight": 5534,
      "Ġ1912": 5535,
      "aptist": 5536,
      "Ġ90": 5537,
      "Ġfeaturing": 5538,
      "Ġtraff": 5539,
      "Ġoperated": 5540,
      "Ġvisited": 5541,
      "Ġdescribes": 5542,
      "Ġbackground": 5543,
      "Ġrefused": 5544,
      "Ġprotests": 5545,
      "Ġ1907": 5546,
      "187": 5547,
      "byshire": 5548,
      "Ġairship": 5549,
      "Ġcriminal": 5550,
      "ĠExecutive": 5551,
      "Ġfacilities": 5552,
      "ĠAbu": 5553,
      "Ġvoted": 5554,
      "Ġsuccession": 5555,
      "ĠMorales": 5556,
      "ĠMalays": 5557,
      "Ġprojects": 5558,
      "Ġwinter": 5559,
      "ĠAgain": 5560,
      "Ã¼r": 5561,
      "Ġinvolvement": 5562,
      "Ġtwice": 5563,
      "Ġidentify": 5564,
      "Ġfocuses": 5565,
      "Ġqualify": 5566,
      "itarian": 5567,
      "ĠSingles": 5568,
      "Ġtowns": 5569,
      "ĠCamosun": 5570,
      "ĠTeam": 5571,
      "ĠBattle": 5572,
      "inking": 5573,
      "ĠQuÃ©bec": 5574,
      "ĠBlack": 5575,
      "ĠWeimar": 5576,
      "Ġholds": 5577,
      "ĠLawrence": 5578,
      "ĠSeries": 5579,
      "ĠMiles": 5580,
      "ĠHotel": 5581,
      "ĠNaito": 5582,
      "Ġcommissioner": 5583,
      "Ġdispers": 5584,
      "Ġdoctorate": 5585,
      "Ġtoponymie": 5586,
      "Ġdraw": 5587,
      "Ġpolicy": 5588,
      "Ġcapital": 5589,
      "ĠIdaho": 5590,
      "ĠDenisen": 5591,
      "ĠCommunist": 5592,
      "Ġformalized": 5593,
      "ĠCarolina": 5594,
      "Ġhappened": 5595,
      "ĠRangers": 5596,
      "ĠGallery": 5597,
      "Ġidea": 5598,
      "Ġpaintings": 5599,
      "ĠCorporation": 5600,
      "ĠBacelar": 5601,
      "ĠImran": 5602,
      "Ġwatersheds": 5603,
      "ĠRuby": 5604,
      "Ġorganizations": 5605,
      "Ġtraining": 5606,
      "Ġparliamentary": 5607,
      "ĠSouthern": 5608,
      "ĠMemorial": 5609,
      "ĠFederation": 5610,
      "Ġneighbor": 5611,
      "Ġcamera": 5612,
      "Ġpotential": 5613,
      "ĠTwenty": 5614,
      "ĠDoug": 5615,
      "Ġproblems": 5616,
      "Ġacquired": 5617,
      "ĠRailway": 5618,
      "ĠArmenia": 5619,
      "Ġintroduced": 5620,
      "Ġwanted": 5621,
      "ĠPersian": 5622,
      "ĠUzbekistan": 5623,
      "ĠArnold": 5624,
      "ĠAntonio": 5625,
      "Ġreligious": 5626,
      "Ġvaranopids": 5627,
      "Ġdestroyed": 5628,
      "Ġgranted": 5629,
      "Ġvehicles": 5630,
      "Ġshouted": 5631,
      "Ġobtained": 5632,
      "Ġtropical": 5633,
      "Ġstrength": 5634,
      "ĠChanelle": 5635,
      "ĠQatar": 5636,
      "ĠBrandisovÃ¡": 5637,
      "ĠBosn": 5638,
      "ĠBurkina": 5639,
      "ĠDerbyshire": 5640,
      "ĠEagle": 5641,
      "Ġabandoned": 5642,
      "Ġremoved": 5643,
      "rupt": 5644,
      "ĠSabha": 5645,
      "ĠTribunal": 5646,
      "ĠDakota": 5647,
      "ĠLaurentides": 5648,
      "Ġaccompanied": 5649,
      "ĠAzerbaijan": 5650,
      "ĠPratap": 5651,
      "ĠFinnish": 5652,
      "ĠJazeera": 5653,
      "ĠGaynor": 5654,
      "ĠElpro": 5655,
      "ĠDenisenko": 5656,
      "26": 5657,
      "40": 5658,
      "64": 5659,
      "84": 5660,
      "86": 5661,
      "95": 5662,
      "98": 5663,
      "BO": 5664,
      "ED": 5665,
      "Fort": 5666,
      "General": 5667,
      "Kangleirol": 5668,
      "LC": 5669,
      "March": 5670,
      "Py": 5671,
      "Roc": 5672,
      "Sub": 5673,
      "Up": 5674,
      "bl": 5675,
      "bour": 5676,
      "city": 5677,
      "cia": 5678,
      "dam": 5679,
      "gang": 5680,
      "hr": 5681,
      "iew": 5682,
      "jar": 5683,
      "joy": 5684,
      "king": 5685,
      "kut": 5686,
      "kayn": 5687,
      "ls": 5688,
      "las": 5689,
      "ped": 5690,
      "part": 5691,
      "rc": 5692,
      "sch": 5693,
      "tmann": 5694,
      "uana": 5695,
      "uven": 5696,
      "yal": 5697,
      "Ã¢": 5698,
      "ÅĤ": 5699,
      "Ð»": 5700,
      "×ķ": 5701,
      "Ġ%": 5702,
      "Ġult": 5703,
      "Ġtim": 5704,
      "Ġtest": 5705,
      "Ġtennis": 5706,
      "het": 5707,
      "hest": 5708,
      "Ġaver": 5709,
      "Ġaudience": 5710,
      "inces": 5711,
      "eron": 5712,
      "orrow": 5713,
      "Ġwild": 5714,
      "atural": 5715,
      "Ġsat": 5716,
      "Ġsom": 5717,
      "Ġsoul": 5718,
      "reated": 5719,
      "aru": 5720,
      "Ġinside": 5721,
      "Ġinhab": 5722,
      "ithel": 5723,
      "Ġfish": 5724,
      "Ġfeed": 5725,
      "Ġfuel": 5726,
      "Ġcat": 5727,
      "Ġcause": 5728,
      "Ġclear": 5729,
      "Ġbre": 5730,
      "Ġbar": 5731,
      "Ġboy": 5732,
      "Ġbreed": 5733,
      "ingu": 5734,
      "ĠSop": 5735,
      "ĠSask": 5736,
      "Ġmm": 5737,
      "Ġmis": 5738,
      "Ġmel": 5739,
      "Ġmight": 5740,
      "Ġmuses": 5741,
      "ĠTu": 5742,
      "ĠTro": 5743,
      "Ġdark": 5744,
      "Ġdrew": 5745,
      "ĠCa": 5746,
      "ĠCatin": 5747,
      "Ġhard": 5748,
      "Ġhyd": 5749,
      "iliated": 5750,
      "ĠMiss": 5751,
      "ĠMinn": 5752,
      "olished": 5753,
      "stey": 5754,
      "ĠHE": 5755,
      "ĠHo": 5756,
      "ĠHug": 5757,
      "ĠHind": 5758,
      "ĠHannah": 5759,
      "ĠIly": 5760,
      "ĠIow": 5761,
      "ĠPard": 5762,
      "ĠPrad": 5763,
      "ĠPope": 5764,
      "acted": 5765,
      "Ġlin": 5766,
      "Ġlac": 5767,
      "Ġlibrary": 5768,
      "Ġ1900": 5769,
      "ĠBagh": 5770,
      "ĠBihar": 5771,
      "ĠDi": 5772,
      "ĠDiv": 5773,
      "ĠDub": 5774,
      "ĠDie": 5775,
      "ĠDomin": 5776,
      "ĠDutch": 5777,
      "Ġthus": 5778,
      "Ġthank": 5779,
      "Ġelev": 5780,
      "Ġeastern": 5781,
      "lyi": 5782,
      "lying": 5783,
      "ĠRol": 5784,
      "ĠRima": 5785,
      "ĠLy": 5786,
      "ĠLak": 5787,
      "ĠLady": 5788,
      "Ġath": 5789,
      "usion": 5790,
      "ĠJoffrey": 5791,
      "ĠGod": 5792,
      "ĠGram": 5793,
      "chw": 5794,
      "unk": 5795,
      "ĠNaz": 5796,
      "ĠNasz": 5797,
      "Ġgen": 5798,
      "Ġgive": 5799,
      "Ġgained": 5800,
      "Ġgaining": 5801,
      "ĠWal": 5802,
      "Ġstab": 5803,
      "Ġstations": 5804,
      "Ġbeat": 5805,
      "herlands": 5806,
      "uments": 5807,
      "estant": 5808,
      "ocated": 5809,
      "ĠUl": 5810,
      "ĠKn": 5811,
      "ĠKay": 5812,
      "ĠKonheim": 5813,
      "ĠInn": 5814,
      "âĢĺ": 5815,
      "opod": 5816,
      "Ġdeep": 5817,
      "Ġdeploy": 5818,
      "iful": 5819,
      "ighth": 5820,
      "odg": 5821,
      "abon": 5822,
      "icht": 5823,
      "ĠStra": 5824,
      "ĠStev": 5825,
      "ĠChaz": 5826,
      "ovo": 5827,
      "ellig": 5828,
      "apest": 5829,
      "ogamich": 5830,
      "orning": 5831,
      "Ġcomplex": 5832,
      "Ġcomposition": 5833,
      "Ġlearn": 5834,
      "raniÄĩ": 5835,
      "ucks": 5836,
      "Ġspons": 5837,
      "Ġkept": 5838,
      "angar": 5839,
      "oken": 5840,
      "ĠVar": 5841,
      "ĠVol": 5842,
      "ĠVict": 5843,
      "ĠVert": 5844,
      "ĠVraniÄĩ": 5845,
      "osty": 5846,
      "ffer": 5847,
      "season": 5848,
      "teg": 5849,
      "Ġpolo": 5850,
      "Ġabd": 5851,
      "Ġshared": 5852,
      "ĠAlam": 5853,
      "Ġplayoff": 5854,
      "Ġ32": 5855,
      "Ġappar": 5856,
      "Ġapplied": 5857,
      "Ġattempt": 5858,
      "inders": 5859,
      "ĠAnstey": 5860,
      "Ġscript": 5861,
      "Ġrecent": 5862,
      "Ġ51": 5863,
      "Ġ54": 5864,
      "roph": 5865,
      "forc": 5866,
      "ĠLee": 5867,
      "Ġroyal": 5868,
      "Ġ43": 5869,
      "Ġ48": 5870,
      "Ġactions": 5871,
      "Ġactually": 5872,
      "Ġcolor": 5873,
      "ĠZur": 5874,
      "Ġenvironment": 5875,
      "Ġprepar": 5876,
      "Ġknew": 5877,
      "ĠCommon": 5878,
      "play": 5879,
      "Ġ1945": 5880,
      "Ġhouses": 5881,
      "Ġundergraduate": 5882,
      "Ġreleg": 5883,
      "ĠSpain": 5884,
      "ĠSpring": 5885,
      "ĠSpecial": 5886,
      "Ġfoundation": 5887,
      "Ġnumerous": 5888,
      "ĠProble": 5889,
      "Ġ1964": 5890,
      "Ġ1967": 5891,
      "Ġ1935": 5892,
      "Ġassigned": 5893,
      "phas": 5894,
      "Ġcalls": 5895,
      "Ġentrepreneur": 5896,
      "Ġinvent": 5897,
      "ĠAtlant": 5898,
      "Ġdirection": 5899,
      "Ã¡lyi": 5900,
      "Ġmusicians": 5901,
      "ĠOlympic": 5902,
      "Ġarticle": 5903,
      "Ġquick": 5904,
      "Ġquality": 5905,
      "ĠâĢĶ": 5906,
      "ĠAustrian": 5907,
      "ĠPlan": 5908,
      "ĠMayor": 5909,
      "ennon": 5910,
      "Ġremain": 5911,
      "Ġappears": 5912,
      "otti": 5913,
      "Ġflag": 5914,
      "Ġtransition": 5915,
      "Ġorganis": 5916,
      "Ġlaid": 5917,
      "Ġannounc": 5918,
      "ĠGuard": 5919,
      "Ġdriving": 5920,
      "Ġstruck": 5921,
      "Ġemphas": 5922,
      "ĠMinor": 5923,
      "ĠAmong": 5924,
      "ĠAmritsar": 5925,
      "ĠAmtmann": 5926,
      "orpor": 5927,
      "ĠEdg": 5928,
      "Ġjoining": 5929,
      "ĠManuel": 5930,
      "Ġdemands": 5931,
      "Ġpoliticians": 5932,
      "âĢĿ,": 5933,
      "âĢĿ.": 5934,
      "Ġvillages": 5935,
      "Ġsymb": 5936,
      "Ġcommunities": 5937,
      "Ġshowed": 5938,
      "Ġmodels": 5939,
      "Ġlaws": 5940,
      "ĠDeleg": 5941,
      "Ġissue": 5942,
      "Ġnomination": 5943,
      "Ġnorthwest": 5944,
      "autiful": 5945,
      "ĠCoast": 5946,
      "ographic": 5947,
      "ographical": 5948,
      "Ġmerchant": 5949,
      "Ġsurfaced": 5950,
      "Ġdistance": 5951,
      "Ġearning": 5952,
      "Ġ1895": 5953,
      "uela": 5954,
      "Ġpropos": 5955,
      "Ġcharacters": 5956,
      "Ġeffort": 5957,
      "Ġproduce": 5958,
      "Ġfunds": 5959,
      "Ġfunded": 5960,
      "Ġshortly": 5961,
      "Ġopportun": 5962,
      "ĠBroad": 5963,
      "borough": 5964,
      "Ġmeetings": 5965,
      "ĠWoodburn": 5966,
      "Ġsolid": 5967,
      "Ġcaptured": 5968,
      "Ġpresence": 5969,
      "ĠDefence": 5970,
      "ĠRevival": 5971,
      "Ġadministration": 5972,
      "ĠHoly": 5973,
      "Ġaffiliated": 5974,
      "ĠTrans": 5975,
      "Ġneeded": 5976,
      "ĠProvosty": 5977,
      "ĠSerb": 5978,
      "Ġcrosses": 5979,
      "Ġduo": 5980,
      "ĠNaisten": 5981,
      "Ġfinishing": 5982,
      "ĠNeag": 5983,
      "ĠWhite": 5984,
      "Ġreturning": 5985,
      "ĠNetherlands": 5986,
      "racted": 5987,
      "Ġwidely": 5988,
      "Ġcases": 5989,
      "ĠBudaun": 5990,
      "ĠBudapest": 5991,
      "Ġindividual": 5992,
      "ĠAkkayn": 5993,
      "Ġvalley": 5994,
      "ĠStafford": 5995,
      "Ġsquad": 5996,
      "ĠDoctor": 5997,
      "Ġmotorcy": 5998,
      "Ġcollaboration": 5999,
      "Ġsilver": 6000,
      "Ġsuper": 6001,
      "ĠCorps": 6002,
      "Ġparticularly": 6003,
      "Ġscientific": 6004,
      "ĠMkrtchyan": 6005,
      "Ġinstitutions": 6006,
      "Ġpowered": 6007,
      "Ġhighest": 6008,
      "Ġseparate": 6009,
      "ĠAndrade": 6010,
      "Ġscholar": 6011,
      "Ġfrequ": 6012,
      "agogue": 6013,
      "ĠLeader": 6014,
      "Ġbroadcast": 6015,
      "ĠHouthi": 6016,
      "ĠBallet": 6017,
      "ĠStrategic": 6018,
      "ĠIslamic": 6019,
      "inema": 6020,
      "ĠKorean": 6021,
      "ĠPierre": 6022,
      "ĠBasel": 6023,
      "ĠGirls": 6024,
      "Second": 6025,
      "ĠRatabon": 6026,
      "ĠWildlife": 6027,
      "Ġwithdra": 6028,
      "claimed": 6029,
      "ĠZionist": 6030,
      "ĠAttorney": 6031,
      "Ġacademic": 6032,
      "Ġmentioned": 6033,
      "ĠStephen": 6034,
      "ĠAlbums": 6035,
      "ĠPiekut": 6036,
      "Roches": 6037,
      "ĠSaskat": 6038,
      "ĠIowa": 6039,
      "ĠPradesh": 6040,
      "ĠNaszÃ¡lyi": 6041,
      "ogamichiche": 6042,
      "ĠAkkaynak": 6043,
      "!\"": 6044,
      "\";": 6045,
      "\").": 6046,
      "//": 6047,
      "22": 6048,
      "23": 6049,
      "33": 6050,
      "58": 6051,
      "://": 6052,
      "Amer": 6053,
      "Band": 6054,
      "CH": 6055,
      "Don": 6056,
      "Gr": 6057,
      "Gu": 6058,
      "Lunch": 6059,
      "MS": 6060,
      "New": 6061,
      "OS": 6062,
      "Page": 6063,
      "Sh": 6064,
      "WF": 6065,
      "bes": 6066,
      "bers": 6067,
      "brew": 6068,
      "box": 6069,
      "ca": 6070,
      "cour": 6071,
      "dis": 6072,
      "een": 6073,
      "ease": 6074,
      "found": 6075,
      "government": 6076,
      "greg": 6077,
      "iade": 6078,
      "jo": 6079,
      "kk": 6080,
      "kin": 6081,
      "ker": 6082,
      "lal": 6083,
      "lic": 6084,
      "mon": 6085,
      "moy": 6086,
      "ni": 6087,
      "oe": 6088,
      "pao": 6089,
      "racy": 6090,
      "sm": 6091,
      "sac": 6092,
      "src": 6093,
      "titude": 6094,
      "tainment": 6095,
      "uv": 6096,
      "via": 6097,
      "ware": 6098,
      "wick": 6099,
      "zo": 6100,
      "ÅĨ": 6101,
      "Ð²": 6102,
      "Ðº": 6103,
      "Ð½": 6104,
      "Ġ;": 6105,
      "Ġi": 6106,
      "Ġur": 6107,
      "Ġtun": 6108,
      "Ġtie": 6109,
      "Ġtax": 6110,
      "Ġtesting": 6111,
      "Ġtemporary": 6112,
      "Ġavi": 6113,
      "inity": 6114,
      "erted": 6115,
      "Ġtheat": 6116,
      "orre": 6117,
      "ores": 6118,
      "orces": 6119,
      "Ġwor": 6120,
      "Ġwing": 6121,
      "Ġwear": 6122,
      "ancy": 6123,
      "ato": 6124,
      "atures": 6125,
      "Ġsubl": 6126,
      "Ġsoccer": 6127,
      "Ġsaved": 6128,
      "Ġsometimes": 6129,
      "isa": 6130,
      "rell": 6131,
      "align": 6132,
      "Ġinaug": 6133,
      "ita": 6134,
      "itled": 6135,
      "Ġfigh": 6136,
      "Ġfarm": 6137,
      "Ġfelt": 6138,
      "asp": 6139,
      "Ġcut": 6140,
      "Ġbad": 6141,
      "Ġbur": 6142,
      "Ġbant": 6143,
      "Ġbillion": 6144,
      "icro": 6145,
      "Ġpil": 6146,
      "Ġpath": 6147,
      "ĠSar": 6148,
      "oubi": 6149,
      "omes": 6150,
      "Ġmill": 6151,
      "Ġmurd": 6152,
      "Ġmakes": 6153,
      "Ġmorning": 6154,
      "lech": 6155,
      "level": 6156,
      "ĠTet": 6157,
      "ĠTong": 6158,
      "ĠTenness": 6159,
      "ĠAuthor": 6160,
      "Ġded": 6161,
      "Ġden": 6162,
      "Ġdimin": 6163,
      "Ġdaily": 6164,
      "ĠCur": 6165,
      "ĠCab": 6166,
      "ĠCirc": 6167,
      "Ġhab": 6168,
      "Ġhtt": 6169,
      "amweight": 6170,
      "ĠMam": 6171,
      "ĠMel": 6172,
      "ĠMany": 6173,
      "ĠMike": 6174,
      "Ġreject": 6175,
      "ĠHu": 6176,
      "ado": 6177,
      "adr": 6178,
      "aco": 6179,
      "aculty": 6180,
      "ĠTheater": 6181,
      "ĠBec": 6182,
      "ĠBet": 6183,
      "ĠBul": 6184,
      "ĠBens": 6185,
      "ĠBrist": 6186,
      "ĠBunch": 6187,
      "ĠBoys": 6188,
      "ĠBBC": 6189,
      "ĠBaptist": 6190,
      "ĠDale": 6191,
      "ĠDmit": 6192,
      "Ġnom": 6193,
      "Ġnob": 6194,
      "tertainment": 6195,
      "Ġforest": 6196,
      "Ġeighth": 6197,
      "lyn": 6198,
      "ida": 6199,
      "ĠRic": 6200,
      "ĠRais": 6201,
      "ĠRacing": 6202,
      "Ġheart": 6203,
      "Ġhearing": 6204,
      "ĠLat": 6205,
      "ĠLand": 6206,
      "ĠLew": 6207,
      "ĠLoyal": 6208,
      "igation": 6209,
      "imir": 6210,
      "usse": 6211,
      "ĠFar": 6212,
      "ĠFrid": 6213,
      "ĠFellow": 6214,
      "ĠJourn": 6215,
      "ĠJaff": 6216,
      "ĠGo": 6217,
      "ĠGut": 6218,
      "ĠGib": 6219,
      "ĠGovernor": 6220,
      "unte": 6221,
      "ĠNash": 6222,
      "Ġ(,": 6223,
      "Ġ().": 6224,
      "Ġgall": 6225,
      "Ġgain": 6226,
      "Ġgives": 6227,
      "ctic": 6228,
      "Ġstock": 6229,
      "Ġstatus": 6230,
      "ĠEr": 6231,
      "ĠEs": 6232,
      "ĠEach": 6233,
      "ĠEsc": 6234,
      "agu": 6235,
      "ager": 6236,
      "Ġaltitude": 6237,
      "osure": 6238,
      "umed": 6239,
      "riers": 6240,
      "riage": 6241,
      "ulated": 6242,
      "ĠUt": 6243,
      "ianw": 6244,
      "ĠKun": 6245,
      "ĠKrist": 6246,
      "ĠIntern": 6247,
      "Ġcommercial": 6248,
      "Ġcomedy": 6249,
      "aine": 6250,
      "Ġprob": 6251,
      "Ġprox": 6252,
      "Ġproceed": 6253,
      "aked": 6254,
      "ubber": 6255,
      "illo": 6256,
      "illery": 6257,
      "Ġitems": 6258,
      "ĠStation": 6259,
      "ĠStock": 6260,
      "ĠChild": 6261,
      "ĠChair": 6262,
      "Ġseg": 6263,
      "ovsk": 6264,
      "Ġplans": 6265,
      "antly": 6266,
      "epSub": 6267,
      "aped": 6268,
      "quot": 6269,
      "Ġexamin": 6270,
      "Ġleaving": 6271,
      "ounding": 6272,
      "ectives": 6273,
      "Ġfiring": 6274,
      "ĠYaz": 6275,
      "ĠVÃ¡": 6276,
      "ĠVij": 6277,
      "outimi": 6278,
      "acks": 6279,
      "ikai": 6280,
      "Ġshel": 6281,
      "Ġresc": 6282,
      "Ġresolution": 6283,
      "Ġreserve": 6284,
      "manipur": 6285,
      "Ġparts": 6286,
      "Ġoffer": 6287,
      "Ġabove": 6288,
      "ĠMaria": 6289,
      "ultane": 6290,
      "Ġ36": 6291,
      "owned": 6292,
      "lets": 6293,
      "ipment": 6294,
      "weightlifter": 6295,
      "wealth": 6296,
      "Ġcontains": 6297,
      "Ġdisband": 6298,
      "fti": 6299,
      "fton": 6300,
      "ĠPars": 6301,
      "tershire": 6302,
      "Ġoutbreak": 6303,
      "ucts": 6304,
      "Ġ56": 6305,
      "ropolitan": 6306,
      "ĠLeban": 6307,
      "ĠLeikai": 6308,
      "onsec": 6309,
      "ĠEntertainment": 6310,
      "Ġcolony": 6311,
      "ĠZab": 6312,
      "Ġenough": 6313,
      "Ġpreliminary": 6314,
      "Ġprin": 6315,
      "Ġprime": 6316,
      "197": 6317,
      "âĢĻ,": 6318,
      "spec": 6319,
      "ĠSpe": 6320,
      "Ġ1925": 6321,
      "lib": 6322,
      "Ġ1962": 6323,
      "Ġ1939": 6324,
      "anka": 6325,
      "ĠArabian": 6326,
      "urrently": 6327,
      "ĠSystem": 6328,
      "ĠForestry": 6329,
      "inner": 6330,
      "Ġentry": 6331,
      "stronom": 6332,
      "ĠJunction": 6333,
      "Ã¡s": 6334,
      "kee": 6335,
      "Ġdefense": 6336,
      "Ġmarched": 6337,
      "Ġdoor": 6338,
      "Ġ800": 6339,
      "Ġrepresentation": 6340,
      "ĠPlanning": 6341,
      "fessional": 6342,
      "Ġrap": 6343,
      "ĠHispan": 6344,
      "Ġmathematics": 6345,
      "Ġremaining": 6346,
      "ĠPhys": 6347,
      "Ġownership": 6348,
      "ĠPrim": 6349,
      "Ġ1913": 6350,
      "Ġexpanded": 6351,
      "Ġtrade": 6352,
      "ĠPortage": 6353,
      "Ġorganized": 6354,
      "Ġfeature": 6355,
      "Ġrecords": 6356,
      "Ġoperating": 6357,
      "Ġdepth": 6358,
      "Ġbroken": 6359,
      "Ġcontinues": 6360,
      "aukee": 6361,
      "Ġ...": 6362,
      "Ġstruct": 6363,
      "Ġstructure": 6364,
      "Ġbackdoor": 6365,
      "Ġguests": 6366,
      "Ġguilty": 6367,
      "uki": 6368,
      "Ġengines": 6369,
      "Ġsoft": 6370,
      "ĠReading": 6371,
      "Ġanyone": 6372,
      "Ġpresents": 6373,
      "Ġworldwide": 6374,
      "fordshire": 6375,
      "ĠDebor": 6376,
      "ĠDevelopment": 6377,
      "ĠEducational": 6378,
      "ĠYemeni": 6379,
      "ĠPalace": 6380,
      "Ġcondition": 6381,
      "Ġcompletely": 6382,
      "Ġpasses": 6383,
      "ĠSchomm": 6384,
      "Ġrestoration": 6385,
      "ĠAlliance": 6386,
      "Ġintens": 6387,
      "ĠMalta": 6388,
      "ĠHousehold": 6389,
      "Ġdistributed": 6390,
      "Ġ1890": 6391,
      "Ġparticipation": 6392,
      "Ġadvanced": 6393,
      "ĠCastro": 6394,
      "ĠEliz": 6395,
      "ariat": 6396,
      "Ġproposed": 6397,
      "Ġyoungest": 6398,
      "Ġefforts": 6399,
      "Ġjustice": 6400,
      "sylvan": 6401,
      "Ġmyster": 6402,
      "Ġamongst": 6403,
      "Ġidentity": 6404,
      "Ġsimultane": 6405,
      "Ġextra": 6406,
      "Ġinvestigate": 6407,
      "miÅĨ": 6408,
      "ĠSingh": 6409,
      "ĠAirport": 6410,
      "ĠPrevious": 6411,
      "Ġletters": 6412,
      "Ġhistorian": 6413,
      "burgh": 6414,
      "Ġpreserved": 6415,
      "ĠTeacher": 6416,
      "ĠBattalion": 6417,
      "ĠBarb": 6418,
      "Ġengineering": 6419,
      "know": 6420,
      "ĠMufti": 6421,
      "Ġpriest": 6422,
      "Ġholding": 6423,
      "Ġhonour": 6424,
      "Ġassistance": 6425,
      "ĠPalestinian": 6426,
      "Ġrebell": 6427,
      "ĠPrize": 6428,
      "Ġculture": 6429,
      "Ġcommissioned": 6430,
      "Ġinitial": 6431,
      "Ġinitially": 6432,
      "Ġinfluen": 6433,
      "ĠKurds": 6434,
      "chers": 6435,
      "Ġweapon": 6436,
      "Ġimportance": 6437,
      "Ġexpressed": 6438,
      "Ġexplosion": 6439,
      "raclit": 6440,
      "Ġtargets": 6441,
      "Ġcapable": 6442,
      "ĠIdlib": 6443,
      "Ġcollections": 6444,
      "Ġprisoners": 6445,
      "Ġautomatically": 6446,
      "ĠCopa": 6447,
      "Ġequipment": 6448,
      "Ġcriticized": 6449,
      "Ġapprox": 6450,
      "ĠTayside": 6451,
      "ĠTaylor": 6452,
      "STIM": 6453,
      "Ġcurler": 6454,
      "ĠSurvey": 6455,
      "ĠFermoy": 6456,
      "ĠUkraine": 6457,
      "ĠKeithel": 6458,
      "Ġkeeping": 6459,
      "Ġentirely": 6460,
      "Thangjing": 6461,
      "Ġsilent": 6462,
      "ĠBachelor": 6463,
      "ĠRenoir": 6464,
      "Ġarranged": 6465,
      "Ġoccasions": 6466,
      "ĠÅĮ": 6467,
      "ĠDesande": 6468,
      "ĠJonoubi": 6469,
      "zhong": 6470,
      "ĠMasters": 6471,
      "ĠBoris": 6472,
      "Ġsuffered": 6473,
      "Ġhigher": 6474,
      "Ġsexual": 6475,
      "ĠTunis": 6476,
      "Ġgrounds": 6477,
      "ĠChicago": 6478,
      "ĠChicoutimi": 6479,
      "Ġtributary": 6480,
      "Ġinspired": 6481,
      "ĠGarrett": 6482,
      "Ġimproved": 6483,
      "ographer": 6484,
      "Ġsummoned": 6485,
      "ÄįeviÄĩ": 6486,
      "Ġpunish": 6487,
      "Ġthousands": 6488,
      "Ġetc": 6489,
      "Ġdetermin": 6490,
      "ĠStanley": 6491,
      "ĠUniversiade": 6492,
      "Ġconsultant": 6493,
      "Å«miÅĨ": 6494,
      "Ġwooden": 6495,
      "ĠPennsylvan": 6496,
      "Ġassignments": 6497,
      "Extract": 6498,
      "Ġdiplomatic": 6499,
      "ĠMakee": 6500,
      "Ġrisk": 6501,
      "Ġattempts": 6502,
      "ĠCommissar": 6503,
      "ĠTehran": 6504,
      "respond": 6505,
      "Ġadopted": 6506,
      "Ġpreceding": 6507,
      "ĠEngineering": 6508,
      "ĠHistoric": 6509,
      "Ebuthou": 6510,
      "Ġcouple": 6511,
      "Ġmaximum": 6512,
      "ĠIBM": 6513,
      "ĠKrÅ«miÅĨ": 6514,
      "Ġuniversities": 6515,
      "ĠAnthony": 6516,
      "Ġdismiss": 6517,
      "ĠCarlos": 6518,
      "Ġpicture": 6519,
      "ĠAlder": 6520,
      "Ġnarrative": 6521,
      "ĠEconom": 6522,
      "ĠKÃ©nogamichiche": 6523,
      "×ķ×": 6524,
      "Ġhydro": 6525,
      "ĠHESTIM": 6526,
      "ĠDubai": 6527,
      "Ġathlete": 6528,
      "elligence": 6529,
      "forcement": 6530,
      "ĠCommonwealth": 6531,
      "American": 6532,
      "PageExtract": 6533,
      "Ġbantamweight": 6534,
      "ĠTennessee": 6535,
      "Ġhttp": 6536,
      "ĠBristol": 6537,
      "ĠFriday": 6538,
      "ĠNashville": 6539,
      "epSubPageExtract": 6540,
      "ĠYazidi": 6541,
      "ĠDeborah": 6542,
      "ĠSchommers": 6543,
      "ĠPennsylvania": 6544,
      "ĠKrÅ«miÅĨÅ¡": 6545,
      "epSubPageExtractor": 6546,
      "\"|": 6547,
      "09": 6548,
      "100": 6549,
      "35": 6550,
      "45": 6551,
      "500": 6552,
      "90": 6553,
      "AT": 6554,
      "Con": 6555,
      "DT": 6556,
      "EP": 6557,
      "ES": 6558,
      "La": 6559,
      "Lloyd": 6560,
      "No": 6561,
      "OM": 6562,
      "Pass": 6563,
      "Que": 6564,
      "VF": 6565,
      "aid": 6566,
      "bre": 6567,
      "bra": 6568,
      "bast": 6569,
      "bank": 6570,
      "care": 6571,
      "eo": 6572,
      "eer": 6573,
      "eor": 6574,
      "fit": 6575,
      "fort": 6576,
      "foot": 6577,
      "hur": 6578,
      "ients": 6579,
      "ienced": 6580,
      "jer": 6581,
      "jeno": 6582,
      "km": 6583,
      "kott": 6584,
      "lies": 6585,
      "lins": 6586,
      "linder": 6587,
      "noon": 6588,
      "ois": 6589,
      "rum": 6590,
      "rast": 6591,
      "rical": 6592,
      "rimin": 6593,
      "sor": 6594,
      "tty": 6595,
      "uro": 6596,
      "uzz": 6597,
      "vine": 6598,
      "xin": 6599,
      "Ã§": 6600,
      "Ã´": 6601,
      "ÑĤ": 6602,
      "×Ļ": 6603,
      "ĪĴ": 6604,
      "Ġtort": 6605,
      "Ġtear": 6606,
      "Ġtied": 6607,
      "Ġtree": 6608,
      "Ġtakes": 6609,
      "Ġtouch": 6610,
      "Ġtemper": 6611,
      "Ġaud": 6612,
      "ination": 6613,
      "inct": 6614,
      "Ġtheater": 6615,
      "orus": 6616,
      "eni": 6617,
      "Ġworth": 6618,
      "Ġwestern": 6619,
      "atur": 6620,
      "atio": 6621,
      "Ġsal": 6622,
      "Ġsay": 6623,
      "Ġsect": 6624,
      "Ġsust": 6625,
      "Ġsave": 6626,
      "Ġsearch": 6627,
      "Ġsailing": 6628,
      "ishes": 6629,
      "rec": 6630,
      "aro": 6631,
      "alg": 6632,
      "alam": 6633,
      "Ġinters": 6634,
      "Ġinform": 6635,
      "itants": 6636,
      "Ġfict": 6637,
      "Ġfake": 6638,
      "Ġfix": 6639,
      "Ġfavor": 6640,
      "asa": 6641,
      "asters": 6642,
      "asium": 6643,
      "Ġcy": 6644,
      "Ġcard": 6645,
      "Ġcust": 6646,
      "Ġcold": 6647,
      "Ġcann": 6648,
      "Ġcities": 6649,
      "Ġcash": 6650,
      "Ġcaught": 6651,
      "Ġcode": 6652,
      "Ġcounter": 6653,
      "Ġbal": 6654,
      "Ġbill": 6655,
      "icy": 6656,
      "icit": 6657,
      "Ġple": 6658,
      "Ġpages": 6659,
      "ĠSA": 6660,
      "ĠSi": 6661,
      "ĠSn": 6662,
      "ĠSri": 6663,
      "ĠSult": 6664,
      "ĠSix": 6665,
      "ĠSett": 6666,
      "Ġtot": 6667,
      "omor": 6668,
      "Ġmall": 6669,
      "Ġmust": 6670,
      "Ġmale": 6671,
      "Ġmech": 6672,
      "ĠTy": 6673,
      "ĠTin": 6674,
      "ĠTad": 6675,
      "ĠTrop": 6676,
      "ĠTroy": 6677,
      "ĠAqu": 6678,
      "Ġdress": 6679,
      "Ġdimens": 6680,
      "ĠCall": 6681,
      "ĠCell": 6682,
      "ĠCric": 6683,
      "ĠChile": 6684,
      "Ġhy": 6685,
      "Ġhired": 6686,
      "iland": 6687,
      "ilies": 6688,
      "ilio": 6689,
      "ĠMP": 6690,
      "ĠMer": 6691,
      "ĠMaj": 6692,
      "ĠMÃ¡": 6693,
      "ĠMaur": 6694,
      "Ġrear": 6695,
      "Ġrestr": 6696,
      "Ġreform": 6697,
      "Ġreality": 6698,
      "oln": 6699,
      "olved": 6700,
      "stan": 6701,
      "elly": 6702,
      "elve": 6703,
      "elsh": 6704,
      "elco": 6705,
      "ĠIf": 6706,
      "ĠPA": 6707,
      "ĠPin": 6708,
      "ĠPac": 6709,
      "ĠProm": 6710,
      "ĠPere": 6711,
      "ĠPash": 6712,
      "ĠPoz": 6713,
      "ĠPST": 6714,
      "acc": 6715,
      "acement": 6716,
      "iva": 6717,
      "ivas": 6718,
      "ivated": 6719,
      "Ġlay": 6720,
      "Ġlab": 6721,
      "Ġloss": 6722,
      "Ġlakes": 6723,
      "ecrated": 6724,
      "ĠThen": 6725,
      "iring": 6726,
      "ĠBak": 6727,
      "ĠBost": 6728,
      "ĠBah": 6729,
      "ĠBÃ¼": 6730,
      "ĠDet": 6731,
      "Ġnative": 6732,
      "Ġthin": 6733,
      "Ġthir": 6734,
      "Ġforec": 6735,
      "otal": 6736,
      "otic": 6737,
      "ĠRed": 6738,
      "ĠRac": 6739,
      "ĠRag": 6740,
      "ĠRound": 6741,
      "ĠRiche": 6742,
      "ettle": 6743,
      "ĠLey": 6744,
      "ĠLiver": 6745,
      "uting": 6746,
      "util": 6747,
      "uties": 6748,
      "using": 6749,
      "ĠFour": 6750,
      "ĠFact": 6751,
      "ĠFather": 6752,
      "ĠFisher": 6753,
      "ĠFestival": 6754,
      "ĠFaculty": 6755,
      "ĠJall": 6756,
      "ĠGard": 6757,
      "ĠGess": 6758,
      "church": 6759,
      "ĠNak": 6760,
      "ĠNations": 6761,
      "ĠNez": 6762,
      "ĠNicol": 6763,
      "Ġge": 6764,
      "istance": 6765,
      "ĠWhe": 6766,
      "ĠWake": 6767,
      "ĠWarn": 6768,
      "ĠWoman": 6769,
      "ĠWorces": 6770,
      "ĠWelsh": 6771,
      "Ġstore": 6772,
      "Ġstating": 6773,
      "Ġstanding": 6774,
      "tha": 6775,
      "owl": 6776,
      "Ġbeach": 6777,
      "ĠEP": 6778,
      "ĠEmer": 6779,
      "ĠEug": 6780,
      "ĠEvent": 6781,
      "ĠErik": 6782,
      "agues": 6783,
      "ĠOri": 6784,
      "ĠOcean": 6785,
      "Ġanom": 6786,
      "Ġanim": 6787,
      "Ġalph": 6788,
      "heric": 6789,
      "osa": 6790,
      "osaur": 6791,
      "ume": 6792,
      "este": 6793,
      "estion": 6794,
      "occ": 6795,
      "ocate": 6796,
      "ocals": 6797,
      "rak": 6798,
      "Ġconsequ": 6799,
      "udden": 6800,
      "Ġcomics": 6801,
      "âĢľ": 6802,
      "ĠHeves": 6803,
      "ĠHebrew": 6804,
      "operation": 6805,
      "oplan": 6806,
      "Ġvocals": 6807,
      "avid": 6808,
      "avia": 6809,
      "Ġproclaimed": 6810,
      "Ġru": 6811,
      "Ġracing": 6812,
      "akia": 6813,
      "ubice": 6814,
      "iah": 6815,
      "odies": 6816,
      "abet": 6817,
      "Ġchance": 6818,
      "Ġchron": 6819,
      "Ġchannel": 6820,
      "ĠChlo": 6821,
      "ĠChris": 6822,
      "oussac": 6823,
      "enders": 6824,
      "quare": 6825,
      "Ġcomplete": 6826,
      "Ġexam": 6827,
      "Ġexecut": 6828,
      "asting": 6829,
      "ounds": 6830,
      "ranjeno": 6831,
      "ugar": 6832,
      "amps": 6833,
      "ĠYuen": 6834,
      "Ġspect": 6835,
      "Ġspace": 6836,
      "Ġspeed": 6837,
      "Ġyour": 6838,
      "Ġyards": 6839,
      "ĠVen": 6840,
      "Ġunorgan": 6841,
      "ĠAround": 6842,
      "ĠArmed": 6843,
      "ĠAraru": 6844,
      "Ġwhole": 6845,
      "ikovsk": 6846,
      "izing": 6847,
      "iversary": 6848,
      "Ġresear": 6849,
      "Ġresigned": 6850,
      "Ġoffensive": 6851,
      "Ġabuse": 6852,
      "Ġshare": 6853,
      "Ġshape": 6854,
      "ĠMarie": 6855,
      "ĠMarines": 6856,
      "Ġagency": 6857,
      "perial": 6858,
      "Ġbecomes": 6859,
      "Ġjuven": 6860,
      "Ġcontained": 6861,
      "Ġcontested": 6862,
      "Ġcontemporary": 6863,
      "Ġscoring": 6864,
      "Ġrecru": 6865,
      "Ġweight": 6866,
      "ĠParagu": 6867,
      "Ġsecret": 6868,
      "brini": 6869,
      "Ġ52": 6870,
      "Ġ500": 6871,
      "ropshire": 6872,
      "urning": 6873,
      "Ġfinancial": 6874,
      "Ġregime": 6875,
      "Ġ1954": 6876,
      "ĠEnvironment": 6877,
      "Ġcolleg": 6878,
      "ĠCollins": 6879,
      "exp": 6880,
      "ĠZag": 6881,
      "ĠZomor": 6882,
      "ooker": 6883,
      "Ġenjoy": 6884,
      "ĠJane": 6885,
      "Ġprem": 6886,
      "ĠCommander": 6887,
      "Ġimage": 6888,
      "Ġimpr": 6889,
      "196": 6890,
      "ĠIndepend": 6891,
      "Ġunderst": 6892,
      "Ġunderstanding": 6893,
      "atherweight": 6894,
      "Ġbuy": 6895,
      "ĠSport": 6896,
      "ajun": 6897,
      "ĠShropshire": 6898,
      "ĠProton": 6899,
      "Ġ1931": 6900,
      "Ġ1933": 6901,
      "Ġassembly": 6902,
      "ĠSyl": 6903,
      "ĠForm": 6904,
      "Ġindirect": 6905,
      "Ġindicated": 6906,
      "Ġfamilies": 6907,
      "Ġnumbered": 6908,
      "Ġsomeone": 6909,
      "Ġsupplied": 6910,
      "efan": 6911,
      "Ġconsecutive": 6912,
      "Ġartwork": 6913,
      "Ġserial": 6914,
      "ĠConn": 6915,
      "ĠConvention": 6916,
      "Ġinterested": 6917,
      "Ġdozen": 6918,
      "Ġ70": 6919,
      "Ġrepresentatives": 6920,
      "cylinder": 6921,
      "Ġedge": 6922,
      "Ġattackers": 6923,
      "Ġrain": 6924,
      "ĠRegina": 6925,
      "ĠSaud": 6926,
      "Ġ1914": 6927,
      "shmi": 6928,
      "Ġexpected": 6929,
      "Ġamb": 6930,
      "Ġamount": 6931,
      "Ġtrust": 6932,
      "Ġstarts": 6933,
      "ertation": 6934,
      "Ġconfront": 6935,
      "Ġ150": 6936,
      "Ġdeveloping": 6937,
      "Ġminute": 6938,
      "ĠGuang": 6939,
      "ĠDemocrats": 6940,
      "Ġstrugg": 6941,
      "Ġdescribing": 6942,
      "Ġterms": 6943,
      "Ġkilling": 6944,
      "Ġrefers": 6945,
      "uka": 6946,
      "Ġappoint": 6947,
      "Ġlasted": 6948,
      "ĠSebast": 6949,
      "Ġdiscour": 6950,
      "Ġengaged": 6951,
      "Ġsurvey": 6952,
      "Ġresulting": 6953,
      "Ġincumbent": 6954,
      "Ġcrime": 6955,
      "ĠComputer": 6956,
      "ĠÐ»": 6957,
      "ĠÐ¿": 6958,
      "Ġposts": 6959,
      "ething": 6960,
      "ĠChristchurch": 6961,
      "tienne": 6962,
      "Ġclassic": 6963,
      "ĠPeace": 6964,
      "ĠPeters": 6965,
      "rington": 6966,
      "rolled": 6967,
      "Ġexperienced": 6968,
      "Ġmerges": 6969,
      "Ġhandling": 6970,
      "Ġdisturb": 6971,
      "ĠIrvine": 6972,
      "ĠÂ°": 6973,
      "ĠMusik": 6974,
      "Ġbrothers": 6975,
      "Ġmarked": 6976,
      "ĠAgu": 6977,
      "ĠAgency": 6978,
      "Ġpersonnel": 6979,
      "Ġelder": 6980,
      "Ġbusinessman": 6981,
      "Ġpoems": 6982,
      "Ġdaughters": 6983,
      "Ġvoter": 6984,
      "Ã¼n": 6985,
      "sycho": 6986,
      "ĠHarold": 6987,
      "ĠCourtney": 6988,
      "Ġvisitor": 6989,
      "Ġcauses": 6990,
      "Ġlargely": 6991,
      "ĠDavis": 6992,
      "Ġbehalf": 6993,
      "Ġproperties": 6994,
      "Ġfocused": 6995,
      "aboratory": 6996,
      "onymous": 6997,
      "mingham": 6998,
      "Ġcapture": 6999,
      "ĠBatelco": 7000,
      "ĠGraz": 7001,
      "Ġevening": 7002,
      "Ġconsider": 7003,
      "Ġbattle": 7004,
      "ĠFlinders": 7005,
      "Ġsworn": 7006,
      "ĠHolmes": 7007,
      "ĠWeek": 7008,
      "Ġsituated": 7009,
      "Ġballoons": 7010,
      "Ġpatron": 7011,
      "Ġreading": 7012,
      "Ġaffected": 7013,
      "Ġeveryone": 7014,
      "Ġcontrolled": 7015,
      "ouda": 7016,
      "ĠPrix": 7017,
      "ĠPrior": 7018,
      "Ġexhibitions": 7019,
      "Ġportr": 7020,
      "ĠDaniel": 7021,
      "Ġsafety": 7022,
      "ĠFilmfare": 7023,
      "Ġteachers": 7024,
      "Ġexplosives": 7025,
      "going": 7026,
      "waren": 7027,
      "ĠPatric": 7028,
      "Ġpolicies": 7029,
      "Ġavoid": 7030,
      "Ġcorrespond": 7031,
      "ĠTammy": 7032,
      "Ġnewspapers": 7033,
      "ĠAdministrator": 7034,
      "Ġwinner": 7035,
      "Ġfeatherweight": 7036,
      "Ġglass": 7037,
      "Ġglob": 7038,
      "rikes": 7039,
      "avalry": 7040,
      "Ġassociate": 7041,
      "professional": 7042,
      "Ġhomeless": 7043,
      "Ġplanning": 7044,
      "Ġtype": 7045,
      "Ġshift": 7046,
      "ĠHistory": 7047,
      "ĠRomanian": 7048,
      "Ġallegations": 7049,
      "Ġregarded": 7050,
      "Ġregarding": 7051,
      "Ġpainting": 7052,
      "Ġmissing": 7053,
      "ĠToronto": 7054,
      "ĠMorey": 7055,
      "Ġhealthcare": 7056,
      "Ġsubmarines": 7057,
      "Ġoccasionally": 7058,
      "Ġjournalist": 7059,
      "Ġmethods": 7060,
      "Ġstandard": 7061,
      "Ġpossible": 7062,
      "Ġemerged": 7063,
      "Ġensure": 7064,
      "Ġoverseas": 7065,
      "ĠDargan": 7066,
      "ĠLabour": 7067,
      "ĠKiram": 7068,
      "Ġdisplaced": 7069,
      "Ġblocked": 7070,
      "Ġpurp": 7071,
      "ĠSoutheast": 7072,
      "ĠFederal": 7073,
      "ĠEvans": 7074,
      "ĠVoiland": 7075,
      "Ġdissertation": 7076,
      "bsite": 7077,
      "Ġachievement": 7078,
      "ĠAyres": 7079,
      "ĠBurlington": 7080,
      "ĠDuke": 7081,
      "Ġgirls": 7082,
      "ĠPhilippine": 7083,
      "ASA": 7084,
      "zzly": 7085,
      "ĠâĪĴ": 7086,
      "Ġcorner": 7087,
      "Ġperforming": 7088,
      "ĠBelgian": 7089,
      "mnasium": 7090,
      "Ġwalked": 7091,
      "Ġhorse": 7092,
      "Ġlogistics": 7093,
      "Ġexample": 7094,
      "Ġargued": 7095,
      "ĠZhang": 7096,
      "Ġencounter": 7097,
      "ĠSafed": 7098,
      "Ġcalm": 7099,
      "ĠHolding": 7100,
      "ĠDunmore": 7101,
      "chaikovsk": 7102,
      "ÅĦski": 7103,
      "edding": 7104,
      "Ġpieces": 7105,
      "ĠChikk": 7106,
      "ĠChapter": 7107,
      "Ġimmigr": 7108,
      "ĠHerefordshire": 7109,
      "ĠGrizzly": 7110,
      "Å¡enje": 7111,
      "Ġnegoti": 7112,
      "isiÃ³n": 7113,
      "ĠTangany": 7114,
      "ĠBirmingham": 7115,
      "ĠFriedrich": 7116,
      "ĠMarshall": 7117,
      "ĠColombian": 7118,
      "ĠDouglas": 7119,
      "Ġinhabitants": 7120,
      "ĠIlya": 7121,
      "ĠPardubice": 7122,
      "Ġdeployed": 7123,
      "ĠProblem": 7124,
      "Ġannouncement": 7125,
      "ĠEdgars": 7126,
      "ĠStaffordshire": 7127,
      "Ġwithdraw": 7128,
      "Bandiera": 7129,
      "Ġwearing": 7130,
      "Ġinaugural": 7131,
      "ĠBecause": 7132,
      "ĠBensouda": 7133,
      "Ġnomine": 7134,
      "ĠLoyalist": 7135,
      "ĠJournal": 7136,
      "ĠJaffa": 7137,
      "ĠVijaya": 7138,
      "ĠZabranjeno": 7139,
      "ĠElizabeth": 7140,
      "Ġinfluenced": 7141,
      "zhongjiang": 7142,
      "hurst": 7143,
      "kottur": 7144,
      "Ġfictional": 7145,
      "ĠTadoussac": 7146,
      "ĠCricket": 7147,
      "ĠBoston": 7148,
      "ĠRichey": 7149,
      "ĠJallianw": 7150,
      "ĠNezha": 7151,
      "ĠWorcestershire": 7152,
      "Ġalphabet": 7153,
      "Ġunorganized": 7154,
      "ĠAraruama": 7155,
      "ĠParaguay": 7156,
      "chaikovsky": 7157,
      "ĠChikkodi": 7158,
      "%),": 7159,
      "'m": 7160,
      "03": 7161,
      "29": 7162,
      "2000": 7163,
      "34": 7164,
      "38": 7165,
      "52": 7166,
      "82": 7167,
      "89": 7168,
      "AF": 7169,
      "As": 7170,
      "AÃ©": 7171,
      "DS": 7172,
      "Ger": 7173,
      "Id": 7174,
      "LL": 7175,
      "Ms": 7176,
      "PLA": 7177,
      "Psycho": 7178,
      "Ren": 7179,
      "Shi": 7180,
      "TC": 7181,
      "UN": 7182,
      "aq": 7183,
      "after": 7184,
      "aise": 7185,
      "bo": 7186,
      "bell": 7187,
      "bler": 7188,
      "bee": 7189,
      "do": 7190,
      "down": 7191,
      "dale": 7192,
      "eil": 7193,
      "east": 7194,
      "eased": 7195,
      "fire": 7196,
      "film": 7197,
      "father": 7198,
      "fiel": 7199,
      "feld": 7200,
      "gow": 7201,
      "hop": 7202,
      "horn": 7203,
      "haw": 7204,
      "haching": 7205,
      "iya": 7206,
      "jÃ¶": 7207,
      "kar": 7208,
      "lad": 7209,
      "late": 7210,
      "lican": 7211,
      "mere": 7212,
      "member": 7213,
      "ners": 7214,
      "north": 7215,
      "pret": 7216,
      "polit": 7217,
      "pool": 7218,
      "since": 7219,
      "selling": 7220,
      "tese": 7221,
      "uent": 7222,
      "uff": 7223,
      "uential": 7224,
      "with": 7225,
      "wear": 7226,
      "while": 7227,
      "waukee": 7228,
      "yok": 7229,
      "yev": 7230,
      "zi": 7231,
      "zu": 7232,
      "zim": 7233,
      "zens": 7234,
      "Å¼": 7235,
      "Ñģ": 7236,
      "Ġ)": 7237,
      "Ġu": 7238,
      "Ġir": 7239,
      "Ġties": 7240,
      "Ġtrou": 7241,
      "Ġtail": 7242,
      "Ġtank": 7243,
      "Ġtier": 7244,
      "hess": 7245,
      "Ġaer": 7246,
      "Ġauth": 7247,
      "Ġaired": 7248,
      "Ġawaren": 7249,
      "inas": 7250,
      "inet": 7251,
      "onents": 7252,
      "eded": 7253,
      "edge": 7254,
      "orms": 7255,
      "enidae": 7256,
      "Ġwel": 7257,
      "Ġwick": 7258,
      "Ġwords": 7259,
      "Ġwitness": 7260,
      "Ġwedding": 7261,
      "anal": 7262,
      "anpur": 7263,
      "ataka": 7264,
      "Ġsource": 7265,
      "Ġsays": 7266,
      "Ġselling": 7267,
      "Ġsize": 7268,
      "Ġopin": 7269,
      "isf": 7270,
      "reb": 7271,
      "ref": 7272,
      "reater": 7273,
      "arity": 7274,
      "arant": 7275,
      "aler": 7276,
      "Ġinquiry": 7277,
      "itals": 7278,
      "Ġfan": 7279,
      "Ġfit": 7280,
      "Ġfest": 7281,
      "Ġflower": 7282,
      "ĠfÃ¼r": 7283,
      "asy": 7284,
      "asion": 7285,
      "ashed": 7286,
      "asme": 7287,
      "asmine": 7288,
      "asgow": 7289,
      "Ġcards": 7290,
      "Ġcartel": 7291,
      "Ġclean": 7292,
      "esch": 7293,
      "Ġbid": 7294,
      "Ġbig": 7295,
      "Ġbell": 7296,
      "Ġboys": 7297,
      "Ġbranch": 7298,
      "Ġbigg": 7299,
      "Ġbodies": 7300,
      "ichi": 7301,
      "icient": 7302,
      "Ġpap": 7303,
      "Ġpick": 7304,
      "ĠSou": 7305,
      "ĠSav": 7306,
      "ĠSex": 7307,
      "ĠSoci": 7308,
      "ĠSev": 7309,
      "ĠSzent": 7310,
      "Ġtoll": 7311,
      "Ġmoth": 7312,
      "Ġmales": 7313,
      "left": 7314,
      "league": 7315,
      "ĠTre": 7316,
      "ĠTim": 7317,
      "ĠTob": 7318,
      "ĠTchaikovsky": 7319,
      "ĠAstronom": 7320,
      "Ġdrop": 7321,
      "Ġdomin": 7322,
      "Ġdiving": 7323,
      "ĠCB": 7324,
      "ĠCorn": 7325,
      "ĠCelebr": 7326,
      "ĠCSX": 7327,
      "ĠCreek": 7328,
      "ĠCajun": 7329,
      "Ġhour": 7330,
      "Ġhair": 7331,
      "illeg": 7332,
      "amal": 7333,
      "amah": 7334,
      "ĠMr": 7335,
      "ĠMes": 7336,
      "ĠMur": 7337,
      "ĠMest": 7338,
      "ĠMang": 7339,
      "ĠMund": 7340,
      "ĠMach": 7341,
      "ĠMikh": 7342,
      "olis": 7343,
      "olph": 7344,
      "stra": 7345,
      "stein": 7346,
      "ĠHel": 7347,
      "ĠHad": 7348,
      "ĠHans": 7349,
      "ĠHana": 7350,
      "ĠHaving": 7351,
      "rost": 7352,
      "adt": 7353,
      "adal": 7354,
      "ĠPed": 7355,
      "ĠPres": 7356,
      "ĠPook": 7357,
      "ĠPoint": 7358,
      "acent": 7359,
      "acional": 7360,
      "acier": 7361,
      "ivity": 7362,
      "Ġlor": 7363,
      "Ġonline": 7364,
      "emeter": 7365,
      "embrini": 7366,
      "ĠBi": 7367,
      "ĠBeng": 7368,
      "ĠBlo": 7369,
      "ĠBox": 7370,
      "ĠBasketball": 7371,
      "ĠBush": 7372,
      "ĠBilly": 7373,
      "ĠDown": 7374,
      "ĠDann": 7375,
      "ĠDaly": 7376,
      "ĠDaugh": 7377,
      "ĠDyer": 7378,
      "Ġisol": 7379,
      "otis": 7380,
      "otten": 7381,
      "iders": 7382,
      "idden": 7383,
      "ĠRy": 7384,
      "ĠRund": 7385,
      "ĠRob": 7386,
      "ĠRuth": 7387,
      "ĠRoth": 7388,
      "etr": 7389,
      "ĠLt": 7390,
      "ĠLas": 7391,
      "ĠLions": 7392,
      "ĠLaz": 7393,
      "ĠLiving": 7394,
      "ĠLinc": 7395,
      "ĠLotan": 7396,
      "igi": 7397,
      "ayer": 7398,
      "ayat": 7399,
      "ayalam": 7400,
      "uto": 7401,
      "uted": 7402,
      "utor": 7403,
      "ĠFood": 7404,
      "ĠFier": 7405,
      "ĠFurther": 7406,
      "ĠFront": 7407,
      "ĠFuture": 7408,
      "ĠJack": 7409,
      "ĠJudge": 7410,
      "ĠJDT": 7411,
      "ĠGet": 7412,
      "ĠGab": 7413,
      "ĠGilm": 7414,
      "ĠGron": 7415,
      "ĠGreg": 7416,
      "chayat": 7417,
      "ersh": 7418,
      "ĠNum": 7419,
      "ĠNight": 7420,
      "ĠNeg": 7421,
      "ĠNob": 7422,
      "ĠNev": 7423,
      "Ġ(-": 7424,
      "Ġ(),": 7425,
      "Ġgone": 7426,
      "Ġgiving": 7427,
      "Ġgross": 7428,
      "Ġgovernor": 7429,
      "ĠWW": 7430,
      "ĠWater": 7431,
      "andar": 7432,
      "andhi": 7433,
      "Ġstri": 7434,
      "Ġstood": 7435,
      "Ġstadium": 7436,
      "Ġstorm": 7437,
      "Ġbeam": 7438,
      "berhaching": 7439,
      "ĠEle": 7440,
      "agan": 7441,
      "ĠOk": 7442,
      "ĠOric": 7443,
      "osis": 7444,
      "riz": 7445,
      "verted": 7446,
      "ulum": 7447,
      "ulate": 7448,
      "ocol": 7449,
      "raph": 7450,
      "ĠUb": 7451,
      "ĠUs": 7452,
      "ĠUpper": 7453,
      "ĠUVF": 7454,
      "ĠKarn": 7455,
      "ĠKBO": 7456,
      "ĠKovo": 7457,
      "ĠKMs": 7458,
      "ĠInt": 7459,
      "Ġcomment": 7460,
      "oph": 7461,
      "Ġvess": 7462,
      "avior": 7463,
      "Ġpros": 7464,
      "Ġrue": 7465,
      "Ġrural": 7466,
      "Ġrule": 7467,
      "aks": 7468,
      "illes": 7469,
      "illing": 7470,
      "iable": 7471,
      "oded": 7472,
      "abl": 7473,
      "abric": 7474,
      "abled": 7475,
      "ablish": 7476,
      "Ġchall": 7477,
      "Ġchant": 7478,
      "Ġchoral": 7479,
      "ĠStew": 7480,
      "erevan": 7481,
      "Ġseized": 7482,
      "Ġsevent": 7483,
      "Ġseems": 7484,
      "overs": 7485,
      "endent": 7486,
      "elli": 7487,
      "aph": 7488,
      "apted": 7489,
      "Ġcompil": 7490,
      "Ġcompound": 7491,
      "Ġexoplan": 7492,
      "clair": 7493,
      "ĠUntil": 7494,
      "rance": 7495,
      "ĠYasme": 7496,
      "ĠYerevan": 7497,
      "uchess": 7498,
      "Ġsplit": 7499,
      "angel": 7500,
      "ĠVer": 7501,
      "ĠVinc": 7502,
      "ĠViet": 7503,
      "Ġunspec": 7504,
      "assador": 7505,
      "ĠShetty": 7506,
      "ikarim": 7507,
      "sex": 7508,
      "Ġnotice": 7509,
      "ĠThree": 7510,
      "ĠThangjing": 7511,
      "Ġ1837": 7512,
      "2018": 7513,
      "Ġresources": 7514,
      "Ġresidence": 7515,
      "Ġoffering": 7516,
      "Ġabolished": 7517,
      "Ġshown": 7518,
      "ĠAlan": 7519,
      "ĠAlbert": 7520,
      "Ġadmitted": 7521,
      "Ġadmiral": 7522,
      "ĠMarine": 7523,
      "Ġsuit": 7524,
      "awa": 7525,
      "sson": 7526,
      "Ġafternoon": 7527,
      "overy": 7528,
      "Ġattorney": 7529,
      "Ġattracted": 7530,
      "terns": 7531,
      "ensen": 7532,
      "Ġdisapp": 7533,
      "Ġrecip": 7534,
      "Ġrecomm": 7535,
      "ooting": 7536,
      "Ġweather": 7537,
      "Ġwealth": 7538,
      "bridge": 7539,
      "ĠSena": 7540,
      "Ġoverl": 7541,
      "Ġ53": 7542,
      "mph": 7543,
      "ĠEner": 7544,
      "Ġ44": 7545,
      "ĠCollection": 7546,
      "ĠColonel": 7547,
      "Ġ1972": 7548,
      "Ã©e": 7549,
      "Ã©bert": 7550,
      "action": 7551,
      "place": 7552,
      "Ġimag": 7553,
      "Ġallies": 7554,
      "spe": 7555,
      "Ġcompeting": 7556,
      "Ġfounders": 7557,
      "anna": 7558,
      "annon": 7559,
      "Ġpermitted": 7560,
      "ĠSha": 7561,
      "Ġ1961": 7562,
      "Ġassumed": 7563,
      "Ġ65": 7564,
      "ĠSyn": 7565,
      "ĠFormer": 7566,
      "Ġentitled": 7567,
      "chen": 7568,
      "ption": 7569,
      "ansion": 7570,
      "Ġsupplement": 7571,
      "Ġ175": 7572,
      "ledge": 7573,
      "Ġreceive": 7574,
      "Ã¡nd": 7575,
      "Ã¡il": 7576,
      "Ġsurpr": 7577,
      "Ġmusicologist": 7578,
      "ĠAugustana": 7579,
      "othy": 7580,
      "othing": 7581,
      "Ġqual": 7582,
      "ĠClin": 7583,
      "Ġleads": 7584,
      "Ġsubs": 7585,
      "Ġmarriage": 7586,
      "ĠConstitut": 7587,
      "Ġinterior": 7588,
      "Ġintercepted": 7589,
      "Ġintervention": 7590,
      "Ġdoing": 7591,
      "Ġdozens": 7592,
      "Ġtherefore": 7593,
      "Ġcarrying": 7594,
      "ĠPolicy": 7595,
      "icks": 7596,
      "Ġrelatives": 7597,
      "ĠScient": 7598,
      "Ġestate": 7599,
      "Ġestuary": 7600,
      "ĠAustin": 7601,
      "ĠAustria": 7602,
      "Ġeditions": 7603,
      "Ġproved": 7604,
      "ĠPlaces": 7605,
      "ĠReport": 7606,
      "ainting": 7607,
      "Ġ125": 7608,
      "enny": 7609,
      "Ġmeters": 7610,
      "Ġmedium": 7611,
      "ĠFranz": 7612,
      "argo": 7613,
      "arged": 7614,
      "Ġremove": 7615,
      "Ġtitles": 7616,
      "Ġacres": 7617,
      "ottingham": 7618,
      "Ġflo": 7619,
      "istered": 7620,
      "Ġ1910": 7621,
      "Ġ1915": 7622,
      "Ġexpansion": 7623,
      "Ġtrue": 7624,
      "Ġtrigg": 7625,
      "Ġcourts": 7626,
      "Ġ134": 7627,
      "Ġtrained": 7628,
      "Ġtrailer": 7629,
      "Ġoperation": 7630,
      "Ġvisual": 7631,
      "Ġministry": 7632,
      "ospitals": 7633,
      "Ġorigins": 7634,
      "asks": 7635,
      "Ġdriven": 7636,
      "Ġcancer": 7637,
      "Ġoccur": 7638,
      "insky": 7639,
      "Ġgoes": 7640,
      "Ġgoals": 7641,
      "Ġdistricts": 7642,
      "Ġprotect": 7643,
      "Ġactivism": 7644,
      "Ġsmugg": 7645,
      "Ġ1901": 7646,
      "Ġ1909": 7647,
      "Ġprogrammes": 7648,
      "umble": 7649,
      "irds": 7650,
      "Ġexploded": 7651,
      "helm": 7652,
      "ĠIndians": 7653,
      "comp": 7654,
      "ĠTrude": 7655,
      "ĠSee": 7656,
      "ĠSeas": 7657,
      "Ġsurviving": 7658,
      "Ġresulted": 7659,
      "Ġlonger": 7660,
      "Ġlanded": 7661,
      "Ġlandsc": 7662,
      "ĠExper": 7663,
      "Ġfaculty": 7664,
      "Ġclaiming": 7665,
      "Ġmanaging": 7666,
      "Ġbegun": 7667,
      "Ġhighlight": 7668,
      "yself": 7669,
      "Ġlawyer": 7670,
      "Ġhelping": 7671,
      "Ġclasses": 7672,
      "Ġ1880": 7673,
      "Ġ1883": 7674,
      "Ġ1886": 7675,
      "ĠBeard": 7676,
      "afayette": 7677,
      "urday": 7678,
      "incet": 7679,
      "ĠSchÃ¶n": 7680,
      "ĠMaltese": 7681,
      "Ġparticipants": 7682,
      "ĠAgricultural": 7683,
      "Ġyounger": 7684,
      "Ġpersonality": 7685,
      "Ġfactors": 7686,
      "Ġchef": 7687,
      "Ġcheese": 7688,
      "Ġmyth": 7689,
      "ĠHarless": 7690,
      "ception": 7691,
      "Ġships": 7692,
      "ĠMedal": 7693,
      "Ġnovels": 7694,
      "Ġreplacing": 7695,
      "Ġcritics": 7696,
      "ĠGlasgow": 7697,
      "ĠWilhelm": 7698,
      "Ġdetail": 7699,
      "Ġdetective": 7700,
      "Ġallows": 7701,
      "ÃŃn": 7702,
      "Ġbombs": 7703,
      "Ġhistoric": 7704,
      "ĠDrug": 7705,
      "ĠReview": 7706,
      "ĠGrainger": 7707,
      "Ġeconomy": 7708,
      "Ġsignal": 7709,
      "ĠFlag": 7710,
      "ĠMadjer": 7711,
      "ĠOffic": 7712,
      "ĠXI": 7713,
      "Ġpatterns": 7714,
      "uteau": 7715,
      "Ġfunction": 7716,
      "Ġwinds": 7717,
      "Ġcastle": 7718,
      "Ġdemonstrators": 7719,
      "Ġcandidates": 7720,
      "Ġillness": 7721,
      "ĠPriy": 7722,
      "ĠSweden": 7723,
      "Ġfemin": 7724,
      "ĠDancer": 7725,
      "Ġprimarily": 7726,
      "Ġiniti": 7727,
      "Ġinfluence": 7728,
      "Ġdoub": 7729,
      "Ġdoubles": 7730,
      "ĠSuperior": 7731,
      "Ġskills": 7732,
      "ĠJacques": 7733,
      "ĠGray": 7734,
      "Ġdoctoral": 7735,
      "Ġexplosions": 7736,
      "ĠMeudon": 7737,
      "ĠPatri": 7738,
      "Ġplanet": 7739,
      "Ġconfluence": 7740,
      "Ġbelieve": 7741,
      "Ġepisode": 7742,
      "ĠTamil": 7743,
      "ĠApost": 7744,
      "ĠCardinal": 7745,
      "Ġvalue": 7746,
      "Ġcontribution": 7747,
      "Ġstrongest": 7748,
      "Ġautomatic": 7749,
      "Ġtorpedoed": 7750,
      "Ġtorpedoes": 7751,
      "Ġbasis": 7752,
      "Ġdivisional": 7753,
      "Ġspeech": 7754,
      "Ġ1857": 7755,
      "Ġsquare": 7756,
      "ĠBrig": 7757,
      "Ġ1803": 7758,
      "Ġenlarged": 7759,
      "Ã¡ny": 7760,
      "Ġdiscussed": 7761,
      "ollah": 7762,
      "ĠKeith": 7763,
      "Ġlectures": 7764,
      "Ġdesignated": 7765,
      "Ġaccessible": 7766,
      "Ġsuccessfully": 7767,
      "Ġtraditional": 7768,
      "Ġsoundtrack": 7769,
      "ĠMosque": 7770,
      "ĠHills": 7771,
      "ĠEstefan": 7772,
      "Ġconvicted": 7773,
      "ĠKarol": 7774,
      "Ġruling": 7775,
      "Ġsubjects": 7776,
      "ĠContin": 7777,
      "ĠAbdikarim": 7778,
      "Ġflows": 7779,
      "ĠAlexander": 7780,
      "Ġabsence": 7781,
      "ĠZygaenidae": 7782,
      "Ġpossess": 7783,
      "III": 7784,
      "zhou": 7785,
      "Ġsuspected": 7786,
      "ĠRubber": 7787,
      "ĠRapids": 7788,
      "ĠKirch": 7789,
      "Ġseeking": 7790,
      "ĠClaude": 7791,
      "Ġfreshwater": 7792,
      "Ġmemory": 7793,
      "ĠDorrington": 7794,
      "Ġevacuation": 7795,
      "ĠValen": 7796,
      "Ġknowledge": 7797,
      "Ġinterviews": 7798,
      "Ġincreasing": 7799,
      "sychology": 7800,
      "Ġtargeted": 7801,
      "Ġtargeting": 7802,
      "Ġscholars": 7803,
      "Ġreasons": 7804,
      "ĠPuÅ¡enje": 7805,
      "Ġlooked": 7806,
      "ĠWindsor": 7807,
      "Ġproblem": 7808,
      "ĠPhilippines": 7809,
      "Ġillustrations": 7810,
      "ycotis": 7811,
      "ĠâĤ": 7812,
      "ĠSochi": 7813,
      "ĠSomalia": 7814,
      "Ġmaintain": 7815,
      "Ġmaintained": 7816,
      "ĠWolver": 7817,
      "Ġvacant": 7818,
      "Ġseeing": 7819,
      "Ġarmament": 7820,
      "Ġcommitted": 7821,
      "Ġimprove": 7822,
      "Ġcommunication": 7823,
      "Ġinternal": 7824,
      "Ġcorners": 7825,
      "Ġmunicipality": 7826,
      "ĠAviv": 7827,
      "Ġthousand": 7828,
      "Ġstreams": 7829,
      "ĠExpress": 7830,
      "Ġbriefly": 7831,
      "Reilly": 7832,
      "ĠGymnasium": 7833,
      "ĠWayne": 7834,
      "Ġconnected": 7835,
      "Ġcomposer": 7836,
      "Ġexamples": 7837,
      "Ġcontinuing": 7838,
      "Ġpeaceful": 7839,
      "remely": 7840,
      "ĠAreas": 7841,
      "ĠBalloon": 7842,
      "ĠBarnard": 7843,
      "ĠBarnby": 7844,
      "ĠLiiga": 7845,
      "ĠArgentine": 7846,
      "Ġcopies": 7847,
      "Ġcorps": 7848,
      "ĠMansfield": 7849,
      "Ġliberal": 7850,
      "ĠBooks": 7851,
      "Ġadjacent": 7852,
      "Ġpraised": 7853,
      "ĠSusan": 7854,
      "ĠRTE": 7855,
      "Ġheavily": 7856,
      "Ġatmosphere": 7857,
      "ĠMargaret": 7858,
      "keeper": 7859,
      "ĠGuerra": 7860,
      "Ġconstructor": 7861,
      "Ġphilosophy": 7862,
      "ĠSongs": 7863,
      "ĠBernard": 7864,
      "ĠBuckingham": 7865,
      "ĠAssociate": 7866,
      "Ġtraffick": 7867,
      "ĠMalaysia": 7868,
      "ĠBosnian": 7869,
      "Ġultimately": 7870,
      "Ġaverage": 7871,
      "Ġsomething": 7872,
      "inguished": 7873,
      "ĠLakshmi": 7874,
      "chwil": 7875,
      "Ġstabbed": 7876,
      "ĠChazan": 7877,
      "Ġquickly": 7878,
      "Ġproposal": 7879,
      "Ġfrequently": 7880,
      "founder": 7881,
      "Ġaviation": 7882,
      "Ġworst": 7883,
      "Ġfighters": 7884,
      "Ġmurdered": 7885,
      "ĠTetraclit": 7886,
      "Ġrejected": 7887,
      "ĠDmitry": 7888,
      "ĠUttar": 7889,
      "ĠInternet": 7890,
      "Ġrebellion": 7891,
      "Ġapproximately": 7892,
      "Ġpunishment": 7893,
      "Ġdetermined": 7894,
      "Connecticut": 7895,
      "Queen": 7896,
      "Ġmechan": 7897,
      "ĠTrophy": 7898,
      "Ġdimensions": 7899,
      "ĠPacific": 7900,
      "ĠPereira": 7901,
      "ĠLiverpool": 7902,
      "ĠFactory": 7903,
      "ĠEmergency": 7904,
      "Ġanomaly": 7905,
      "uddenly": 7906,
      "ĠChloÃ©": 7907,
      "ĠVenez": 7908,
      "Ġjuvenile": 7909,
      "ĠZagreb": 7910,
      "ĠZomorodi": 7911,
      "Ġimprison": 7912,
      "Ġindirectly": 7913,
      "ĠSaudis": 7914,
      "ĠSebastian": 7915,
      "Ġpurpose": 7916,
      "ĠTanganyika": 7917,
      "Ġwithdrawal": 7918,
      "Renoir": 7919,
      "fielder": 7920,
      "Ġauthors": 7921,
      "Ġawareness": 7922,
      "Ġfestivals": 7923,
      "Ġbiggest": 7924,
      "ĠCajuns": 7925,
      "ĠMikhail": 7926,
      "ĠPookkottur": 7927,
      "emetery": 7928,
      "ĠRundek": 7929,
      "ĠLincoln": 7930,
      "ĠFierro": 7931,
      "ĠGilmore": 7932,
      "ĠGroning": 7933,
      "ĠOricon": 7934,
      "ĠKarnataka": 7935,
      "ĠYasmeen": 7936,
      "ĠVincent": 7937,
      "Ġunspecified": 7938,
      "ĠTrudeau": 7939,
      "ĠSchÃ¶nberg": 7940,
      "ĠAbdikarimov": 7941,
      "04": 7942,
      "05": 7943,
      "06": 7944,
      "31": 7945,
      "47": 7946,
      "60": 7947,
      "77": 7948,
      "85": 7949,
      "92": 7950,
      "AR": 7951,
      "At": 7952,
      "And": 7953,
      "Buzz": 7954,
      "Cl": 7955,
      "Cast": 7956,
      "Comp": 7957,
      "DR": 7958,
      "David": 7959,
      "Est": 7960,
      "GC": 7961,
      "GASA": 7962,
      "HK": 7963,
      "HS": 7964,
      "He": 7965,
      "It": 7966,
      "Kar": 7967,
      "Lou": 7968,
      "Local": 7969,
      "Master": 7970,
      "National": 7971,
      "Ph": 7972,
      "Pl": 7973,
      "Pr": 7974,
      "Port": 7975,
      "Raj": 7976,
      "Se": 7977,
      "Sal": 7978,
      "TR": 7979,
      "TV": 7980,
      "TW": 7981,
      "Tok": 7982,
      "Vid": 7983,
      "aed": 7984,
      "ault": 7985,
      "author": 7986,
      "bd": 7987,
      "bol": 7988,
      "bro": 7989,
      "bie": 7990,
      "book": 7991,
      "base": 7992,
      "cing": 7993,
      "come": 7994,
      "cked": 7995,
      "da": 7996,
      "dd": 7997,
      "division": 7998,
      "eu": 7999,
      "elected": 8000,
      "fa": 8001,
      "fus": 8002,
      "fired": 8003,
      "gian": 8004,
      "gate": 8005,
      "grand": 8006,
      "hm": 8007,
      "hai": 8008,
      "kir": 8009,
      "list": 8010,
      "lai": 8011,
      "lob": 8012,
      "lieutenant": 8013,
      "liga": 8014,
      "leston": 8015,
      "mo": 8016,
      "moud": 8017,
      "mont": 8018,
      "now": 8019,
      "num": 8020,
      "nik": 8021,
      "oach": 8022,
      "oft": 8023,
      "pe": 8024,
      "pre": 8025,
      "ply": 8026,
      "person": 8027,
      "peck": 8028,
      "ration": 8029,
      "rish": 8030,
      "rage": 8031,
      "rne": 8032,
      "rera": 8033,
      "song": 8034,
      "south": 8035,
      "tures": 8036,
      "thel": 8037,
      "uz": 8038,
      "vinder": 8039,
      "wi": 8040,
      "was": 8041,
      "woman": 8042,
      "wagen": 8043,
      "yard": 8044,
      "yond": 8045,
      "zon": 8046,
      "zig": 8047,
      "Ãī": 8048,
      "Ãł": 8049,
      "ÑĢ": 8050,
      "Ñĭ": 8051,
      "Ø§": 8052,
      "Ùħ": 8053,
      "á¹": 8054,
      "Ġ*": 8055,
      "Ġ=": 8056,
      "Ġess": 8057,
      "Ġener": 8058,
      "Ġilleg": 8059,
      "Ĩer": 8060,
      "Ġton": 8061,
      "Ġtel": 8062,
      "Ġtub": 8063,
      "Ġtell": 8064,
      "Ġtry": 8065,
      "Ġtried": 8066,
      "Ġtrees": 8067,
      "Ġtrying": 8068,
      "Ġtutor": 8069,
      "Ġauction": 8070,
      "init": 8071,
      "inrich": 8072,
      "inburgh": 8073,
      "eries": 8074,
      "erto": 8075,
      "erick": 8076,
      "Ġthesis": 8077,
      "onian": 8078,
      "onial": 8079,
      "onso": 8080,
      "oney": 8081,
      "orb": 8082,
      "orters": 8083,
      "enas": 8084,
      "Ġward": 8085,
      "Ġwond": 8086,
      "Ġwins": 8087,
      "ancer": 8088,
      "atri": 8089,
      "Ġslow": 8090,
      "Ġstern": 8091,
      "isbury": 8092,
      "real": 8093,
      "reation": 8094,
      "alse": 8095,
      "Ġinher": 8096,
      "Ġinformed": 8097,
      "Ġinteg": 8098,
      "itary": 8099,
      "itors": 8100,
      "ittle": 8101,
      "Ġful": 8102,
      "Ġfra": 8103,
      "Ġfaced": 8104,
      "Ġfailing": 8105,
      "Ġfalse": 8106,
      "Ġcow": 8107,
      "Ġcoc": 8108,
      "Ġcous": 8109,
      "Ġcup": 8110,
      "Ġcoin": 8111,
      "Ġcells": 8112,
      "Ġcrown": 8113,
      "esota": 8114,
      "Ġbin": 8115,
      "Ġbit": 8116,
      "Ġbay": 8117,
      "Ġbud": 8118,
      "Ġboss": 8119,
      "ici": 8120,
      "icate": 8121,
      "icial": 8122,
      "icide": 8123,
      "Ġped": 8124,
      "Ġpain": 8125,
      "Ġpage": 8126,
      "Ġpair": 8127,
      "ĠSC": 8128,
      "ĠST": 8129,
      "ĠSukh": 8130,
      "ĠSDF": 8131,
      "ouri": 8132,
      "ouston": 8133,
      "oma": 8134,
      "Ġmag": 8135,
      "Ġmart": 8136,
      "Ġmild": 8137,
      "Ġmind": 8138,
      "Ġmiles": 8139,
      "lem": 8140,
      "leigh": 8141,
      "leans": 8142,
      "leps": 8143,
      "ĠTs": 8144,
      "ĠTen": 8145,
      "ĠTra": 8146,
      "ĠTok": 8147,
      "ĠTony": 8148,
      "ĠAS": 8149,
      "ĠAary": 8150,
      "Ġdies": 8151,
      "Ġdang": 8152,
      "Ġdign": 8153,
      "Ġdance": 8154,
      "ĠCF": 8155,
      "ĠCut": 8156,
      "ĠCos": 8157,
      "ĠCant": 8158,
      "ĠCrit": 8159,
      "ĠCost": 8160,
      "ĠCare": 8161,
      "ĠCai": 8162,
      "ĠCru": 8163,
      "ĠCensus": 8164,
      "ĠCurrently": 8165,
      "ĠCavalry": 8166,
      "Ġhat": 8167,
      "Ġhol": 8168,
      "Ġhall": 8169,
      "Ġhung": 8170,
      "Ġhuge": 8171,
      "entures": 8172,
      "entially": 8173,
      "ilst": 8174,
      "ilton": 8175,
      "aman": 8176,
      "amber": 8177,
      "amily": 8178,
      "ĠMack": 8179,
      "ĠMater": 8180,
      "ĠMumb": 8181,
      "ĠMichel": 8182,
      "Ġrein": 8183,
      "Ġrector": 8184,
      "Ġreaching": 8185,
      "Ġreorgan": 8186,
      "sters": 8187,
      "story": 8188,
      "stream": 8189,
      "eloc": 8190,
      "ĠHal": 8191,
      "ĠHur": 8192,
      "ĠHir": 8193,
      "ĠHangar": 8194,
      "ĠHouston": 8195,
      "rovers": 8196,
      "ĠIV": 8197,
      "ĠIb": 8198,
      "ĠIan": 8199,
      "ĠIll": 8200,
      "add": 8201,
      "adar": 8202,
      "adier": 8203,
      "ĠPi": 8204,
      "ĠPy": 8205,
      "ĠPil": 8206,
      "ĠPur": 8207,
      "ĠPow": 8208,
      "ĠPop": 8209,
      "ĠPict": 8210,
      "ĠPower": 8211,
      "ĠPayette": 8212,
      "ĠPsychology": 8213,
      "urm": 8214,
      "uraki": 8215,
      "Ġlif": 8216,
      "Ġlapt": 8217,
      "Ġloyal": 8218,
      "Ġlower": 8219,
      "eches": 8220,
      "emy": 8221,
      "emed": 8222,
      "irt": 8223,
      "ĠBase": 8224,
      "ĠBeat": 8225,
      "ĠBeh": 8226,
      "ĠBonn": 8227,
      "ĠBranch": 8228,
      "ĠBaba": 8229,
      "ĠBWF": 8230,
      "ĠDow": 8231,
      "ĠDong": 8232,
      "ĠDix": 8233,
      "ĠDiet": 8234,
      "ĠDÃ¡il": 8235,
      "Ġnations": 8236,
      "Ġnatural": 8237,
      "teries": 8238,
      "Ġthings": 8239,
      "Ġthink": 8240,
      "Ġthought": 8241,
      "Ġforew": 8242,
      "Ġeye": 8243,
      "ote": 8244,
      "otes": 8245,
      "ĠRoc": 8246,
      "ĠRog": 8247,
      "ĠRome": 8248,
      "ĠRio": 8249,
      "ĠRoger": 8250,
      "etime": 8251,
      "Ġherit": 8252,
      "ĠLor": 8253,
      "ĠLim": 8254,
      "ĠLect": 8255,
      "ĠLok": 8256,
      "ĠLouth": 8257,
      "ĠLeop": 8258,
      "ĠLock": 8259,
      "ĠLunch": 8260,
      "iguation": 8261,
      "uset": 8262,
      "Ġascent": 8263,
      "ĠFat": 8264,
      "ĠFree": 8265,
      "ĠFair": 8266,
      "ĠFuk": 8267,
      "ĠJin": 8268,
      "ĠJal": 8269,
      "ĠJag": 8270,
      "ĠJul": 8271,
      "ĠJuto": 8272,
      "ĠGradu": 8273,
      "ĠGamb": 8274,
      "ĠGoog": 8275,
      "ĠGender": 8276,
      "ĠGersh": 8277,
      "ĠGandhi": 8278,
      "ĠGilles": 8279,
      "charge": 8280,
      "ĠNaf": 8281,
      "ĠNipp": 8282,
      "ĠNils": 8283,
      "ĠNAT": 8284,
      "ĠNacional": 8285,
      "ĠNHS": 8286,
      "Ġgr": 8287,
      "Ġgard": 8288,
      "Ġgran": 8289,
      "ctional": 8290,
      "istani": 8291,
      "itha": 8292,
      "iths": 8293,
      "ĠWI": 8294,
      "ĠWan": 8295,
      "ĠWern": 8296,
      "Ġstay": 8297,
      "Ġstret": 8298,
      "Ġstayed": 8299,
      "Ġbear": 8300,
      "Ġbeyond": 8301,
      "berger": 8302,
      "ĠEU": 8303,
      "ĠEve": 8304,
      "ĠEvery": 8305,
      "ĠEOS": 8306,
      "agers": 8307,
      "ĠOt": 8308,
      "ĠOur": 8309,
      "ĠOsw": 8310,
      "Ġanc": 8311,
      "Ġang": 8312,
      "Ġanime": 8313,
      "Ġwhaling": 8314,
      "Ġalone": 8315,
      "oses": 8316,
      "oshi": 8317,
      "osph": 8318,
      "rier": 8319,
      "esty": 8320,
      "ulations": 8321,
      "ulip": 8322,
      "raham": 8323,
      "Ġconcer": 8324,
      "Ġconning": 8325,
      "ĠKo": 8326,
      "ĠKav": 8327,
      "ĠKap": 8328,
      "ĠKath": 8329,
      "ĠKham": 8330,
      "ĠKatherine": 8331,
      "ĠKaji": 8332,
      "ĠKova": 8333,
      "ĠKelly": 8334,
      "ĠKuraki": 8335,
      "hie": 8336,
      "uda": 8337,
      "udan": 8338,
      "ĠInv": 8339,
      "ĠInsp": 8340,
      "ĠInstr": 8341,
      "Ġven": 8342,
      "Ġvet": 8343,
      "Ġveter": 8344,
      "Ġdean": 8345,
      "eway": 8346,
      "oured": 8347,
      "Ġrac": 8348,
      "Ġrang": 8349,
      "Ġrubber": 8350,
      "ifically": 8351,
      "ardy": 8352,
      "odcast": 8353,
      "abakh": 8354,
      "Ġchooglin": 8355,
      "ĠStill": 8356,
      "ĠStoney": 8357,
      "ĠSturm": 8358,
      "ĠChart": 8359,
      "ĠChampions": 8360,
      "ĠChannel": 8361,
      "Ġsea": 8362,
      "oven": 8363,
      "ovan": 8364,
      "ovann": 8365,
      "ovakia": 8366,
      "ella": 8367,
      "elles": 8368,
      "apes": 8369,
      "ogd": 8370,
      "orno": 8371,
      "Ġcompris": 8372,
      "Ġexclus": 8373,
      "ranean": 8374,
      "ictions": 8375,
      "ugu": 8376,
      "ugosl": 8377,
      "ineapp": 8378,
      "ĠYa": 8379,
      "ĠYu": 8380,
      "ĠYugosl": 8381,
      "uccess": 8382,
      "Ġsport": 8383,
      "Ġspring": 8384,
      "Ġspots": 8385,
      "anga": 8386,
      "Ġteen": 8387,
      "Ġunt": 8388,
      "Ġunus": 8389,
      "Ġherself": 8390,
      "ĠArm": 8391,
      "ikya": 8392,
      "Ġnoticed": 8393,
      "Ġcler": 8394,
      "ĠThough": 8395,
      "2017": 8396,
      "manhurst": 8397,
      "Ġwheel": 8398,
      "Ġoffered": 8399,
      "ĠOntar": 8400,
      "roud": 8401,
      "Ġadapted": 8402,
      "ĠMario": 8403,
      "ĠMartha": 8404,
      "ultze": 8405,
      "Ġagric": 8406,
      "ĠComrad": 8407,
      "Ġ300": 8408,
      "lette": 8409,
      "letons": 8410,
      "awar": 8411,
      "Ġjur": 8412,
      "Ġjob": 8413,
      "wegian": 8414,
      "Ġmanages": 8415,
      "Ġdisgu": 8416,
      "Ġdisease": 8417,
      "Ġscr": 8418,
      "Ġscar": 8419,
      "Ġscrat": 8420,
      "Ġwebsite": 8421,
      "Ġ59": 8422,
      "riculum": 8423,
      "Ġlocations": 8424,
      "Ġregions": 8425,
      "Ġ46": 8426,
      "Ġcolumn": 8427,
      "ression": 8428,
      "ahn": 8429,
      "ahar": 8430,
      "Ġprint": 8431,
      "actions": 8432,
      "ĠCommons": 8433,
      "âĢĻ.": 8434,
      "arked": 8435,
      "Ġseconds": 8436,
      "ĠIndies": 8437,
      "Ġcompetitions": 8438,
      "Ġ1923": 8439,
      "Ġretail": 8440,
      "airy": 8441,
      "aired": 8442,
      "aircraft": 8443,
      "Ġspecifically": 8444,
      "lix": 8445,
      "liest": 8446,
      "Ġnumbers": 8447,
      "obolus": 8448,
      "anne": 8449,
      "Ġpercent": 8450,
      "ĠShort": 8451,
      "Ġassets": 8452,
      "ixBuzz": 8453,
      "ĠSyed": 8454,
      "Ġentering": 8455,
      "ibly": 8456,
      "Ġinvaded": 8457,
      "Ġinvasion": 8458,
      "ĠGerald": 8459,
      "ĠGerais": 8460,
      "Ġconsecut": 8461,
      "Ġconservation": 8462,
      "Ġconservative": 8463,
      "Ġconsecrated": 8464,
      "Ġmusician": 8465,
      "ieri": 8466,
      "Ġartillery": 8467,
      "ĠClar": 8468,
      "ĠClif": 8469,
      "Ġmargin": 8470,
      "ĠJohor": 8471,
      "Ġinterim": 8472,
      "minton": 8473,
      "minute": 8474,
      "ussian": 8475,
      "Ġcargo": 8476,
      "Ġ75": 8477,
      "Ġ80": 8478,
      "ĠAdd": 8479,
      "Ġrelatively": 8480,
      "Ġrepresents": 8481,
      "Ġrepresenting": 8482,
      "Ġedited": 8483,
      "Ġprovinces": 8484,
      "hens": 8485,
      "ernÃ¡nd": 8486,
      "echt": 8487,
      "ismo": 8488,
      "isms": 8489,
      "enner": 8490,
      "Ġsetup": 8491,
      "Ġsetting": 8492,
      "Ġdescendant": 8493,
      "reathe": 8494,
      "Ġcenters": 8495,
      "Ġmatters": 8496,
      "forming": 8497,
      "ĠPhD": 8498,
      "Ġowns": 8499,
      "ĠPrincet": 8500,
      "Ġmonarch": 8501,
      "Ġreference": 8502,
      "Ġ97": 8503,
      "ĠCancer": 8504,
      "lego": 8505,
      "ĠPortland": 8506,
      "Ġorganised": 8507,
      "Ġheaded": 8508,
      "Ġcourses": 8509,
      "Ġcourtyard": 8510,
      "Ġsixteen": 8511,
      "icipal": 8512,
      "Ġlaund": 8513,
      "Ġoperator": 8514,
      "Ġblog": 8515,
      "ĠDeport": 8516,
      "Ġdepart": 8517,
      "Ġdepict": 8518,
      "Ġdeveloper": 8519,
      "Ġbroke": 8520,
      "ĠGuam": 8521,
      "Ġdrivers": 8522,
      "ĠMidwest": 8523,
      "Ġstring": 8524,
      "Ġstrict": 8525,
      "Ġcanc": 8526,
      "Ġemot": 8527,
      "Ġtermin": 8528,
      "Ġformerly": 8529,
      "Ġparent": 8530,
      "ĠEdinburgh": 8531,
      "Ġguard": 8532,
      "Ġguarant": 8533,
      "ukata": 8534,
      "ĠSecret": 8535,
      "ĠManchester": 8536,
      "ĠManeu": 8537,
      "ĠManikya": 8538,
      "Ġprogramme": 8539,
      "Ġrunners": 8540,
      "affer": 8541,
      "Ġauthority": 8542,
      "Ġdemanded": 8543,
      "Ġexplo": 8544,
      "Ġpublicly": 8545,
      "ĠTruteau": 8546,
      "ĠSeason": 8547,
      "ĠSwift": 8548,
      "ĠOrmond": 8549,
      "ĠOrleans": 8550,
      "Ġdiscus": 8551,
      "ribution": 8552,
      "Ġpointed": 8553,
      "Ġengagement": 8554,
      "ĠÃģ": 8555,
      "onomous": 8556,
      "Ġincorpor": 8557,
      "ĠReal": 8558,
      "ĠÐ²": 8559,
      "ĠÐ½": 8560,
      "Ġlandf": 8561,
      "Ġlands": 8562,
      "ĠAbout": 8563,
      "Ġ1881": 8564,
      "Ġ1884": 8565,
      "ĠMoney": 8566,
      "afa": 8567,
      "ĠUKIP": 8568,
      "Ġviolating": 8569,
      "ĠPalais": 8570,
      "Ġcondem": 8571,
      "Ġcompletion": 8572,
      "incial": 8573,
      "ĠSchul": 8574,
      "ĠSchultze": 8575,
      "auty": 8576,
      "autical": 8577,
      "ĠMalayalam": 8578,
      "Ġmerc": 8579,
      "Ġhandled": 8580,
      "Ġdistinct": 8581,
      "Ġ1896": 8582,
      "ancing": 8583,
      "Ġcharts": 8584,
      "Ġdifferences": 8585,
      "ĠÂ«": 8586,
      "Ġtouring": 8587,
      "Ġlegend": 8588,
      "Ġeffective": 8589,
      "Ġproducts": 8590,
      "Ġfewest": 8591,
      "Ġfactor": 8592,
      "Ġchecked": 8593,
      "ĠHarv": 8594,
      "Ġtwin": 8595,
      "Ġshipyard": 8596,
      "ĠMedia": 8597,
      "ĠMediter": 8598,
      "ĠAnglican": 8599,
      "Ġsimple": 8600,
      "Ġextremely": 8601,
      "Ġinvestigated": 8602,
      "Ġinvestigating": 8603,
      "Ġbehavior": 8604,
      "iscrimin": 8605,
      "ĠMartins": 8606,
      "Ġestablishing": 8607,
      "Ġsouthwest": 8608,
      "Ġbombings": 8609,
      "ĠMountains": 8610,
      "ĠDraga": 8611,
      "ĠOxland": 8612,
      "ĠInstitution": 8613,
      "Ġbatteries": 8614,
      "Ġneut": 8615,
      "knecht": 8616,
      "Ġswim": 8617,
      "ĠSalisbury": 8618,
      "Ġdamaged": 8619,
      "ĠMunting": 8620,
      "ĠBloc": 8621,
      "ĠByrne": 8622,
      "Ġsites": 8623,
      "Ġinjuries": 8624,
      "ĠSocialist": 8625,
      "Ġready": 8626,
      "Ġreaders": 8627,
      "Ġnortheastern": 8628,
      "Ġsoutheast": 8629,
      "Ġsoutheastern": 8630,
      "Ġneeds": 8631,
      "Ġassisting": 8632,
      "ijuana": 8633,
      "Ġsessions": 8634,
      "ĠSamar": 8635,
      "ĠMilwaukee": 8636,
      "mbri": 8637,
      "Ġfemales": 8638,
      "Ġcrossing": 8639,
      "ĠMetro": 8640,
      "ĠMetropolitan": 8641,
      "ĠNorwegian": 8642,
      "ambers": 8643,
      "ambiguation": 8644,
      "ĠStudy": 8645,
      "Ġrecognition": 8646,
      "Ġrecognised": 8647,
      "ĠConservative": 8648,
      "ĠPete": 8649,
      "ĠPetite": 8650,
      "ĠÑĤ": 8651,
      "Ġdrawn": 8652,
      "Ġstopped": 8653,
      "ĠProfessional": 8654,
      "Ġdefeating": 8655,
      "Ġresponses": 8656,
      "Ġresponsibility": 8657,
      "Ġcorrupt": 8658,
      "ĠAkbar": 8659,
      "ĠMohamed": 8660,
      "Ġlimit": 8661,
      "ĠGallego": 8662,
      "ĠOutlier": 8663,
      "Ġcontributing": 8664,
      "Ġcollected": 8665,
      "Ġaccounts": 8666,
      "Ġperformances": 8667,
      "Ġautomob": 8668,
      "Ann": 8669,
      "Ġtrip": 8670,
      "Ġdestr": 8671,
      "ĠCopleston": 8672,
      "ĠCopmanhurst": 8673,
      "chief": 8674,
      "Ġgoods": 8675,
      "Ġcriticised": 8676,
      "intendant": 8677,
      "Ġdivor": 8678,
      "Ġdivided": 8679,
      "ĠRichmond": 8680,
      "Ġspeaking": 8681,
      "Ġ1850": 8682,
      "Ġ1879": 8683,
      "Ġwarned": 8684,
      "Ġsquat": 8685,
      "Ġboat": 8686,
      "Ġdeliver": 8687,
      "Ġhomes": 8688,
      "Ġreviewed": 8689,
      "ĠHamilton": 8690,
      "ĠWithout": 8691,
      "ĠEmir": 8692,
      "ĠEmilio": 8693,
      "Ġ1801": 8694,
      "Ġdiscussions": 8695,
      "Ġtypes": 8696,
      "Ġtalks": 8697,
      "Ġshires": 8698,
      "Ġpurchase": 8699,
      "Ġmissionary": 8700,
      "ĠCroat": 8701,
      "ĠCrown": 8702,
      "ĠCrofton": 8703,
      "ĠRangoli": 8704,
      "ĠGallen": 8705,
      "This": 8706,
      "Ġideas": 8707,
      "Ġsuperv": 8708,
      "ommod": 8709,
      "Ġmissions": 8710,
      "ĠNehls": 8711,
      "ĠKarl": 8712,
      "Ġrules": 8713,
      "Ġspirits": 8714,
      "Ġscientist": 8715,
      "Ġeffects": 8716,
      "ãĥ¼": 8717,
      "Ġskeletons": 8718,
      "Ġinstructions": 8719,
      "Ġfarmer": 8720,
      "ĠAlexand": 8721,
      "ĠCapit": 8722,
      "ĠCapital": 8723,
      "ĠMoore": 8724,
      "ĠMexican": 8725,
      "ĠClassic": 8726,
      "Ġemergency": 8727,
      "Ġpoetry": 8728,
      "Ġoversaw": 8729,
      "ĠMaclean": 8730,
      "adiq": 8731,
      "ĠRaph": 8732,
      "ĠLucas": 8733,
      "Ġsuffering": 8734,
      "Ġschedule": 8735,
      "ĠClaud": 8736,
      "Ġsubsequent": 8737,
      "ĠBrazilian": 8738,
      "Ġinfirm": 8739,
      "ĠModenas": 8740,
      "ĠOverpeck": 8741,
      "Ġvolunte": 8742,
      "Ġuncle": 8743,
      "ĠProtesters": 8744,
      "ĠProtestant": 8745,
      "Ġphilanth": 8746,
      "ĠAndrÃ©": 8747,
      "Ġemployees": 8748,
      "Ġincreased": 8749,
      "Ġincrease": 8750,
      "ĠMontenegrin": 8751,
      "Ġneighbour": 8752,
      "Ġaims": 8753,
      "Ġaimed": 8754,
      "Ġfrag": 8755,
      "Ġframe": 8756,
      "Ġfallen": 8757,
      "Ġfalling": 8758,
      "Ġpanel": 8759,
      "Ġdocuments": 8760,
      "ĠCzechosl": 8761,
      "ĠPuerto": 8762,
      "ĠBolton": 8763,
      "ĠDevon": 8764,
      "ĠDevil": 8765,
      "Ġtraveled": 8766,
      "Ġerected": 8767,
      "Ġsynagogue": 8768,
      "Ġderived": 8769,
      "ĠMahmoud": 8770,
      "ĠArmenian": 8771,
      "Ġguitarist": 8772,
      "ographed": 8773,
      "Ġinternet": 8774,
      "ĠSherlock": 8775,
      "Ġmunicipal": 8776,
      "ĠAhly": 8777,
      "Ġdrove": 8778,
      "ĠHouthis": 8779,
      "Ġtranslation": 8780,
      "Ġtranslator": 8781,
      "Party": 8782,
      "Ġsurrounded": 8783,
      "Ġsurrounding": 8784,
      "Ġsuggested": 8785,
      "ĠSaturday": 8786,
      "Ġhorror": 8787,
      "ĠHonours": 8788,
      "Ġconstable": 8789,
      "Ġcomposers": 8790,
      "ĠAlfred": 8791,
      "Ġmanufacturer": 8792,
      "EEE": 8793,
      "Ġfederal": 8794,
      "Ġcelebrate": 8795,
      "Ġlicence": 8796,
      "ĠNagorno": 8797,
      "Ġgrowing": 8798,
      "ĠEllie": 8799,
      "ĠOperations": 8800,
      "ĠArgentina": 8801,
      "Ġwindows": 8802,
      "Ġbringing": 8803,
      "ĠSinclair": 8804,
      "ĠBuilding": 8805,
      "ĠKenogami": 8806,
      "ĠKatz": 8807,
      "Ġdelegate": 8808,
      "oddard": 8809,
      "Ġcharged": 8810,
      "Ġcharges": 8811,
      "Ġexperimental": 8812,
      "Ġspiritual": 8813,
      "Ġwaiting": 8814,
      "Ġcredited": 8815,
      "Ġpursue": 8816,
      "ĠSchembri": 8817,
      "ĠPakistan": 8818,
      "Ġloan": 8819,
      "Ġeleven": 8820,
      "Ġelements": 8821,
      "ĠRanji": 8822,
      "ĠIndustrial": 8823,
      "Ġsettlement": 8824,
      "ĠBrooklyn": 8825,
      "ĠÄĨer": 8826,
      "Ġcategories": 8827,
      "Ġbottom": 8828,
      "ĠSunday": 8829,
      "Ġalternate": 8830,
      "Ġshaft": 8831,
      "ropriate": 8832,
      "Ġprepared": 8833,
      "Ġprincipal": 8834,
      "Ġknocked": 8835,
      "Ġdispersed": 8836,
      "schfeld": 8837,
      "Ġtimber": 8838,
      "ĠSoptic": 8839,
      "ĠMinnesota": 8840,
      "ĠDivisiÃ³n": 8841,
      "Ġthanks": 8842,
      "ĠRoland": 8843,
      "Ġplayoffs": 8844,
      "Ġapparently": 8845,
      "Ġenvironmental": 8846,
      "Ġsymbol": 8847,
      "ĠDelegation": 8848,
      "Ġopportunity": 8849,
      "Ġmotorcycles": 8850,
      "ĠSaskatoon": 8851,
      "disambiguation": 8852,
      "Ġtunnel": 8853,
      "Ġsublanguages": 8854,
      "Ġburied": 8855,
      "ĠCircuit": 8856,
      "ĠBetween": 8857,
      "usseini": 8858,
      "ĠGutknecht": 8859,
      "Ġprobably": 8860,
      "Ġsegments": 8861,
      "Ġexamination": 8862,
      "ĠSpeaker": 8863,
      "Ġrapid": 8864,
      "Ġstructures": 8865,
      "ĠBarbara": 8866,
      "Ġdismissed": 8867,
      "Ġhydrogen": 8868,
      "Ġtorture": 8869,
      "Ġsustained": 8870,
      "Ġinformal": 8871,
      "Ġcannot": 8872,
      "ĠSiena": 8873,
      "ĠTyphoon": 8874,
      "ĠAquatics": 8875,
      "ĠMaurice": 8876,
      "ĠPAGASA": 8877,
      "ĠPinto": 8878,
      "ĠRagin": 8879,
      "ĠWheeler": 8880,
      "ĠEugene": 8881,
      "occan": 8882,
      "Ġcolleges": 8883,
      "Ġenjoyed": 8884,
      "ĠGuangzhou": 8885,
      "ĠPatricia": 8886,
      "Ġalphabetically": 8887,
      "Shires": 8888,
      "pretation": 8889,
      "Ġtanker": 8890,
      "Ġwitnesses": 8891,
      "ĠDanny": 8892,
      "ĠLtd": 8893,
      "ĠNevada": 8894,
      "ĠUbukata": 8895,
      "ablishment": 8896,
      "ĠStewart": 8897,
      "Ġexoplanets": 8898,
      "ĠVietnam": 8899,
      "Ã©bertville": 8900,
      "ĠApostolic": 8901,
      "ĠContinental": 8902,
      "ĠKirchberger": 8903,
      "ĠWolverines": 8904,
      "Ġtrafficking": 8905,
      "ĠGroningen": 8906,
      "Karabakh": 8907,
      "Ġtubes": 8908,
      "Ġfully": 8909,
      "Ġcousin": 8910,
      "ĠSukhvinder": 8911,
      "ĠTokyo": 8912,
      "ĠAaryan": 8913,
      "Ġdiesel": 8914,
      "ĠMumbai": 8915,
      "ĠHirschfeld": 8916,
      "ĠBaseball": 8917,
      "ĠDowling": 8918,
      "ĠRogers": 8919,
      "Ġheritage": 8920,
      "ĠLeopold": 8921,
      "ĠNafisa": 8922,
      "ĠNATO": 8923,
      "ĠOswald": 8924,
      "Ġconcerts": 8925,
      "ovanni": 8926,
      "ineapple": 8927,
      "ĠOntario": 8928,
      "Ġagriculture": 8929,
      "ĠComrads": 8930,
      "Ġdisguised": 8931,
      "Ġconsecutively": 8932,
      "ernÃ¡ndez": 8933,
      "ĠPrinceton": 8934,
      "ĠManeuver": 8935,
      "ĠMediterranean": 8936,
      "ĠDragaÅ¡": 8937,
      "Ġphilanthrop": 8938,
      "!âĢĻ": 8939,
      "'.": 8940,
      "'ve": 8941,
      "):": 8942,
      ".)": 8943,
      ".-": 8944,
      ".<": 8945,
      "41": 8946,
      "59": 8947,
      "800": 8948,
      "Ar": 8949,
      "Ach": 8950,
      "Bl": 8951,
      "Bo": 8952,
      "Bar": 8953,
      "CD": 8954,
      "CE": 8955,
      "DW": 8956,
      "Do": 8957,
      "ET": 8958,
      "EMA": 8959,
      "FC": 8960,
      "FF": 8961,
      "FL": 8962,
      "FP": 8963,
      "For": 8964,
      "Gl": 8965,
      "Hist": 8966,
      "HMS": 8967,
      "Husseini": 8968,
      "Iv": 8969,
      "Le": 8970,
      "Lennon": 8971,
      "Mon": 8972,
      "Michel": 8973,
      "Nile": 8974,
      "On": 8975,
      "Or": 8976,
      "Ox": 8977,
      "Pal": 8978,
      "Pri": 8979,
      "Pika": 8980,
      "SF": 8981,
      "Sw": 8982,
      "She": 8983,
      "Sadiq": 8984,
      "Tr": 8985,
      "Tam": 8986,
      "UP": 8987,
      "US": 8988,
      "VIII": 8989,
      "WA": 8990,
      "When": 8991,
      "Your": 8992,
      "aus": 8993,
      "bin": 8994,
      "bet": 8995,
      "boy": 8996,
      "binda": 8997,
      "cor": 8998,
      "cle": 8999,
      "card": 9000,
      "cip": 9001,
      "case": 9002,
      "cular": 9003,
      "cert": 9004,
      "caster": 9005,
      "cÃŃa": 9006,
      "consec": 9007,
      "di": 9008,
      "du": 9009,
      "dated": 9010,
      "district": 9011,
      "dney": 9012,
      "eon": 9013,
      "eit": 9014,
      "eut": 9015,
      "eap": 9016,
      "eira": 9017,
      "fers": 9018,
      "from": 9019,
      "fra": 9020,
      "friend": 9021,
      "flix": 9022,
      "general": 9023,
      "group": 9024,
      "grant": 9025,
      "hat": 9026,
      "has": 9027,
      "hing": 9028,
      "hol": 9029,
      "iat": 9030,
      "iad": 9031,
      "iem": 9032,
      "ios": 9033,
      "iques": 9034,
      "jit": 9035,
      "java": 9036,
      "kg": 9037,
      "ku": 9038,
      "kan": 9039,
      "lon": 9040,
      "lar": 9041,
      "last": 9042,
      "lik": 9043,
      "licht": 9044,
      "mother": 9045,
      "master": 9046,
      "mberg": 9047,
      "new": 9048,
      "name": 9049,
      "nÃ¶n": 9050,
      "oos": 9051,
      "oters": 9052,
      "oise": 9053,
      "pher": 9054,
      "post": 9055,
      "pts": 9056,
      "pson": 9057,
      "pread": 9058,
      "rÄ": 9059,
      "rent": 9060,
      "rill": 9061,
      "rend": 9062,
      "rade": 9063,
      "ructure": 9064,
      "sa": 9065,
      "sil": 9066,
      "sider": 9067,
      "tor": 9068,
      "tra": 9069,
      "then": 9070,
      "vian": 9071,
      "vina": 9072,
      "velled": 9073,
      "wig": 9074,
      "wich": 9075,
      "wang": 9076,
      "wise": 9077,
      "xic": 9078,
      "yt": 9079,
      "zur": 9080,
      "zqu": 9081,
      "²Ķ": 9082,
      "Â°": 9083,
      "Ãª": 9084,
      "ÃŁ": 9085,
      "Ä±": 9086,
      "Åĳ": 9087,
      "ÑĮ": 9088,
      "×¨": 9089,
      "ÙĦ": 9090,
      "åı": 9091,
      "å²Ķ": 9092,
      "ï¼": 9093,
      "Ġ+": 9094,
      "Ġ:": 9095,
      "Ġ~": 9096,
      "Ġign": 9097,
      "Ġutil": 9098,
      "ĺĨ": 9099,
      "Ġtor": 9100,
      "Ġtall": 9101,
      "Ġtend": 9102,
      "Ġtens": 9103,
      "Ġtons": 9104,
      "Ġtrib": 9105,
      "Ġtick": 9106,
      "Ġtempor": 9107,
      "Ġtreated": 9108,
      "hemi": 9109,
      "Ġap": 9110,
      "Ġaw": 9111,
      "Ġaest": 9112,
      "inued": 9113,
      "erc": 9114,
      "eras": 9115,
      "onic": 9116,
      "onies": 9117,
      "org": 9118,
      "oran": 9119,
      "orious": 9120,
      "orica": 9121,
      "enary": 9122,
      "enobolus": 9123,
      "Ġwr": 9124,
      "Ġwors": 9125,
      "Ġwides": 9126,
      "Ġwounds": 9127,
      "anG": 9128,
      "anath": 9129,
      "aniah": 9130,
      "atu": 9131,
      "Ġsle": 9132,
      "Ġsell": 9133,
      "Ġsoci": 9134,
      "Ġsalt": 9135,
      "Ġsuddenly": 9136,
      "Ġop": 9137,
      "isis": 9138,
      "isions": 9139,
      "isters": 9140,
      "rez": 9141,
      "rete": 9142,
      "rehens": 9143,
      "alus": 9144,
      "itement": 9145,
      "Ġfell": 9146,
      "Ġfail": 9147,
      "Ġfair": 9148,
      "Ġfestival": 9149,
      "ases": 9150,
      "Ġcle": 9151,
      "Ġcoun": 9152,
      "Ġcore": 9153,
      "Ġcited": 9154,
      "Ġcurt": 9155,
      "Ġciting": 9156,
      "Ġbed": 9157,
      "Ġbac": 9158,
      "Ġbab": 9159,
      "Ġbass": 9160,
      "Ġburned": 9161,
      "Ġbishop": 9162,
      "Ġbotan": 9163,
      "ications": 9164,
      "Ġpit": 9165,
      "Ġpion": 9166,
      "Ġpure": 9167,
      "Ġports": 9168,
      "ĠSent": 9169,
      "ĠSel": 9170,
      "ĠSue": 9171,
      "ĠShip": 9172,
      "ĠSaw": 9173,
      "ĠStern": 9174,
      "ĠScho": 9175,
      "ĠSoon": 9176,
      "ĠSull": 9177,
      "ĠSED": 9178,
      "ĠSLC": 9179,
      "oup": 9180,
      "oust": 9181,
      "Ġtoday": 9182,
      "Ġtools": 9183,
      "Ġtoxic": 9184,
      "oms": 9185,
      "Ġmist": 9186,
      "Ġmos": 9187,
      "Ġmess": 9188,
      "Ġmount": 9189,
      "Ġmagaz": 9190,
      "Ġmicro": 9191,
      "ĠTol": 9192,
      "ĠTow": 9193,
      "ĠTog": 9194,
      "ĠTik": 9195,
      "ĠTime": 9196,
      "ĠTower": 9197,
      "ĠTrain": 9198,
      "ĠTennis": 9199,
      "ĠTirm": 9200,
      "ĠTotal": 9201,
      "ĠAst": 9202,
      "Ġdated": 9203,
      "Ġdie": 9204,
      "Ġdivers": 9205,
      "Ġdyn": 9206,
      "Ġdream": 9207,
      "Ġdoll": 9208,
      "Ġdinner": 9209,
      "Ġduties": 9210,
      "ĠCA": 9211,
      "ĠCD": 9212,
      "ĠCec": 9213,
      "ĠCres": 9214,
      "ĠCav": 9215,
      "ĠCert": 9216,
      "ĠCzer": 9217,
      "ĠCreed": 9218,
      "ĠClear": 9219,
      "ĠCulture": 9220,
      "ĠCiro": 9221,
      "ĠCinema": 9222,
      "ĠCemetery": 9223,
      "Ġhun": 9224,
      "Ġhum": 9225,
      "Ġhind": 9226,
      "Ġhits": 9227,
      "ented": 9228,
      "ila": 9229,
      "ilo": 9230,
      "ĠMK": 9231,
      "ĠMag": 9232,
      "ĠMort": 9233,
      "ĠMiz": 9234,
      "ĠMind": 9235,
      "ĠMean": 9236,
      "ĠMaz": 9237,
      "ĠMembers": 9238,
      "ĠMuch": 9239,
      "ĠMyan": 9240,
      "ĠMÃ¸": 9241,
      "ĠMMA": 9242,
      "ĠMiller": 9243,
      "ĠMuela": 9244,
      "ĠMEP": 9245,
      "ĠMÃ¼n": 9246,
      "Ġwaste": 9247,
      "Ġreed": 9248,
      "olics": 9249,
      "still": 9250,
      "stant": 9251,
      "stock": 9252,
      "style": 9253,
      "elo": 9254,
      "elia": 9255,
      "ĠHy": 9256,
      "ĠHom": 9257,
      "ĠHil": 9258,
      "ĠHun": 9259,
      "ĠHend": 9260,
      "ĠHull": 9261,
      "ĠHalf": 9262,
      "ĠHIV": 9263,
      "ĠHinrich": 9264,
      "ĠHernÃ¡ndez": 9265,
      "roc": 9266,
      "roe": 9267,
      "rog": 9268,
      "rock": 9269,
      "rocity": 9270,
      "ĠIP": 9271,
      "ĠIce": 9272,
      "ĠIss": 9273,
      "ĠImp": 9274,
      "ĠIram": 9275,
      "ĠIlo": 9276,
      "ĠIDF": 9277,
      "ĠISI": 9278,
      "ĠIEEE": 9279,
      "adenobolus": 9280,
      "ĠPles": 9281,
[...]
