Ġ t
h e
Ġ a
i n
e r
Ġt he
o n
č Ċ
e d
o r
e n
Ġ w
a n
a t
Ġ s
Ġ o
i s
r e
a r
a l
Ġ in
Ġo f
i t
Ġ f
n d
a s
Ġ c
e s
Ġ b
i c
Ġa nd
in g
Ġ p
Ġ S
i on
o u
Ġt o
o m
Ġ m
l e
Ġ T
Ġ A
Ġ d
Ġ 1
Ġ C
Ġ h
en t
i l
a m
Ġ M
Ġw as
Ġ re
o l
s t
e l
Ġ H
r o
Ġ I
Ġ 2
a d
Ġ P
u r
a c
i v
Ġ l
e c
Ġ on
e m
ĠT he
Ġ1 9
i r
Ġ B
Ġ D
Ġ n
t er
Ġt h
Ġ "
Ġf or
Ġ is
Ġ e
l y
o t
i d
at ion
Ġ R
e t
Ġ he
Ġ2 0
Ġ L
i g
a y
u t
i m
Ġa t
u s
Ġa s
Ġ F
Ġ J
Ġ G
c h
er s
u n
Ġ N
Ġ (
Ġ g
Ġb y
c t
is t
it h
c e
Ġ W
an d
Ġs t
t h
o w
Ġw ith
Ġb e
' s
b er
r om
Ġ E
a g
Ġ O
Ġa n
Ġw h
Ġa l
Ġ20 1
he r
o s
u m
r i
es t
Ġth at
v er
u l
o c
Ġf rom
r a
Ġ U
i an
Ġc on
Ġ K
h i
u d
ĠI n
Ġc om
â Ģ
re s
al l
it y
ĠH e
at e
ar t
a in
o p
Ġ v
Ġd e
or t
e w
a v
Ġp ro
ou r
Ġ r
ar y
i f
i es
at ed
l d
a k
ar d
u b
is h
il l
Ġh is
ig h
i a
p p
Ġ it
o d
a b
Ġc h
e ar
ic h
ĠS t
er e
ĠC h
Ġs e
ou n
o v
em ber
on g
ou s
Ġw ere
Ġp l
es s
en d
ion s
el l
igh t
an t
e p
or k
am e
a p
g e
m ent
o g
Ġh ad
q u
or n
ĠI t
Ġcom p
Ġe x
Ġ or
c l
ĠU n
m er
Ġa re
Ġ le
as t
ic e
ou nd
r an
iv e
ec t
u st
Ġa r
u p
i al
or e
ic t
er v
u g
in e
âĢ ĵ
Ġe v
am p
s o
Ġwh ich
u e
r it
Ġf ir
Ġ Y
u c
ic al
Ġs p
f ter
0 0
Ġ k
an g
on d
o k
Ġ y
Ġ V
Ġt e
he d
Ġ201 9
oun t
o st
or d
Ġ un
as s
Ġal so
i e
ou t
Ġfir st
ac k
Ġhe r
le ct
Ġh as
hi p
r y
ĠS he
ĠA r
Ġwh o
f f
i k
ation al
s e
Ġn ot
cl ud
Ġc l
ĠT h
Ġre p
t her
Ġthe ir
om e
Ġ1 8
2 0
i z
ic s
at er
iv ers
Ġs he
Ġre s
" .
m an
en ce
l ow
u nd
t e
e y
Ġw he
Ġp ol
Ġp art
av e
Ġof f
i re
ub l
Ġa b
Ġbe en
Ġs h
it ion
ĠO n
r ou
ac e
ac h
" ,
ĠA l
l and
ig n
Ġa d
i ed
ĠM ar
ag e
Ġ20 0
Ġin clud
id e
g h
ul t
re e
Ġ19 8
u re
Ġa g
ad e
Ġpl ay
Ġw ork
ĠC om
p er
c c
Ġ19 9
o y
Ġb ec
w o
ur ing
Ġs erv
al ly
Ġ 3
Ġit s
Ġs u
as on
Ġa pp
ow n
le t
a w
s s
Ġ j
Ġa fter
ation s
Ġon e
i p
w e
as ed
ak e
o in
im e
ivers ity
Ġth is
il m
Ġte am
u ary
o ver
w ard
it ed
e g
t o
ou ld
il d
Ġy ear
r en
id ent
Ġcon t
Ġat t
in ce
ter n
ĠUn iversity
in d
o od
Ġb ut
ĠA n
b all
ic an
Ġm an
ou th
f er
en s
Ġt wo
Ġd is
at or
Ġs c
Ġh ave
Ġre c
e op
f t
at es
) ,
o ot
g an
Ġw e
ĠP ar
ch o
Ġthe y
ol d
ĠN ew
Ġse ason
amp ions
Ġs ec
Ġcom m
ist r
Ġd es
Ġe lect
b r
ĠS en
eop le
l es
Ġ us
Ġo ver
ter s
) .
at h
is s
t ed
t s
en er
Ġo ut
or ld
u ct
on e
i le
iv ed
Ġ 5
ec ember
res ent
Ġev ent
r ic
ro p
c es
Ġl oc
f or
m p
ur n
Ġf in
Ġre g
ol low
ĠL e
ĠTh is
or y
Ġ ro
el y
Ġ19 5
cho ol
on s
em ent
Ġ und
Ġo ther
Ġf ilm
ĠE n
is hed
ĠD ecember
Ġ 4
Ġa ct
o h
Ġ up
Ġc ol
e an
m ed
ĠC ol
e x
Ġ Z
Ġn ew
o ok
ampions hip
Ġ en
er ed
us ic
ĠJ an
res s
ire ct
a h
Ġp re
a re
Ġ19 7
ri b
Ġab out
Ġp r
Ġk n
w n
Ã ©
Ġin to
ion al
ac t
ĠCom m
a il
b orn
p l
Ġ im
Ġf ollow
Ġm en
Ġal l
ab le
Ġst ud
1 9
âĢ Ļ
Ġd uring
am ent
ar k
Ġp ubl
Ġm ade
Ġ19 4
Ġwhe re
Ġh ous
iv er
Ġsec ond
ĠI nd
em b
Ġ20 20
Ġund er
a z
r al
at her
it e
ra b
Ġoff ic
i ous
s p
Ġb u
r am
r ad
oot ball
Ġre le
hi re
Ġcomp et
ar n
ĠS p
Ġ19 2
over n
Ġre t
a ir
v el
a i
is ion
Ġf ound
as e
ĠA mer
Ġsp ec
l i
Ġn um
ĠUn ited
a j
o b
an ce
Ġh im
ol og
Ġag ain
an n
Ġp er
ĠJan uary
ĠS h
ĠP ro
Ġ19 6
i o
or th
il y
Ġ19 3
Ġs ince
Ġas s
d uc
Ġthe m
an k
ĠB rit
Ġbec ame
i x
Ġ 6
Ġs ong
oc k
Ġthe n
ĠA rab
ur r
Ġpol it
ener al
p h
ĠD ay
os e
o ber
Ġp eople
ĠS y
ĠF or
m y
Ġt ime
Ġin d
it ies
Ġf am
Ġb et
c ed
t on
Ġw ould
Ġhe ld
in n
Ġc all
istr ict
ĠEn g
Ġf our
i or
Ġ ent
Ġs a
Ġyear s
c he
ag ue
in a
Ġs ing
Ġ1 6
oc i
p r
Ġ end
us e
overn ment
Ġnum ber
p t
an s
Ġs ome
rou p
i b
Ġin v
Ġc o
om en
st r
ur ch
Ġl ater
ĠJ un
rou gh
we en
e at
t en
Ġa cc
at ive
ĠA t
ĠA fter
ĠJ ew
Ġev ict
Ġsu pp
Ġb orn
Ġm ore
Ġ1 7
ĠW orld
ĠBrit ish
l ed
t il
Ġd irect
Ġre ce
ĠG er
mp ics
e f
w ay
ing s
ĠS um
Ġon ly
Ġcon s
Ã ¡
Ġs ur
Ġm ay
res ident
Ġinclud ing
b um
or s
Ġm usic
st it
e k
i er
Ġ Q
Ġm ov
Ġse ver
ug ust
an y
ĠA s
ut h
ĠA ugust
il it
ĠO ly
Ġwhe n
al s
ot h
ĠSum mer
e v
Ġbet ween
l ish
al y
Ġar t
t y
ou gh
ĠAmer ican
Ġagain st
at ing
ent ly
am es
ĠN ov
T he
k e
Ġ qu
Ġw ill
ĠC l
ĠThe y
Ġn ame
Ġle ad
Ġw on
Ġs er
Ġbe ing
Ġde f
e ver
Ġc ount
Ġ1 0
ĠJ u
Ġkn own
Ġs ub
es e
Ġm ar
ĠJ oh
ĠCh ampionship
Ġ -
ĠA ss
Ġun til
Ġserv ed
Ġfollow ing
Ġ âĢĵ
Ġm ember
ĠC on
ot her
Ġal bum
Ġ201 8
Ġin ter
Ġd o
Ġth ree
our n
Ġfam ily
. "
f ore
i el
m in
Ġw rit
ĠI s
us s
ep t
Ġrep ort
ĠMar ch
Ġthe re
Ġw ell
Ġc re
Ġc ar
ĠP ol
if e
Ġrele ased
ĠOly mpics
r ed
Ġ 7
Ġ 8
ro w
r at
Ġt ran
ic k
ĠA d
iv es
im ent
ĠNov ember
ĠJu ly
Ġ âĢ
al e
ĠA pr
Ġre l
c ess
ĠS c
Ġrep resent
Ġpol ice
Ġsa id
Ġsever al
c y
j ect
Ġ est
ĠA ust
Ġ ed
Ġg roup
Ġst ate
Ġwh ile
Ġpro v
iss ion
ĠSy ri
o on
on y
al k
ĠC ount
ĠP l
ĠR ep
ĠO ct
ĠJun e
a ug
he n
er n
Ġb ook
Ġth rough
Ġbe fore
ain t
ĠApr il
p en
Ġ1 2
ec h
ĠN ational
d er
f ess
u en
u al
le ge
am ed
Ġfor m
Ġatt ack
ĠOct ober
is m
Ġcompet ed
Ġ ra
Ġs chool
Ġd ec
ĠM ay
Ġl ist
ĠR eg
if ic
r on
en n
Ġs et
Ġm e
Ġm ed
ĠH is
Ġe ar
ĠF ran
Ġad d
s hire
u ed
ar g
ur k
iv ision
ĠG e
ri ed
iz ed
Ġdes c
ĠJoh n
re at
Ġc ent
Ġp rom
Ġm at
Ġre m
Ġch ild
for m
vel op
Ġevict ion
u res
v e
Ġt it
Ġa c
ĠS a
ĠP h
ĠR iver
ers on
Ġg overnment
ĠE u
ik e
Ġapp ear
tern ational
ilit ary
Ġa ward
Ġo wn
ĠP r
ĠD em
ot t
ĠSt ate
Ġim p
Ġser ies
ept ember
o ard
s on
re t
Ġm on
ul ar
00 0
ĠGer man
Ġf l
ent s
Ġre fer
ain ed
ĠLe ague
rad u
Ġrece ived
is ter
Ġp os
ĠS eptember
Ġm ost
Ġd ay
Ġ19 1
Ġn ear
ap t
oy al
aug h
r ist
s h
it al
as h
ac ed
ig in
ĠSt ates
Ġex p
ĠSen ator
olog y
Ã ³
Ġ 9
ĠC an
ĠC ar
Ġtran s
g ram
l l
Ġa m
ĠS outh
Ġth an
ĠF e
ĠU S
uct ion
Ġloc ated
emb ers
it s
Ġc urr
ĠW ar
Ġ201 6
her n
Ġus ed
Ġt r
le g
ĠP ort
im es
Ġor gan
ĠEu rop
a im
l if
om in
ĠC ent
ir ed
Ġhe ad
Ġst art
Ġv i
ight lif
Ġfin al
Ġpubl ished
Ġsupp ort
ightlif ter
r and
er t
Ġs uc
is ed
Ġf ootball
Ġp h
ĠT urk
Ġd ied
Ġcon f
ud i
Ġinclud ed
ĠDem oc
Ġw omen
Ġf eat
Ġc our
ĠA nd
Ġ1 5
el f
ur ed
iv ing
Ġ201 7
uth or
Ġs ix
ic ip
Ġto p
Ġ1 3
Ġl a
Ġrec ord
Ġcall ed
Ġsing le
ĠAust ral
Ġt ra
Ġo per
Ġo pen
re et
Ġb l
ĠS chool
Ġm ain
Ġm embers
ĠD ep
ĠW est
Ġan n
ver y
Ġv is
Ġde p
Ġde velop
ĠY ork
Ġres p
br uary
li ament
stit ut
Ġb ro
Ġto ok
Ġm in
le y
Ġh ist
il t
ĠP art
Ġn o
ĠG u
os p
Ġor igin
Ġsu ch
Ġcont in
Ġhous e
ĠDemoc rat
a u
Ġ .
an a
as k
Ġb ased
Ġd r
ĠM id
ro ss
Ġst r
Ġde b
ĠFe bruary
e z
Ġw ar
Ġc an
ic a
Ġwork ed
ĠCol lege
Ġdesc rib
t al
y n
Ġ em
Ġt er
Ġo cc
Ġb ack
ĠC ork
ĠM in
Ġfor mer
Ġbe gan
Ġde ath
Ġk ill
ik a
Ġteam s
Ġbu ild
Ġp ar
ĠA m
Ġre f
ĠH er
Ġpl ace
Ġwe ightlifter
Ġspec ies
n e
v en
in s
or p
al d
Ġd id
ĠN orth
Ġg o
ĠE d
oun c
ign ed
Ġ195 2
Ġest ab
v ed
Ġc ould
Ġb oth
Ġd istrict
Ġg u
Ġpro t
Ġle ft
Ġj oin
Ġloc al
urn ed
Ġact iv
ĠCount y
Ġs m
ur y
ell er
iel d
u k
ar ge
Ġc ity
ic ian
ĠS ec
Ġ19 0
ist s
av y
Ġplay ed
ren ch
1 8
is e
ĠM an
ĠR uss
Ġpro duc
Ġpro gram
Ġr un
ak ing
ang u
ĠAr my
Ġelect ion
f ul
Ġb el
ad a
ĠR o
un g
Ġ201 5
um b
Ġv ar
ous e
Ġcl ub
Ġapp oin
Ġman y
C A
a ff
e ed
h am
m s
in es
er ing
Ġs ame
al if
ond on
Ġpre v
ĠEng lish
ĠRep ubl
l ing
Ġa uthor
as ter
Ġm id
Ġd em
Ġh ow
Ġh ome
ĠD ivision
ĠF ootball
ĠG eneral
Ġg radu
og ra
Ġare a
ĠGe or
om an
Ġ1 1
Ġ1 4
iv il
ir d
ĠF rench
Ġex pl
we ight
Ġbu ilt
aj or
l er
v i
he l
ĠC ity
ag es
ount ain
lect ion
Ġpubl ic
ĠInd ian
Ġchild ren
a pp
b y
c om
i ent
l p
Ġp resident
ĠT r
Ġl ast
ĠD uring
ĠL ondon
ĠJew ish
ĠPart y
o ir
s ide
u ally
ĠS e
ĠS w
Ġm ilitary
ĠR oyal
ĠL ake
ĠO r
Ġal ong
end ed
ial ly
Ġdis c
rib ut
Ġpolit ician
Ġprom ot
Ġtit le
. .
a use
n a
v es
Ġa ir
Ġp oin
ĠB el
id ed
av ing
ear ch
Ġcomp any
Ġen g
Ġsur v
Ġdeb ut
Â ł
Ġ Ã
on om
Ġs o
re w
al th
it ions
it te
il ity
iv en
Ġres ult
ourn ament
ĠEurop ean
c o
g ed
ar s
Ġin c
Ġc r
Ġl ong
ĠR e
us ed
Ġan y
oc ial
ant s
ĠCom p
Ġappoin ted
a e
c er
e h
r id
Ġ Ð
al es
Ġd if
Ġl it
Ġl and
em en
âĢ Ŀ
Ġv ill
Ġpro fess
Ġpolit ical
ounc il
c hed
Ġs y
al ian
al ity
Ġp ost
Ġp resent
ĠM ich
em p
Ġn ational
Ġe ach
et y
ow er
ĠE x
ect ion
Ġar ound
ord ing
land s
Ġcomm un
Ġhous em
Ġear ly
i um
n er
t ing
in ess
er a
Ġf ac
ĠA b
el s
ur al
et h
ĠF rom
Ġg eneral
art ment
Ġv ot
ĠCh rist
ĠIt alian
ĠAr t
Ġcl aim
Ġman ag
ĠPar liament
ĠJew s
Ġmov ed
min istr
t le
Ġw orld
at a
ĠC up
Ġ2 3
ĠD istrict
id es
oun g
ĠQ ue
Ġwrit ten
Ġdescrib ed
i ber
o or
en g
ĠThe re
Ġbe g
ard s
Ġch ar
Ġsh ow
ex t
ĠâĢ ľ
Ġsuc cess
ĠTurk ey
an ge
Ġo b
Ġf ather
om b
Ġm od
Ġh igh
Ġ2 4
et s
ra ft
Ġch ampionship
ĠSyri an
a is
a ur
b le
f ord
t i
y s
z e
at s
ĠP resident
Ġl aw
Ġhe lp
ut en
us iness
Ġch urch
Ġcl ass
Ġ18 8
Ġadd ition
Ġkill ed
i ence
l in
is on
Ġm ajor
ĠT om
ĠM on
Ġ2 5
ĠP e
ĠB e
ĠD e
Ġn amed
Ġis s
ĠE duc
Ġ201 4
ul l
Ġr ight
ie uten
ib le
Ġdirect or
osp ital
Ġbuild ing
Ġprev ious
itte e
ieuten ant
a f
k s
k ed
r ing
Ã ¶
Ġf ive
am a
st er
ur d
et te
Ġst ation
ĠO g
os ed
ĠU K
ill ion
ĠCh ar
ĠY emen
Ġcount ry
ĠPort ug
Ġvi ol
Ġsm all
r ol
Ġc ame
ĠM or
st em
ĠI ran
ĠP al
ac hed
iv ely
Ġn omin
Ġth ird
Ġan other
Ġcon d
ort hern
ov e
ell ow
ment s
Ġcomp let
Ġex per
ect ed
ward s
oci ation
Ġed uc
i am
m e
in c
re en
Ġb and
Ġb est
Ġp ass
ĠS ch
Ġre st
Ġn orth
ĠL ac
ĠIn ternational
ĠAl l
Ġserv ing
Ġelect ed
Ġreport ed
ĠSa udi
Ġcurr ently
ĠDemocrat ic
a ut
m it
Ġ ri
en us
ar m
Ġin t
Ġc are
Ġp op
ĠC o
ent ion
ĠM al
ĠH amp
ĠH ouse
Ġl ed
Ġl arge
ec ut
im in
Ġg iven
ĠSen ate
ĠSen ior
Ġoffic ial
ogra ph
r ich
u ch
Ġ &
he s
Ġthe se
ar ed
Ġc amp
Ġm er
Ġh and
il le
Ġre qu
Ġ2 2
ĠK ing
qu e
ical ly
Ġwork s
Ġsur f
Ġvill age
g et
at ure
es p
Ġd ist
ĠC our
ĠI I
ĠI r
Ġe arn
and er
Ġwh at
hi le
Ġ18 9
Ġpart icip
Ġad v
che s
o ff
Ġ ,
en ces
an c
Ġto tal
ĠT ex
ĠA f
ĠC ast
ct or
od y
Ġch art
ĠComm ission
ĠInd ia
Ġoffic ers
Ġper for
Ġmar ried
ech n
Ġstart ed
Ġdif fer
ĠHamp shire
b ec
f l
Ġ Â
Ġs on
Ġs old
is l
Ġc ivil
om et
Ġl ake
ot s
ĠE l
Ġ201 0
Ġ201 2
Ġde g
ort s
Ġpro ject
our s
Ġr ound
oun ced
Ġbec ause
let ree
Ġro ad
inn ing
ĠCan ada
ĠOg letree
1 2
1 6
a x
d om
Ä ĩ
ar i
ĠA cc
ĠM us
Ġl ife
Ġn ext
Ġ200 8
Ġinclud e
Ġret urned
ĠEng land
Ġmat ch
Ġbro ther
Ġjoin ed
ĠTex as
i od
u es
u el
v ers
Ġt our
Ġw in
an ish
at ely
ar a
it iz
ic es
Ġm ark
ĠA g
ol ic
ad em
ĠP ika
Ġpro p
Ġle g
Ġy oung
Ġpart y
Ġreg ion
Ġinv est
Ġcre ated
angu age
ĠRepubl ican
vi ew
Ġchar ac
ĠEduc ation
d le
l o
t he
z er
Ġ '
en a
Ġw ro
Ġs l
Ġp erson
le v
Ġh aving
ur ther
Ġe ff
Ġpro d
low er
ĠOn e
ĠSyri a
ret ary
itiz ens
Ġwro te
r u
Ġ el
Ġf ew
Ġf ield
Ġb usiness
Ġp e
Ġp o
Ġd augh
ĠP eople
Ġv o
ĠCh urch
Ġserv ice
Ġ3 0
Ġwe ek
Ġover all
Ġfound ed
Ġent ered
Ġrepresent ed
Ġhist ory
u ge
Ã ¼
Ġa ut
Ġw ent
re am
al f
Ġf und
Ġf act
Ġf ellow
Ġc he
Ġc ric
ĠA c
Ġd ue
ĠC ouncil
ist ed
ĠW hen
Ġ201 3
Ġcon stit
Ġsh ort
Ġj ust
Ġreg iment
ĠPh il
Ġann ounced
h a
h y
i Äĩ
j i
s y
Ġt imes
Ġa ge
Ġs ent
Ġo pp
al c
Ġin ternational
as tern
ĠS k
Ġm y
Ġm illion
ĠH ar
ac es
ac her
ce pt
ĠW ill
ri es
Ġcon c
our ce
if ied
ĠSt reet
Ġor d
Ġres earch
Ġro le
sp ort
Ġinv ol
ĠChampionship s
Ġam ong
Ġla un
ĠAustral ia
ĠDep artment
Ġsurv ived
Ġsy stem
ĠCour t
g er
w ell
Ġt w
in i
or ies
Ġw ater
Ġo ld
re st
Ġf ace
Ġp ut
ĠS up
Ġm ass
ĠH ow
Ġ2 1
ĠB ro
ĠG ood
ĠE ast
est s
Ġr ank
ep end
ap an
ail ed
Ġspec ial
Ġfour th
Ġcontin ued
Ġproduc ed
Ġpromot ed
ĠAcc ording
c k
g y
o x
s hip
y le
Ġ ec
Ġs hip
Ġm ult
ĠM ed
Ġl ight
ir c
Ġn ov
Ġfor ces
ut y
Ġor der
iz ation
man n
ĠAn g
emb ly
Ġdirect ed
ĠFran ce
Ġaward s
Ġpos ition
Ã³ n
Ġvis it
Ġpoin ts
Ġlit er
Ġprofess ional
1 7
b or
s c
Ã ¨
Ġ $
Ġ ident
Ġ very
he ast
en se
en cy
Ġs im
re ad
Ġf if
Ġc a
Ġm et
ĠC he
ĠC ath
ĠR ober
ĠJ os
Ġg ame
Ġcon str
ĠIn c
ĠCh in
ĠCh ina
end ing
Ġex t
cl ass
ĠTh om
Ġrep l
Ġplay er
ĠComm ittee
Ġper iod
use um
Ġart ist
ĠCent ral
ĠAustral ian
Ġsurf ace
Ġinvest ig
b and
e ep
l ished
n ess
r ound
w est
w ork
at ives
Ġs ide
Ġs ite
Ġc rit
Ġc ase
le x
ĠA th
Ġ1 00
ĠM usic
ĠH en
Ġ2 6
Ġl arg
Ġl ieutenant
ĠD av
id s
ĠL eg
ĠG l
ĠN o
Ġ( "
Ġg enus
ĠW il
and ing
Ġst ated
Ġbe h
um an
ian s
hi b
ain s
Ġpro per
Ġar r
Ġbec ome
Ġ- -
Ġme et
Ġmon th
Ġfeat ured
Ġestab lished
ĠRuss ia
oir ang
Ġhousem ates
Ġconstit uen
e al
r d
t r
Ġ if
Ġt y
er y
on ly
on str
an e
is c
re ed
Ġf oc
Ġf urther
es h
ĠS erv
Ġd et
ĠM art
ĠH orn
iv al
id ae
ĠR es
ĠJ apan
ĠW ood
ber t
Ġal low
ri end
ul ation
ĠIt aly
ĠPar k
Ġqu alif
ific ation
Ġaward ed
ask et
Ġestab lish
Ġnomin ated
ĠThom as
ĠAth let
" )
i et
m i
p ar
w ater
Ã Ń
Ġt ake
Ġt ournament
er al
Ġs ol
Ġs outh
Ġin st
it ar
Ġb omb
Ġb ody
ĠS ing
ĠS hire
Ġto wn
Ġm ot
ĠA ir
ĠC am
ĠM ountain
Ġre ached
ĠP er
ĠP re
ac y
Ġl ine
ĠL ou
ay s
us es
ĠN ot
ist ry
Ġst ory
um p
ĠK h
ud e
ab or
Ġch ang
Ġle t
Ġ198 0
Ġatt ended
fer ence
Ġelect ions
Ġus e
Ġro om
Ġind ust
ony m
Ġhist or
Ġref uge
Ġactiv ities
Ġcomplet ed
Ġcharac ter
Ġdaugh ter
1 3
b ur
e ated
i pp
m ing
n ect
Ġc apt
Ġp res
ĠT e
ĠM ir
ol ut
el a
Ġ2 9
ĠB at
ĠB ar
ĠD r
ĠD ef
Ġn ow
Ġe p
ĠR ev
ig an
ĠF C
ĠG ra
ĠN avy
Ġg ener
ce ed
Ġst reet
th ough
ĠO x
Ġ201 1
ĠIn stitut
Ġpl aced
Ġev en
ach ing
Ġ198 3
Ġwork ing
ind o
Ġstud ied
ĠSh indo
Ġcons id
Ġlead ers
ĠPol it
Ġcent ury
Ġcour se
Ġeng ine
ĠMich igan
ĠIr ish
Ġdiffer ent
Ġdeg ree
Ġec onom
Ã¨ re
asket ball
1 5
b lower
d en
t ar
Å ¡
in k
at in
Ġs ign
Ġc itizens
Ġb at
ĠS ome
Ġh ost
ĠM ember
ĠH igh
Ġ2 7
Ġl ike
ĠThe se
ĠB er
Ġn e
Ġn ight
ĠL iber
ĠF l
ĠW all
ĠW omen
ĠW hile
ra in
ain ing
av i
ĠAr ts
Ġad ministr
Ġ200 7
Ġ198 7
Ġplay ing
ator s
ĠQ u
ĠCl ub
ĠSc ott
Ġappear ed
Ġcurr ent
ĠGeor ge
Ġcommun ity
ĠCath olic
ĠHorn blower
e e
k n
k et
Ġw ife
Ġs w
Ġs um
ic o
ĠS an
ĠS al
Ġd am
Ġh it
ĠM c
ĠM u
ĠM ad
ĠM un
ĠH ol
ur s
ac re
Ġl ate
ĠB l
ĠB y
ig a
Ġ( )
ĠW e
ag az
ag uen
ĠO ff
hi ef
ab el
Ġle ague
Ġoff ice
Ġplay s
Ġ199 0
Ġ199 9
Ġevent s
Ġcol l
Ġstud ents
Ġco al
ĠAss ociation
Ġvar ious
Ġhow ever
ĠWill iam
Ġnov el
ĠAthlet ics
M CA
i Ã¨re
s k
Ġ X
Ġw oman
an i
at ic
Ġs it
Ġs aw
Ġin j
Ġc and
Ġb all
Ġp at
Ġp ri
ĠS hi
ĠS ince
ĠS ocial
ĠS ource
Ġre ad
ol a
ur t
ur ity
ir l
ĠD on
Ġhe avy
ut e
Ġwith out
Ġr ally
ĠIt s
ug g
ĠY MCA
Ġ198 2
Ġ192 9
Ġ196 8
Ġind epend
ĠAss embly
ĠReg iment
augh t
Ġgradu ated
Ġlaun ched
ĠHow ever
aguen ay
a ul
b oard
e le
i ers
l ated
m ar
s elf
Ġ <
Ġa ff
in clud
or ed
Ġw ay
an ces
at us
Ġf un
Ġf riend
es tern
Ġb ase
Ġm ean
Ġm other
Ġd own
Ġh old
ĠH a
Ġ2 8
ĠB oard
Ġn ort
Ġth ose
Ġe very
ĠL aw
ĠG ames
ĠN orthern
Ġg un
Ġan ti
os s
os ition
est ed
Ġr en
ish op
ap e
og n
Ġar rest
Ġ200 6
Ġ199 6
ĠPar aly
Ġstud io
air s
ĠArab s
oci ety
ĠâĢ ĺ
form ation
Ġtr ack
Ġeduc ation
ĠChin ese
olut ion
ĠPolit ical
o f
t a
v ille
y a
Ġa way
Ġw at
Ġw ind
Ġs out
re ak
Ġc ast
ĠS aint
ĠS aguenay
om ing
Ġm ountain
ĠT ran
ĠC alif
Ġh on
ent al
ĠH as
iv iÃ¨re
ir st
Ġn eed
ĠL a
Ġg ather
ri pt
Ġv ict
ub a
ap er
orn ia
Ġ200 9
over ed
Ġcont rol
Ġdes igned
med i
Ġoffic er
ĠPro v
Ġ193 0
Ġass ist
Ġsong s
Ġmed al
ĠAnd erson
Ġopen ed
Ġorigin al
ĠMid lands
Ġdem onstr
ĠQue bec
Ġiss ued
Ġviol ence
ĠPal est
Ġearn ed
echn ology
ĠAc adem
ĠGood rich
Ġcand id
ĠCalif ornia
' t
3 0
e lection
i j
p ez
Ġ ill
Ġs ess
Ġs ocial
re y
re land
Ġf ree
Ġf ull
ĠS u
ĠS er
ĠS am
ou d
Ġto ld
Ġto get
Ġm ake
ĠA ct
Ġh us
ĠM il
ĠM ost
Ġre b
ro v
ĠI reland
ĠP ri
Ġl ost
ĠR ec
ĠL ist
ĠL ater
Ġas ked
ĠG overnment
ĠG rand
ag ed
ag ing
Ġv ide
Ġch ampions
Ġex hib
se qu
Ġag ed
pl oy
Ġrele ase
Ġcompet ition
ĠSp anish
ĠAmer ica
ough t
row d
Ġrel ations
ĠGerman y
ĠRo ad
umb ent
ĠGeor g
com ing
ĠSw ed
Ġvot e
ecut ive
ĠKing dom
lev ision
ĠDav id
only includ
Ġtoget her
onlyinclud e
J ean
a ign
m b
m en
o z
r ant
u ation
on t
or al
an ies
Ġf em
Ġc ult
Ġc ross
Ġc rowd
Ġb asketball
Ġp ort
Ġd u
ĠM et
ĠH ot
ĠH ung
ĠH ospital
ro y
Ġl anguage
ĠB ie
ĠD an
ĠD irect
Ġfor med
ĠL Ã³
ĠF irst
ĠJ er
ĠG eller
un t
un ch
ĠN a
ĠN or
ĠW alk
ri an
op e
Ġv ers
Ġr iver
ak es
ord s
Ġ3 1
Ġj ourn
Ġcomm ission
Ġfin ish
Ġ197 0
Ġpr im
Ġsa f
Ġlead ing
Ġra il
ron t
Ġconf ir
ĠSec retary
ĠComp any
Ġfif th
ĠHen ry
Ġrefuge es
ĠInstitut e
agaz ine
Ġheavy weight
Ġhus band
ĠBie ber
ĠLÃ³ pez
1 0
> <
m ad
n ing
r s
r is
u ter
u ese
v ent
on el
Ġin it
Ġin fl
es ters
Ġp ower
ĠA ward
Ġd ou
am b
iv id
em s
Ġe ight
ĠF in
ĠF ilm
ĠJ ames
ĠN e
ist ic
ĠW h
ĠK urd
Ġv ia
if f
od e
ĠSt ud
ell ing
Ġcomp anies
Ġare as
ect ive
Ġar my
uc k
ĠV ir
Ġte levision
iz e
let on
Ġrec ogn
ĠPar a
ric a
Ġret urn
ĠCent er
Ġfootball er
Ġopen ing
Ġdevelop ment
yn ette
ĠRuss ian
Ġmid dle
Ġbeg inning
ĠPe ter
ĠPortug al
Ġord ered
ĠSup er
E O
a el
b ed
c her
e in
g a
g in
i ences
t ime
in o
Ġw est
at ter
Ġs k
Ġs urn
is ation
ar r
Ġf ire
ic les
Ġm outh
Ġm aster
Ġm uch
ĠC ons
Ġh ours
ent y
ĠM useum
ĠP et
iv ate
ot a
ĠJ ac
ĠG r
ĠN et
Ġg ames
Ġg reat
and s
Ġst yle
Ġan aly
os en
ra el
ian g
all s
ak h
Ġle ast
ĠY ou
Ġte acher
Ġ200 1
Ġ200 3
Ġ198 4
Ġ199 1
Ġdis p
Ġwe ap
Ġus ing
Ġ5 0
Ġ195 6
Ġim medi
Ġ196 0
ĠFor ce
Ġdo ctor
ĠPol ice
Ġmed ia
Ġimp ort
Ġexp ress
Ġtop onym
Ġorigin ally
ĠMin istry
Ġauthor ities
Ġexpl os
rid ge
Ġfac ility
Ġclaim ed
Ġcare er
isl ative
Ġconstr uction
Ġconstituen cy
Ġcoal ition
, "
C omet
b e
g o
i h
i ated
k o
r ac
s is
t ies
u x
w ar
Ġ /
Ġ Ñ
Ġt arg
ed o
Ġw id
Ġs en
ar ing
Ġf ight
Ġc as
Ġb oard
om p
ĠT ournament
Ġd ra
Ġh ospital
Ġh alf
ĠM e
ĠP at
ur b
Ġ19 20
ĠB ud
Ġe ast
ĠR u
et t
ut ure
im ate
ĠW ynette
Ġst op
Ġst ill
ul f
ian a
ĠHe alth
Ġr ad
ak en
ill board
Ġpl an
ound ed
Ġar ch
amp ion
Ġpol ic
Ġsh ot
ĠPro fess
Ġind ivid
Ġdef eat
Ġcount ries
ĠIs rael
Ġdec ided
Ġac ross
ĠPr ice
Ġmon ey
Ġday s
Ġvi ew
Ġconf l
Ġdevelop ed
Ġresp ons
ĠGu ards
Ġter m
ĠMin ister
Ġbel ie
emp or
ĠChar les
ĠPortug uese
ĠCast le
Ġinvol ved
Ġmonth s
Ġep is
Ġeconom ic
ĠAcadem y
Ġvide o
ĠDirect or
Ġsurn ame
. ,
B illboard
I C
L A
c is
e ad
h and
i br
m ost
o og
y ear
z en
Ð ¾
Ġ z
Ġa v
in ed
on ed
or ation
it ing
it her
Ġc or
Ġc ap
Ġm aking
le ment
ĠT am
ĠA k
ĠA p
ĠC ard
ĠM en
ĠM oh
ĠI d
ĠP an
Ġl im
Ġth row
Ġ20 00
us al
ĠF alc
ĠG al
ĠO ut
Ġcom b
ate g
Ġv on
Ġv al
Ġde ad
Ġr ed
cl us
Ġy ou
Ġte x
Ġ200 4
Ġplay ers
Ġ199 3
Ġcont ribut
Ġcol lect
Ġnew sp
Ġpr ison
Ġ194 8
air man
olog ical
ĠArab ia
Ġsing er
Ġacc ount
ke ter
ĠAd ministr
ĠPl at
Ġcour t
icip ality
Ġstr ong
Ġter rit
orp edo
Ġbel ong
Ġclub s
ĠMich ael
Ġcamp aign
Ġperfor man
Ġaut om
Ġconc ern
ĠFalc Ã³n
1 4
A n
i us
k a
l im
l ess
n ey
y r
y an
Ã ¸
Ġ 0
Ġ ice
Ġt ri
Ġt orpedo
Ġw inn
Ġs igned
is ing
re ational
al t
Ġf e
Ġc irc
es c
Ġb as
Ġp m
ĠT al
Ġd est
ĠC op
am i
ĠM ilitary
ac ing
Ġl ow
ĠB en
Ġe qu
id ing
ĠL os
ĠL ov
ay ing
us h
ch ie
Ġg l
Ġg ood
ri k
av al
Ġpro cess
our ces
if y
Ġse ven
ight s
ep h
ect or
erv e
Ġ199 5
ĠAn n
Ġsc reen
Ġfollow s
Ġstud ies
Ġ192 7
Ġ192 8
Ġret ired
Ġhim self
Ġass oci
Ġmov ement
Ġcar ried
Ġfeat ures
eller up
ĠRepubl ic
ĠÃ ł
eth od
Ġmod ern
ĠAf rica
Ġtour ism
Ġcrit ic
ĠWil son
Ġestablish ment
ĠLou is
bur g
Ġnort heast
ĠWalk er
Ġconfir med
C h
d ay
i que
m m
m as
o le
p le
p ro
r ican
s ection
y l
z a
in t
ar ies
Ġin s
it ive
Ġf ig
Ġb ank
ic ut
ĠS m
Ġm ob
ĠT on
Ġd iv
Ġd ram
ĠM ul
ĠH ay
ec ially
ĠThe ir
ir a
ĠB ishop
ĠD en
ĠR am
ĠR ich
ig er
th ur
Ġwith in
ĠO ther
um ent
oc cer
ĠK ong
ud on
Ġr an
ĠSt aff
Ġsp e
Ġ18 5
Ġ18 7
Ġab le
Ġ198 9
Ġ199 4
wo od
Ġapp ro
ip le
Ġfin ished
Ġreg ular
Ġcol lection
Ġpr ivate
ĠComm un
li er
way s
Ġform al
Ġattack ed
Ġrem ained
Ġsix th
Ġrecord ed
Ġoper ations
ald ing
Ġright s
ĠIran ian
Ġcond uct
ograph y
Ġmass acre
ĠLeg islative
Ġproper ty
Ġarr ived
Ġgather ed
ĠJer usal
Ġrail way
Ġimmedi ately
M A
R eg
a o
b ot
b ek
m ark
p ted
s el
w rit
Ġt aking
er em
on es
en e
Ġw arn
Ġs qu
re g
it or
Ġf ind
Ġb o
ic le
ĠS un
ou l
ĠT ay
Ġd el
ĠC EO
Ġh om
ent ial
ĠM ount
Ġre view
Ġre election
ĠH am
ĠH ong
ad ium
ĠP and
Ġl iving
Ġon ce
Ġ19 19
ir on
ĠB r
id ence
ut her
us p
ĠF ound
ĠW ith
ber g
ĠE m
ĠE ar
est ing
ul a
ud ge
op s
ab ly
Ġpl ann
Ġar med
ord an
Ġ18 0
Ġ200 2
Ġbec oming
Ġsc ience
Ġus ually
Ġup on
Ġen l
ĠSp alding
Ġ17 9
Ã¡ n
Ġdef ending
Ġdo es
Ġcre w
ĠAd ela
Ġgroup s
alk in
Ġthrough out
ĠFran cis
ĠCar ol
Ġtrans fer
Ġph ys
Ġocc urr
Ġprot esters
Ġdisc uss
.. .
Ġpresent ed
Ġhousem ate
Ġsold iers
ĠMus lim
Ġmark et
ĠPika uba
Ġprod uction
gy pt
Ġliter ature
Ġca used
ĠRober t
ĠInc umbent
Ġty p
Ġqualif ied
Ġchang ed
Ġindust ry
nect icut
ceed ed
Ġwat ers
Ġsess ion
ĠJerusal em
Reg ional
ĠAdela ide
4 6
F A
L ac
S T
S c
b ach
c raft
g n
l ied
y ga
Ð µ
Ġt alk
er ation
or ter
Ġs hi
Ġf ood
Ġc ur
Ġc erem
Ġp ast
Ġp urch
ĠS ur
Ġto w
Ġm ach
Ġm ission
le ar
ĠT own
Ġd ate
Ġd ivision
ĠC ro
ĠC ong
Ġh app
ol l
ol it
ĠH ist
ĠP aul
Ġl ik
ĠD o
Ġe ither
ĠR ang
ĠR oman
ĠF er
ĠG all
ĠG roup
ist an
Ġst at
Ġst ar
Ġst aff
ĠE gypt
Ġal leg
Ġal though
um my
ĠU k
ĠK e
res h
Ġch ampion
Ġse at
end er
Ġle ct
Ġk eep
ĠAr thur
Ġcl ose
ubl ic
Ġ198 5
Ġ199 2
Ġ199 7
Ġdes ign
mp ic
Ġreg ard
Ġother s
Ġcol lege
Ġ197 4
Ġ194 0
Ġ194 4
Ġ193 4
Ġent ire
Ġacc ess
Ġdef eated
Ġprov ided
Ġattack s
Ġra ised
Ġme ant
Ġfl oor
Ġnear by
tal ion
Ġgo ing
ĠEd ward
angu ages
ĠQue en
Ġsuccess ful
ĠBe ach
Ġri ots
Ġpop ular
esp ecially
ĠAf rican
Ġperfor med
Ġcric ket
Ġcric keter
ĠSk ellerup
Ġmult iple
Ġmot or
Ġgener ally
Ġconsid ered
Ġcoll abor
Ġinj ured
Ġren amed
Ġarrest ed
ĠTran sport
Ġvict im
Ġcandid ate
ĠSwed ish
1 1
2 5
M e
M oirang
S aint
T h
k y
m a
p i
r ight
t ic
Ð ¸
Ġ !
Ġ [
Ġ ide
Ġ especially
Ġt en
Ġt rad
Ġt urned
Ġt aught
he m
he re
in ary
on n
Ġs il
Ġs em
Ġs ound
Ġs up
ar ch
al ed
ic ular
Ġp ay
Ġp aint
ĠS ant
ĠS ass
Ġto wards
om m
Ġm iss
ĠT or
ĠA wards
ĠC orp
ĠC ivil
Ġh ot
il ar
am in
ĠM at
ĠM os
ĠM ore
Ġre al
el le
ĠH ill
ad ed
ur a
ur er
Ġl ived
ĠB ac
ĠB ay
ĠB ra
Ġn on
Ġn orthern
ĠR en
Ġhe alth
ĠL og
ay n
ĠJ ust
ĠJ ordan
ĠG old
ĠG reat
ĠN eh
Ġg ot
ĠW in
ĠW estern
ĠE st
est ry
Ġcon v
ĠK ar
hi o
Ġr ul
ak er
ill a
ust r
Ġar ran
Ġar ms
Ġsp ent
Ġsp ir
out e
Ġcl os
Ġres ident
Ġpart icular
Ġ200 5
Ġ198 8
Ġ199 8
Ġsc ient
Ġcomm and
Ġcomm ander
Ġout side
Ġ197 7
ail ing
19 9
ather ine
Ġthem sel
Ġ16 6
ans as
Ġqu ar
Ġcount y
Ġsub ject
Ġsub mar
ĠCon t
Ġalbum s
Ġwrit er
Ġprov ince
Ġmat ches
Ġmain ly
ĠDep uty
Ġocc as
Ġocc up
Ġproduc er
ĠAb d
eng th
Ġofficial s
Ġeff ect
ĠAng el
Ġmeet ing
ĠOff ice
ele br
Ġjourn al
ĠVir gin
ĠJac ob
Ġsen ior
ĠProfess or
empor ary
ĠFound ation
ĠCong ress
ĠSass un
Ġthemsel ves
A C
c ent
c ol
c ast
c ient
f one
g ress
h ood
l ine
n el
p s
p ort
s erv
v an
v ement
ã ĥ
Ġ Å
Ġt urn
Ġt aken
er ous
or m
an op
an ey
an fone
Ġs ke
al ia
al ais
Ġin str
it ect
Ġf ar
Ġf low
Ġc ert
Ġb i
ic he
Ġm ethod
le te
ĠA ff
ĠA lex
ĠC ow
ĠC ap
ĠM k
ĠM o
ĠM ex
Ġre ve
ol i
ĠI m
ĠI ra
ec k
ĠB ut
ĠD es
Ġn ever
Ġfor ced
Ġe ver
ĠL ong
ut es
ĠJ on
ĠG ulf
Ġst and
Ġst ars
ag ement
Ġwh om
ian o
ĠK ilm
hi er
ĠIn ter
av a
pp ed
od es
Ġch osen
ĠSt ein
Ġse en
ell ed
qu es
Ġk ey
ord er
Ġnot able
Ġab s
Ġrec reational
ĠCol umb
ĠZ yga
Ġpr act
Ġstud ent
Ġ194 2
aj i
Ġass ociation
ock ey
Ġend ed
Ġrece iving
ĠCl ass
Ġcent re
Ġtit led
Ġappear ance
Ġpos s
ĠEurop e
Ġbl ack
Ġdr ug
Ġem er
ĠSec ond
CA A
ĠSe a
Ġmanag er
Ġsl og
Ġpo et
ĠServ ices
Ġlet ter
ĠDef ense
ĠScott ish
ĠParaly mpics
Ġsout hern
ĠHas well
ĠPalest ine
Ġvers ion
Ġprim ary
Ġepis odes
ibr ary
Ġterrit ory
Ġperforman ce
ĠMul aney
Ġwaters hed
2 00
I I
b an
b reak
f ield
g u
g es
t is
u f
v iron
w ing
y er
z h
z il
Ġ ens
he im
or a
or i
en ed
an o
Ġs an
Ġs usp
Ġo vers
al a
Ġof ten
Ġc ouncil
Ġp ark
ĠS ociety
ĠT er
ĠT echnology
il ed
ĠM as
ĠM ac
ĠM ary
Ġre v
Ġre ach
ro s
ad i
ad ian
ĠP ublic
ĠB h
ĠB or
ĠB ank
ĠD ar
ĠR ub
ĠR ap
ĠL ab
ĠL uc
ay ed
im a
ĠG aut
ĠG alkin
ers hip
ĠN CAA
Ġg ave
ct ion
ĠW ag
ĠW ales
Ġst aging
ĠE astern
ag a
ĠO hio
ri a
ĠK R
ĠK ir
ak a
pp er
Ġse ek
Ġcomp uter
mer ged
Ġle vel
ond ed
Ġun iversity
lect ed
ik h
Ġsh ould
Ġ198 6
Ġserv es
Ġsu ff
Ġdis pl
Ġsc hed
ollow ing
arn ock
Ġthem e
ph oon
Ġent er
Ġsing les
ten eg
ĠCl a
Ġsub sequ
Ġcar s
ĠPol ish
ĠSc ot
Ġed ition
ĠRep resent
Ġschool s
Ġadd ed
ĠPh anfone
Ġorgan iz
Ġtra in
Ġbl ock
Ġvis its
Ġresp ect
Ġpar liament
Ġpoin t
Ġresult s
ĠChrist ian
Ġprevious ly
ĠÂ £
Ġopp osition
read y
Ġfoc us
ĠJapan ese
ĠNot able
ĠBer lin
ĠMun icipality
Ġsaf e
Ġweap ons
Ġtex t
ĠPlat oon
ĠPand it
Ġoccurr ed
Ġcerem ony
ĠBra zil
ĠVirgin ia
ĠKilm arnock
ĠStein mann
Ġslog ans
ĠGaut hier
2 1
8 8
G O
Y ummy
e es
g en
h old
l it
p ur
r n
r act
u als
y d
Å Ħ
he ad
at ov
at ics
is es
re es
Ġin f
Ġin stitut
it zer
Ġf ear
Ġf ailed
Ġf resh
nd er
Ġb r
ic hel
ing ton
Ġp ur
Ġp ow
ĠS l
ĠS out
Ġm em
Ġd one
ĠC amp
Ġh ig
Ġh uman
ĠM a
ĠM em
ĠM od
ĠM oirang
ol k
ol es
st on
ĠH unt
Ġl ive
Ġl ives
Ġl abel
Ġl atter
Ġl ength
ir th
ĠB est
ĠD or
ĠD ave
Ġth ough
Ġfor t
Ġfor ce
ĠR ally
ĠL u
ay i
ĠF ed
ĠF ore
ĠJ o
ĠJ ers
ĠJ ean
ch ol
ĠN ap
ĠN iger
Ġg et
ĠE v
ĠO ver
Ġal most
ri al
ĠU rs
ian ce
ĠK ansas
Ġv ol
av es
av el
Ġr ange
ak i
Ġch ose
ĠCh alais
Ġse x
Ġse ats
Ġse par
Ġpl at
og er
qu ar
Ġex ist
ĠUn ion
ict ion
Ġev ac
Ġy outh
ĠV o
ĠV al
Ġun c
Ġnot ed
Ġ18 4
und red
Ġad apt
per t
oy s
aw ai
Ġdis s
Ġsec urity
Ġcomm on
uct ure
Ġ195 0
Ġact ive
Ġ197 9
Ġkn ow
Ġfollow ed
Ġ192 6
ĠPro t
Ġ193 7
Ġco ach
Ġacc ording
ĠAs ian
Ġart ists
Ġsub merged
Ġinter view
ĠIs land
ĠSc iences
Ġset t
Ġmed ical
Ġear th
Ġown ed
ĠPr ime
ĠCan adian
Ġsuc ceeded
Ġph il
ĠTurk ish
ĠAnd r
Ġresp onded
Ġem ploy
ven ue
ĠRo om
Ġinc re
ĠChrist mas
Ġmanag ed
Ġbeg in
Ġ188 7
ĠMon teneg
ĠChar l
esp ite
Ġparticip ated
Ġpe ak
sy ch
Ġsim ilar
ĠJos Ã©
Ġlarg est
Ġinst ead
Ġhistor ical
ĠOx ford
Ġne igh
Ġadministr ative
kn own
ĠShi ji
Ġindepend ent
Ġrelations hip
ĠKurd ish
Ġimport ant
Ġtarg et
Ġconfl ict
Ġz one
Ġnewsp aper
Ġfig ures
Ġphys ical
Ġmach ine
Ġhot el
ĠIra q
b s
b ack
b ury
c ies
d uction
f in
f ic
h an
l om
m es
m ond
m ier
r or
y ing
z ech
Ġa im
Ġa chie
or ing
or gan
en ing
Ġw inning
Ġs chol
is en
re ement
re me
Ġin formation
it ude
Ġf r
Ġf ro
Ġf all
Ġf uture
Ġc am
Ġc hief
ic ated
Ġp an
Ġp ot
ĠT o
ĠT w
ĠT un
ĠA y
Ġd oc
Ġd ata
ĠC zech
il ly
il ities
ĠM it
Ġre ason
ĠH uman
ĠI gn
ad es
ĠP u
ĠP ass
Ġl ot
Ġl ook
ec ess
em us
ĠB ol
ĠB ad
ĠB ur
ĠB rand
ĠD u
ĠD ou
ĠD ubl
ĠD inn
ĠD ev
Ġn eg
id i
id er
ĠL ike
ĠF I
ĠF ollowing
un e
Ġg ren
Ġg round
Ġg irl
ct ions
ce pted
ĠW end
ĠW ind
and y
Ġwh ite
os h
ĠU nder
Ġcom ing
ĠHe ad
ĠHe br
art el
Ġde v
Ġpro ble
Ġr oute
od i
ĠCh ic
end ant
Ġex c
ict ed
erv ation
ord in
Ġun it
ry ing
ĠAl pert
ĠMar k
ult ural
Ġag ent
oin t
ens ive
Ġ4 0
Ġcol onel
Ġ197 1
Ġ197 5
Ġ197 6
Ã© n
Ġ194 3
Ġ192 1
Ġ6 8
rough t
ĠAss ist
Ġrel ated
ĠCount ry
Ġdec l
ĠReg ion
Ġac qu
Ġ191 8
Ġtrans lated
Ġorgan ization
Ġorgan isation
Ġph one
Ġrecord ing
Ġtra vel
Ġbl ood
Ġdep artment
Ġdep uty
Ġdr iver
ĠMid dle
Ġprogram s
ĠBel t
emp le
aur ant
Ġcivil ians
ĠPhil ipp
ĠJos eph
ĠServ ice
Ġsol o
ĠMu ham
Ġill ustr
ĠSu pp
>< /
Ġcas ual
Ġarch itect
Ġindivid uals
oog lin
yr ics
Me udon
ĠAff airs
ĠColumb ia
viron ment
ĠWag ner
ĠRepresent atives
ĠFore ign
ĠIgn atov
ĠDubl in
ĠDinn ayi
" :
0 2
= "
A S
B S
P eople
S t
b i
d es
e ur
e ter
e ign
h ana
i as
i ec
j ing
l an
l am
r t
r ated
w a
w en
y c
z z
Ġ â
Ġ er
Ġt ask
Ġt ribut
en ced
Ġs ister
Ġs yn
Ġs ector
ar ian
Ġin sp
it ation
Ġf re
Ġf oot
Ġc over
es ter
Ġb ri
Ġb rought
ĠS o
ĠS om
ĠS ir
ĠS ov
Ġm ix
Ġm aint
Ġd i
Ġd er
ĠM ah
ĠM agazine
el t
ĠI ves
ĠP ress
Ġl ig
Ġl yrics
ĠB orn
ĠB ef
ĠD espite
Ġn ames
Ġth reat
ĠR ay
ĠR ail
ĠR iviÃ¨re
ĠL ord
ĠL aur
ĠL atin
ĠL uther
ĠJ r
ĠG ar
Ġ( ;
Ġg rew
ĠW ol
ĠW ang
ĠE ren
ag og
Ġwh ose
os ing
os op
ul ed
oc al
ĠU p
Ġcon clus
âĢ Ķ
Ġv ac
Ġr ather
Ġch o
Ġch ange
ĠSt adium
ĠCh ance
Ġse e
ap ers
orn ey
ran ch
Ġar m
Ġsp read
ok es
ĠAr men
Ġcl imate
te en
ult y
Ġ198 1
Ġ3 3
ren g
ator y
Ġcomm it
ĠLe ad
Ġro ck
Ġact ion
Ġsecond ary
Ġret ire
Ġ196 9
Ġ193 2
ĠArab ic
Ġfam ous
Ġlead er
ĠCon ference
ĠCon necticut
Ġwrit ing
Ġtran sport
ĠPl ace
Ġbook s
ĠReg ister
ific ant
ron ze
Ġcent ral
Ġimp ro
radu ate
Ġ191 6
Ġbro ad
Ġmin ister
Ġmin utes
Ġgu itar
Ġrun ning
Ġbel ow
ogra p
Ġpresident ial
Ġair craft
Ġcommun ic
Ġhelp ed
Ġri ot
Ġint ro
Ġpop ulation
Ġleg al
Ġvo ice
Ġrepl aced
Ġsum m
Ġfun eral
Ġmean ing
Ġfem ale
Ġfight ing
Ġwinn ers
ĠLov ell
ĠLouis iana
ĠRich ard
Ġwarn ing
ĠFrancis co
Ġresident s
ĠAngel es
awai i
ĠHebr on
ĠSov iet
ĠBef ore
. âĢĿ
3 7
5 1
B C
D ecember
L GO
a un
b ar
b ased
d e
h ouse
j a
j an
k en
l a
m osp
r in
u a
u it
u le
v ention
w ide
y o
z bek
Ä į
Ð °
à ¤
Ġ esc
Ġt ro
on i
or ial
Ġw ant
Ġw ounded
Ġs ons
Ġs ales
Ġs ources
Ġo ur
ar ily
Ġin tern
as z
Ġc orn
Ġb irth
ic ed
ing ham
Ġp un
Ġp ress
ĠS S
ĠS im
ĠS her
ĠS avi
om est
Ġm ur
Ġm us
Ġm un
le an
ĠT wo
ĠT ai
ĠT imes
ĠA h
ĠA v
Ġd ro
ĠC hief
ĠC atherine
Ġh ockey
Ġh undred
ĠM y
ĠM ot
ĠM all
ĠM ass
st anding
el d
ĠH outh
ĠP ers
Ġl ack
em an
ir al
ĠB al
Ġn et
Ġth ous
Ġfor ward
Ġe t
ĠL iga
ig g
ig ital
im ar
im al
ch ange
Ġg as
ĠW ork
and ed
Ġst age
Ġst ates
Ġst ream
ĠE p
ĠO pen
Ġal ways
ĠU zbek
Ġcom e
Ġde al
Ġde ter
Ġr ace
ĠSt r
ĠSt an
oun ter
ov a
ov iÄĩ
ĠUn ivers
Ġle ave
ĠY outh
Ġsp ot
Ġk ing
ang jing
ok e
Ġte aching
ĠAr n
ĠMar c
ult ure
Ġserv ices
ip lom
ĠAn ton
Ġrec ently
ĠPar is
Ġcomm ittee
Ġout let
Ġevent ually
Ġfin ally
Ġup coming
ah o
Ġ194 6
overn or
ann ah
Ġper form
Ġ196 6
Ġ193 6
Ġ6 0
Ġpolit ics
che ll
Ġ16 9
Ġend ing
Ġevict ed
Ġcons ult
Ġmov ing
Ġmar ch
ĠIs lam
Ġrel ig
enn is
Ġprom in
Ġ191 7
apt ain
Ġtrans l
Ġhead quar
ĠAnd rew
Ġoper ational
Ġann ual
Ġpar ents
Ġgo al
Ġ190 6
Ġvar anop
ĠOr gan
ĠOr der
ĠBel g
ĠBel le
Ġprofess or
ĠEx p
Ġvot es
Ġmanag ement
Ġob ject
Ġmod el
imin al
ĠCommission er
Ġfield s
Ġfund ing
ĠMed ical
ĠRober ts
Ġallow ed
ĠMir bach
Ġleaders hip
Ġsign ificant
Ġfriend s
ĠProv ince
ĠRec ords
ĠGeorg ian
Ġdou ble
Ġanaly sis
Ġrad io
Ġav ail
ĠAp ica
ĠCard iff
Ġdest roy
ĠSm ith
ĠTon na
Ġplann ed
Sc ript
Ġpurch ased
ĠWin ter
Ġreve aled
itzer land
ĠMuham mad
ĠSupp ort
Ġbri ef
ĠLuther an
LGO L
Ġtro ops
ĠSavi ola
Ġmus ical
I n
P art
R E
R e
S X
b u
b urn
c at
g ent
g round
h ab
h ark
i y
i ro
l aw
l ike
m n
o ons
s w
s en
w h
w an
Ã º
Å «
Ġ \
Ġ ver
Ġ era
in em
Ġw ide
Ġw ood
Ġw alk
at i
Ġs urr
Ġs elf
Ġs ugg
is her
re p
re lated
it o
as o
Ġb ronze
ing er
ĠS at
ĠS ever
Ġm ater
ĠT V
ĠT el
ĠA LGOL
ĠC ross
ĠC aptain
Ġh or
Ġh op
il er
ĠH on
ĠH ous
ĠH aji
ro om
ad y
ĠP rop
ĠP enn
Ġl og
Ġl anguages
em ate
ĠB ig
ĠD is
ĠD anish
ĠD ream
Ġn ine
Ġ" "
id ge
ĠR os
Ġhe re
im ately
ĠF red
ĠJ hark
ĠG y
ĠG reen
un ior
Ġg rant
ist ics
ĠW ay
and e
Ġst ories
ĠE rd
Ġal ready
um n
ra p
ĠU N
Ġcon n
Ġcon st
Ġcon ference
ĠK im
ĠK ore
ĠK az
ĠK Ã¶
Ġv ice
Ġv oy
Ġv eh
av ed
Ġr aces
Ġr oles
ab ility
ĠSt udi
end s
ell s
og an
Ġcomp os
Ġex amp
Ġar g
erv ed
Ġk ick
ang le
Ġ18 6
Ġsh out
ĠAl f
Ġad ult
ĠMar s
Ġ3 8
Ġits elf
Ġj udge
ĠAn na
Ġman uf
Ġsec retary
Ġdes p
Ġreg ional
ĠZ h
Ġen c
Ġpre mi
sp an
ĠSp ade
Ġspec ific
olog ist
Ġass ign
Ġbet ter
Ã¡ r
Ġart icles
Ġser ious
ĠAss ad
ĠIs abel
Ġcre ating
Ġlist ed
Ġear lier
ĠSa f
Ġown er
Ġimp rov
Ġfl ood
Ġmost ly
Ġph ot
Ġcontin u
ĠMid d
Ġgu est
Ġ190 5
ful ly
Ġgradu ate
ĠTr ump
ĠSw iss
Ġdisc overed
ribut ed
ĠÃ ī
Ġcr imes
ĠArt emus
Ġshow s
Ġob t
Ã¶ n
Ġcond itions
Ġexper ience
Ġeduc ated
Ġpass ed
Ġrest aurant
mit ted
Ġrequ ired
Ġadv is
ĠÂ §
Ġperson al
Ġpe ace
ĠBro ther
Ġmult i
Ġliter ary
ĠPre mier
Ġcapt ain
ĠRev olution
rain ian
Ġdam age
Ġindepend ence
Ġtrack s
Ġexhib ition
ĠFin land
ĠStud ies
IC P
Ġdram a
writ er
Ġenl isted
Ġtransfer red
Ġlik ely
Ġvictim s
ĠNeh ru
Ġquar ter
Ġske leton
ĠMex ico
ĠScot land
Ġrespect ively
ĠUrs us
Ġsett led
Ġgren ade
ĠWend ell
ĠAssist ant
Ġlig ul
Ġconclus ion
Ġretire ment
Ġpromin ent
Ġavail able
ĠHous emate
ĠJhark hand
ĠErd ogan
ĠKaz akh
ĠStudi os
Ġmanuf act
5 0
8 0
E E
E x
I V
R A
a ia
b les
c i
c ial
d in
e ff
g ement
g ency
g raduate
i res
i enn
i ety
l ight
l oy
l ock
m ore
n ight
u ated
u ence
v al
w in
ã Ĥ
Ġ #
Ġt rop
Ġa head
on ia
on se
Ġw all
Ġs n
Ġs ociety
Ġo il
re m
ar row
al i
it er
Ġf ed
Ġf ront
Ġc al
Ġc overed
Ġc elebr
Ġb ox
Ġp en
ĠS occer
Ġm ilit
Ġm agazine
ĠT emple
ĠA re
Ġd on
Ġd raft
Ġd omest
Ġd iplom
ĠC or
ent h
il i
am m
ĠM ong
ĠM ake
ĠH and
ĠH oc
ĠH all
ĠH old
ro ad
ĠI l
ĠP ier
Ġl ic
ec ial
ir m
ĠB as
ĠB and
ĠB rom
ĠB all
ĠB ear
ĠB ond
ĠB arn
ĠD un
Ġn ation
ot te
ĠR aj
ĠR ights
Ġhe ard
ĠL i
ĠL am
ĠL ower
ĠL ove
ĠL ane
ig r
ig ible
im ated
ĠF ur
ĠG irl
ch a
ĠN ag
Ġg old
Ġg row
Ġg rand
ĠW at
ĠW ash
Ġst reng
th ing
rom aia
ĠE lect
ĠE ll
ag h
ag o
ĠO l
ĠO per
ĠO wen
Ġan cient
est ival
Ġcon nect
ĠK ok
ĠK Ã¸
all ed
ate ur
art s
Ġr is
if t
ish ing
ill s
ill er
pp ing
Ġch ap
ĠCh an
Ġpl aces
end romaia
qu art
qu ake
Ġcomp l
Ġcomp ared
Ġev idence
Ġsp orts
ĠAr gent
clud ed
Ġpart n
Ġpart ner
Ġoff ers
Ġsh ore
ĠAl so
ĠAl though
Ġinclud es
Ġag reed
Ġag reement
Ġatt emp
Ġatt ention
ind er
Ġsc ored
cho enus
ĠNew s
Ġus es
uct ions
ric k
Ġ195 8
Ġ4 7
Ġact or
ĠZ eal
Ġpr ed
ĠComm iss
az e
Ġoffic es
Ġoffic ially
Ġ192 4
ann ing
ann el
ĠSh aw
Ġ193 8
duc ed
ĠFor ces
Ġinv ited
Ġacc omp
Ġ17 7
Ġmusic ology
ĠQ at
Ġsever e
uth ou
Ġ10 46
Ġinter est
ĠIs lands
ĠSc ience
Ġprov ides
ĠFran k
Ġadd ress
ĠJohn son
Ġpos itions
Ġpos itive
ĠCent re
Ġstart ing
Ġresp onse
Ġdeath s
Ġdid n
Ġprot est
Ġjoin t
uk h
ĠMan agement
Ġrun s
ling ton
hel or
ĠSw itzerland
Ġalong side
Ġpromot ion
Ġclaim s
Ġob serv
Ġaddition al
Ġiss ues
ĠMor an
inc ip
Ġrequ est
off rey
Ġprop eller
Ġleg isl
Ġrank ed
Ġlarg er
Ġbeh ind
Ġty phoon
Ġbomb ing
Ġengine er
Ġbat talion
Ġhost ed
ĠLiber ation
ĠMad rid
Ġball oon
Ġmean s
Ġgun s
Ġwind ow
Ġhon or
Ġreb els
ĠHung ary
Ġrecogn ized
ĠRu iz
Ġrespons ible
Ġbelie ved
ĠMoh am
ĠAdministr ation
ĠTal bot
Ġmob ile
Ġstat ement
ĠUk rainian
Ġsem i
ĠJust ice
Ġsubmar ine
ĠZyga ena
Ġsched uled
Ġsubsequ ently
ÅĦ sk
ĠJers ey
Ġadapt ation
ĠCharl otte
Ġfro zen
ecess ary
ĠBrand is
ĠMall oy
rep ren
ĠSever al
Ġdesp ite
ĠHoc quart
ĠKÃ¸ pi
ĠZeal and
' "
8 3
B ig
D F
I P
S I
S ec
U n
j e
l ant
n y
n et
p in
r ay
s ar
v a
v ing
Ã ¤
Ġ ×
Ġ emb
Ġt able
Ġt echn
he v
Ġa ux
in al
in ian
on heim
ed d
or ia
Ġs oon
Ġs ailed
ar ia
al ing
al so
it t
Ġc op
Ġc orp
Ġb ring
Ġb order
ic ol
Ġp ers
Ġp iec
ĠS in
ĠS ub
ou ch
Ġto o
ĠT eh
ĠA ut
Ġd igital
ĠC r
ĠC hi
il s
il es
il ty
ĠM ain
ĠM ans
ĠM ajor
el and
ĠH or
ĠH awaii
ad or
ad ing
iv als
Ġl ess
Ġl iber
Ġl ove
ĠB u
ĠB os
ĠB ook
ĠB urk
ĠB rian
ĠD er
ĠD ign
Ġn arrow
Ġfor eign
ot an
ĠR at
ĠL ine
ay a
ay ette
im b
im ens
ĠF oot
ĠF oger
ĠJ ava
ch i
ch ing
ĠN ile
ĠN aval
ce an
ĠW ild
ĠW isc
Ġst ep
Ġwith d
ĠE ag
Ġcon cept
ĠK en
ĠK at
ĠIn formation
res p
Ġde leg
Ġpro gress
od d
ab a
ab les
ab ama
Ġch air
Ġch arg
ĠCh ap
ĠCh airman
Ġse em
ous ly
Ġex cept
Ġex ecutive
cl aim
mer cial
ran ge
rit sar
Ġfir m
ĠY oung
Ġun ique
ĠTh at
Ġrep eated
Ġab and
ition al
ĠAl abama
Ġad j
Ġad op
ĠCom ic
Ġapp eal
Ġj avel
ip ur
ild ing
Ġsc ore
Ġseason s
Ġelect ric
for med
Ġ195 5
ons in
Ġ4 1
ĠZ ion
Ġnew s
Ġpre ced
ĠComm and
Ġim m
Ġunder water
ĠPro duction
Ġ196 5
Ġcall er
ĠEng ine
ĠJun ior
Ġacc used
ĠAt t
Ġdirect ly
Ġcons ist
ors hip
Ġmov ie
ĠAs h
Ġcre ate
Ġrepresent ative
ĠReg ional
Ġme as
Ġrem ov
Ġac adem
Ġrefer red
Ġnear ly
ash ion
Ġmin or
ĠEd son
Ġactiv ist
Ġactiv ity
ĠSec urity
Ġ190 8
Ġprogram ming
Ġprev ent
Ġgradu ating
Ġpublic ations
Ġdebut ed
Ġinc ident
Ġdif fic
Ġlit tle
ĠEx change
ĠMon t
Ġsmall er
Ġexper iment
Ġpass ing
Ġmer ged
ĠII I
anc ial
omet imes
ĠMus cat
Ġfact ory
ĠPhil ip
Ġtw enty
Ġlight weight
Ġvisit ing
Ġident ified
Ġmet res
Ġinvestig ation
Ġbeh avi
ĠRes earch
Ġsum mit
Ġsit uation
ĠDon ald
ĠParaly mpic
Ġdemonstr ation
ĠGeorg ia
ĠHung arian
ĠNet work
Ġwid th
ĠPan ama
Ġlim ited
Ġcomb at
ĠEar th
ĠHist or
Ġstar ring
hem atics
ĠLog istic
ĠGold en
Ġspir it
Ġcert ain
Ġpract ice
Ġplat form
Ġexist ence
ĠMonteneg ro
ĠFI FA
Ġdecl ared
Ġcasual ties
Ġmix ed
Ġnet work
ĠProp st
Ġvoy age
Ġpremi ered
Ġligul atus
ĠFur th
ĠWash ington
repren eur
ĠFoger ty
ĠJava Script
ĠWisc onsin
Ġjavel in
Ġbehavi our
0 1
2 4
3 9
5 4
8 7
9 4
A l
B e
E A
E b
M P
P S
P ark
S choenus
b a
b ut
b ai
d oor
f urt
j iang
k i
l ife
l imin
l anguage
m ine
n g
n am
o o
o ol
o id
p an
r up
r ence
s es
u ce
v ey
Ġt reat
he astern
on a
ed s
Ġw a
Ġw alls
an ced
at t
at ically
Ġs ection
Ġs ides
Ġs ought
is ional
ar im
it es
it ness
Ġf le
Ġf ans
Ġf ashion
Ġc ou
Ġc ost
Ġc red
Ġb ow
Ġb ound
Ġb rand
Ġb reak
Ġb ridge
Ġp ra
Ġp urs
Ġp iano
Ġp sych
ĠS ol
ĠS em
ĠS us
ĠS and
ĠS ab
ĠS che
ĠS ICP
ion ally
Ġm ention
Ġm ax
Ġm useum
Ġm ental
ĠT a
ĠT an
ĠT ar
ĠT ri
ĠT op
ĠT rib
ĠA pp
ĠA zer
ĠA venue
ĠC at
Ġh arm
ĠM aim
ol s
el er
el ess
ĠH ere
ro wn
ĠI B
ĠP ak
Ġl o
em per
em pt
ir y
ir ol
ĠB a
ĠB oth
ĠB ridge
ĠD ist
ĠD ak
ĠD ue
ter ed
Ġfor estry
Ġis land
Ġe le
ot ed
ĠR T
ĠR an
ĠR ad
ĠR ivers
ĠR RE
Ġhe av
ĠL ieutenant
im um
Ġat mosp
ĠJ S
ĠJ a
ĠJ ose
ĠG i
ĠG ri
ch ant
ch yan
Ġg ra
ist en
Ġst e
Ġst one
ĠE mp
ag n
ag on
os l
ri e
ra ine
Ġcon stitut
ĠK r
ĠK ier
op er
ort ed
av or
Ġch arge
Ġch airman
ĠSt ar
ĠSt ep
ĠCh and
ĠCh ooglin
ap ore
og ne
Ġcomp osed
ect s
erv ative
Ġfir ed
ĠY ear
Ġk ind
ĠV is
ĠV ienn
Ġun f
Ġun ivers
Ġun known
ĠAr ch
Ġnot es
Ġcl osed
20 19
Ġpart ies
Ġsh op
ĠAl bum
ĠMar g
ree k
Ġj unior
Ġcont ract
Ġatt end
ĠAn th
ĠAn ne
Ġdis m
Ġsc ene
Ġelect oral
ric ultural
Ġ195 1
ĠCol ogne
Ġnew ly
are t
Ġ197 3
Ġ197 8
Ġstud y
Ġ194 7
ĠInd ust
az a
ĠSp orts
ĠPro gram
Ġ196 3
Ġthem es
ĠBrit ain
ĠFor est
ĠFor ester
Ġcall ing
Ġ16 7
ib ility
Ġco ordin
Ġacc ident
Ġcons isted
Ġmov e
ty ard
ke ep
ĠJoh ann
Ġinter ests
Ġwrit e
Ġreport s
Ġest imated
Ġform ation
Ġdec k
Ġset tle
Ġrem ains
Ġappear ances
Ġimp lement
ret t
ĠCar l
Ġam ateur
Ġsupport ed
Ġsupport ing
udi ence
ĠGu er
Ġcontin ue
Ġbuild ings
Ġvar iety
ĠTr ust
Ġmajor ity
Ġexper t
iam ond
Ġparticip ate
Ġcivil ian
Ġdeg rees
Ġroad s
Ġel igible
Ġvo ters
Ġweek s
Ġche ss
Ġold est
ĠSup reme
ĠBro ok
ĠChe ss
Ġconstr uct
Ġconstituen cies
tr ack
tr act
ĠMart in
ĠMart res
ĠRes erve
ÃŃ a
ĠSing apore
Ġchang es
Ġindust rial
ĠMir za
Å¡ en
Ġpri or
Ġpri ze
Ġbase ball
ĠHa ack
Ġassist ant
Ġcult ural
Ġmiddle weight
ih ar
Ġ/ >
Ġ/ ><
ĠÑ ģ
ĠIsrael i
ĠGal way
ateg ic
Ġconcern s
Ġfe el
Ġcirc ulation
Ġassoci ated
ĠDen mark
ĠCommun ity
Ġconduct ed
Ġbo ats
Ġtow er
olit an
ĠEgypt ian
Ġalleg ed
Ġlect urer
Ġarran gement
Ġoccup ation
col span
Ġsan ctions
ĠMod ern
ĠNap les
ĠNiger ia
Ġearth quake
Ġphil osop
Ġdoc ument
ĠMit chell
Ġneg ot
rt chyan
ĠLaur ent
ĠUp on
Ġcho ose
Ġmur der
Ġking dom
Ġheadquar ters
Ġmater ial
angle irol
ĠIsabel le
ĠMidd leton
loy d
Ġdomest ic
ĠBrom ley
Ġaccomp an
ĠDign an
Ġdiffic ult
limin ary
ĠAzer bai
ĠMaim i
ĠEmp ire
ĠKier an
ĠVienn a
" ),
) "
2 8
5 7
= |
A ll
C P
D C
D endromaia
I M
K eep
P ro
R oyal
S p
W e
b on
e b
e as
f are
g ing
g un
l or
l ers
l van
m iral
n amed
o es
p ing
s et
t t
u an
v is
v ious
y e
z ent
£ o
Ã ±
Ã £o
Å į
ã ģ
Ġ Ä
Ġt echnology
Ġa id
on to
ed y
en o
an th
at ively
Ġs hire
Ġs aying
is i
it z
it ch
it able
Ġf ought
as c
as ing
as hev
Ġc ateg
Ġb en
Ġb ann
Ġb ike
Ġb ott
Ġp ict
Ġp oor
Ġp aper
ĠS il
ĠS ong
ĠS und
Ġm ent
ĠT it
ĠT our
ĠT ang
ĠA F
ĠA z
ĠA le
ĠA ld
ĠC as
ĠC hen
ĠC itizens
ĠC ape
ĠC artel
am ich
ĠM ov
ĠM aster
ĠM andy
Ġre ign
ol us
el ar
ĠH ome
ĠP o
ĠP ost
ĠP ie
ĠP rat
ur is
ur ies
ac hes
Ġl osing
ĠB ir
ĠB ill
ĠB ern
ĠB usiness
ĠB uck
ĠD h
ĠD el
ĠD iamond
Ġn ature
Ġn arr
Ġn ecessary
ly wood
ĠR h
ĠR on
ĠL ife
ĠL anc
ĠL ibrary
ut ch
im i
Ġas p
ĠF r
ĠF re
ĠF ort
ĠF inn
ĠF ried
ĠF aso
ĠJ ab
ĠJ aze
ĠG ayn
ĠG hana
un al
ĠN ath
ĠE c
ĠE lp
ag en
ĠO ld
Ġwh y
Ġal tern
os un
est on
ian t
Ġcon vers
Ġcon cluded
ĠK Ã©n
Ġcom es
ain ment
Ġv an
ort un
Ġr iviÃ¨re
ill ed
ab eth
ĠSt okes
Ġse lected
ov Ã¡
Ġpl us
Ġpl ant
Ġpl ants
ell o
ap s
og ami
qu iry
Ġex iled
cl es
Ġar ts
ĠV a
ĠV an
Ġte le
Ġun its
ass y
ĠTh rough
Ġrep orter
iz es
Ġsh a
ĠAl i
ĠMar sh
Ġserv e
Ġ3 5
Ġj ump
Ġatt ached
ind a
ĠAn t
ĠAn other
ens us
rop ri
Ġloc ation
Ġ195 7
Ġfilm s
Ġ4 5
Ġact ing
Ġact ress
ĠCol omb
Ġpre p
Ġpr incip
Ġkn ock
Ã© bec
ail y
Ġ194 1
Ġ194 9
Ġ192 2
Ġfound er
Ġfound ing
che ster
Ġco ast
Ġsupp ress
Ġcons ists
Ġmay or
ier a
ĠAs ia
ev iÄĩ
ĠAss oci
ĠPol and
ĠAd ashev
Ġed itor
Ġprov ide
Ġprov iding
ĠPl ay
Ġform at
Ġra ise
Ġdec ision
enn e
enn ess
Ġset s
Ġchild hood
velop ment
Ġac cepted
Ġfl ight
Ġ191 2
apt ist
Ġ9 0
Ġfeat uring
Ġtra ff
Ġoper ated
Ġvis ited
Ġdescrib es
Ġback ground
Ġref used
Ġprot ests
Ġ190 7
18 7
by shire
Ġair ship
Ġcr iminal
ĠEx ecutive
Ġfac ilities
ĠAb u
Ġvot ed
Ġsuccess ion
ĠMor ales
ĠMal ays
Ġproject s
Ġwin ter
ĠAg ain
Ã¼ r
Ġinvol vement
Ġtw ice
Ġident ify
Ġfoc uses
Ġqualif y
itar ian
ĠSing les
Ġtown s
ĠCam osun
ĠTe am
ĠBat tle
ink ing
ĠQu Ã©bec
ĠBl ack
ĠWe imar
Ġhold s
ĠLaw rence
ĠSer ies
ĠMil es
ĠHot el
ĠNa ito
Ġcommission er
Ġdisp ers
Ġdoctor ate
Ġtoponym ie
Ġdra w
Ġpolic y
Ġcap ital
ĠId aho
ĠDen isen
ĠCommun ist
Ġformal ized
ĠCarol ina
Ġhapp ened
ĠRang ers
ĠGall ery
Ġide a
Ġpaint ings
ĠCorp oration
ĠBac elar
ĠIm ran
Ġwatershed s
ĠRub y
Ġorganiz ations
Ġtrain ing
Ġparliament ary
ĠSout hern
ĠMem orial
ĠFed eration
Ġneigh bor
Ġcam era
Ġpot ential
ĠTw enty
ĠDou g
Ġproble ms
Ġacqu ired
ĠRail way
ĠArmen ia
Ġintro duced
Ġwant ed
ĠPers ian
ĠUzbek istan
ĠArn old
ĠAnton io
Ġrelig ious
Ġvaranop ids
Ġdestroy ed
Ġgrant ed
Ġveh icles
Ġshout ed
Ġobt ained
Ġtrop ical
Ġstreng th
ĠChan elle
ĠQat ar
ĠBrandis ovÃ¡
ĠBos n
ĠBurk ina
ĠDer byshire
ĠEag le
Ġaband oned
Ġremov ed
rup t
ĠSab ha
ĠTrib unal
ĠDak ota
ĠLaurent ides
Ġaccompan ied
ĠAzerbai jan
ĠPrat ap
ĠFinn ish
ĠJaze era
ĠGayn or
ĠElp ro
ĠDenisen ko
2 6
4 0
6 4
8 4
8 6
9 5
9 8
B O
E D
F ort
G eneral
K angleirol
L C
M arch
P y
R oc
S ub
U p
b l
b our
c ity
c ia
d am
g ang
h r
i ew
j ar
j oy
k ing
k ut
k ayn
l s
l as
p ed
p art
r c
s ch
t mann
u ana
u ven
y al
Ã ¢
Å Ĥ
Ð »
× ķ
Ġ %
Ġ ult
Ġt im
Ġt est
Ġt ennis
he t
he st
Ġa ver
Ġa udience
in ces
er on
or row
Ġw ild
at ural
Ġs at
Ġs om
Ġs oul
re ated
ar u
Ġin side
Ġin hab
it hel
Ġf ish
Ġf eed
Ġf uel
Ġc at
Ġc ause
Ġc lear
Ġb re
Ġb ar
Ġb oy
Ġb reed
ing u
ĠS op
ĠS ask
Ġm m
Ġm is
Ġm el
Ġm ight
Ġm uses
ĠT u
ĠT ro
Ġd ark
Ġd rew
ĠC a
ĠC atin
Ġh ard
Ġh yd
il iated
ĠM iss
ĠM inn
ol ished
st ey
ĠH E
ĠH o
ĠH ug
ĠH ind
ĠH annah
ĠI ly
ĠI ow
ĠP ard
ĠP rad
ĠP ope
ac ted
Ġl in
Ġl ac
Ġl ibrary
Ġ19 00
ĠB agh
ĠB ihar
ĠD i
ĠD iv
ĠD ub
ĠD ie
ĠD omin
ĠD utch
Ġth us
Ġth ank
Ġe lev
Ġe astern
ly i
ly ing
ĠR ol
ĠR ima
ĠL y
ĠL ak
ĠL ady
Ġat h
us ion
ĠJ offrey
ĠG od
ĠG ram
ch w
un k
ĠN az
ĠN asz
Ġg en
Ġg ive
Ġg ained
Ġg aining
ĠW al
Ġst ab
Ġst ations
Ġbe at
her lands
um ents
est ant
oc ated
ĠU l
ĠK n
ĠK ay
ĠK onheim
ĠIn n
âĢ ĺ
op od
Ġde ep
Ġde ploy
if ul
igh th
od g
ab on
ich t
ĠSt ra
ĠSt ev
ĠCh az
ov o
ell ig
ap est
og amich
orn ing
Ġcomp lex
Ġcomp osition
Ġle arn
ran iÄĩ
uc ks
Ġsp ons
Ġk ept
ang ar
ok en
ĠV ar
ĠV ol
ĠV ict
ĠV ert
ĠV raniÄĩ
ost y
ff er
se ason
te g
Ġpol o
Ġab d
Ġsh ared
ĠAl am
Ġplay off
Ġ3 2
Ġapp ar
Ġapp lied
Ġatt empt
ind ers
ĠAn stey
Ġsc ript
Ġrec ent
Ġ5 1
Ġ5 4
rop h
for c
ĠLe e
Ġro yal
Ġ4 3
Ġ4 8
Ġact ions
Ġact ually
Ġcol or
ĠZ ur
Ġen vironment
Ġpre par
Ġkn ew
ĠComm on
pl ay
Ġ194 5
Ġhous es
Ġunder graduate
Ġrele g
ĠSp ain
ĠSp ring
ĠSp ecial
Ġfound ation
Ġnum erous
ĠPro ble
Ġ196 4
Ġ196 7
Ġ193 5
Ġass igned
ph as
Ġcall s
Ġent repreneur
Ġinv ent
ĠAt lant
Ġdirect ion
Ã¡ lyi
Ġmusic ians
ĠOly mpic
Ġart icle
Ġqu ick
Ġqu ality
ĠâĢ Ķ
ĠAust rian
ĠPl an
ĠMay or
enn on
Ġrem ain
Ġappear s
ott i
Ġfl ag
Ġtrans ition
Ġorgan is
Ġla id
Ġann ounc
ĠGu ard
Ġdr iving
Ġstr uck
Ġem phas
ĠMin or
ĠAm ong
ĠAm ritsar
ĠAm tmann
orp or
ĠEd g
Ġjoin ing
ĠMan uel
Ġdem ands
Ġpolitician s
âĢĿ ,
âĢĿ .
Ġvill ages
Ġsy mb
Ġcommun ities
Ġshow ed
Ġmod els
Ġlaw s
ĠDe leg
Ġiss ue
Ġnomin ation
Ġnorth west
aut iful
ĠCo ast
ograph ic
ograph ical
Ġmer chant
Ġsurf aced
Ġdist ance
Ġearn ing
Ġ189 5
uel a
Ġprop os
Ġcharac ters
Ġeff ort
Ġprod uce
Ġfund s
Ġfund ed
Ġshort ly
Ġopp ortun
ĠBro ad
bor ough
Ġmeet ings
ĠWood burn
Ġsol id
Ġcapt ured
Ġpres ence
ĠDef ence
ĠRev ival
Ġadministr ation
ĠHol y
Ġaff iliated
ĠTran s
Ġneed ed
ĠProv osty
ĠSer b
Ġcross es
Ġdu o
ĠNa isten
Ġfinish ing
ĠNe ag
ĠWh ite
Ġreturn ing
ĠNet herlands
rac ted
Ġwid ely
Ġcas es
ĠBud aun
ĠBud apest
Ġindivid ual
ĠAk kayn
Ġval ley
ĠStaff ord
Ġsqu ad
ĠDo ctor
Ġmotor cy
Ġcollabor ation
Ġsil ver
Ġsup er
ĠCorp s
Ġparticular ly
Ġscient ific
ĠMk rtchyan
Ġinstitut ions
Ġpow ered
Ġhig hest
Ġsepar ate
ĠAndr ade
Ġschol ar
Ġfre qu
agog ue
ĠLead er
Ġbroad cast
ĠHouth i
ĠBal let
ĠStr ategic
ĠIslam ic
inem a
ĠKore an
ĠPier re
ĠBas el
ĠGirl s
Sec ond
ĠRat abon
ĠWild life
Ġwithd ra
claim ed
ĠZion ist
ĠAtt orney
Ġacadem ic
Ġmention ed
ĠStep hen
ĠAlbum s
ĠPie kut
Roc hes
ĠSask at
ĠIow a
ĠPrad esh
ĠNasz Ã¡lyi
ogamich iche
ĠAkkayn ak
! "
" ;
" ).
/ /
2 2
2 3
3 3
5 8
: //
A mer
B and
C H
D on
G r
G u
L unch
M S
N ew
O S
P age
S h
W F
b es
b ers
b rew
b ox
c a
c our
d is
e en
e ase
f ound
g overnment
g reg
i ade
j o
k k
k in
k er
l al
l ic
m on
m oy
n i
o e
p ao
r acy
s m
s ac
s rc
t itude
t ainment
u v
v ia
w are
w ick
z o
Å Ĩ
Ð ²
Ð º
Ð ½
Ġ ;
Ġ i
Ġ ur
Ġt un
Ġt ie
Ġt ax
Ġt esting
Ġt emporary
Ġa vi
in ity
er ted
Ġthe at
or re
or es
or ces
Ġw or
Ġw ing
Ġw ear
an cy
at o
at ures
Ġs ubl
Ġs occer
Ġs aved
Ġs ometimes
is a
re ll
al ign
Ġin aug
it a
it led
Ġf igh
Ġf arm
Ġf elt
as p
Ġc ut
Ġb ad
Ġb ur
Ġb ant
Ġb illion
ic ro
Ġp il
Ġp ath
ĠS ar
ou bi
om es
Ġm ill
Ġm urd
Ġm akes
Ġm orning
le ch
le vel
ĠT et
ĠT ong
ĠT enness
ĠA uthor
Ġd ed
Ġd en
Ġd imin
Ġd aily
ĠC ur
ĠC ab
ĠC irc
Ġh ab
Ġh tt
am weight
ĠM am
ĠM el
ĠM any
ĠM ike
Ġre ject
ĠH u
ad o
ad r
ac o
ac ulty
ĠThe ater
ĠB ec
ĠB et
ĠB ul
ĠB ens
ĠB rist
ĠB unch
ĠB oys
ĠB BC
ĠB aptist
ĠD ale
ĠD mit
Ġn om
Ġn ob
ter tainment
Ġfor est
Ġe ighth
ly n
id a
ĠR ic
ĠR ais
ĠR acing
Ġhe art
Ġhe aring
ĠL at
ĠL and
ĠL ew
ĠL oyal
ig ation
im ir
us se
ĠF ar
ĠF rid
ĠF ellow
ĠJ ourn
ĠJ aff
ĠG o
ĠG ut
ĠG ib
ĠG overnor
un te
ĠN ash
Ġ( ,
Ġ( ).
Ġg all
Ġg ain
Ġg ives
ct ic
Ġst ock
Ġst atus
ĠE r
ĠE s
ĠE ach
ĠE sc
ag u
ag er
Ġal titude
os ure
um ed
ri ers
ri age
ul ated
ĠU t
ian w
ĠK un
ĠK rist
ĠIn tern
Ġcom mercial
Ġcom edy
ain e
Ġpro b
Ġpro x
Ġpro ceed
ak ed
ub ber
ill o
ill ery
Ġit ems
ĠSt ation
ĠSt ock
ĠCh ild
ĠCh air
Ġse g
ov sk
Ġpl ans
ant ly
ep Sub
ap ed
qu ot
Ġex amin
Ġle aving
ound ing
ect ives
Ġfir ing
ĠY az
ĠV Ã¡
ĠV ij
out imi
ack s
ik ai
Ġshe l
Ġres c
Ġres olution
Ġres erve
man ipur
Ġpart s
Ġoff er
Ġab ove
ĠMar ia
ult ane
Ġ3 6
own ed
let s
ip ment
we ightlifter
we alth
Ġcont ains
Ġdis band
ft i
ft on
ĠPar s
ters hire
Ġout break
uct s
Ġ5 6
rop olitan
ĠLe ban
ĠLe ikai
ons ec
ĠEn tertainment
Ġcol ony
ĠZ ab
Ġen ough
Ġpre liminary
Ġpr in
Ġpr ime
19 7
âĢĻ ,
sp ec
ĠSp e
Ġ192 5
li b
Ġ196 2
Ġ193 9
ank a
ĠArab ian
urr ently
ĠSy stem
ĠFor estry
inn er
Ġent ry
str onom
ĠJun ction
Ã¡ s
ke e
Ġdef ense
Ġmar ched
Ġdo or
Ġ8 00
Ġrepresent ation
ĠPl anning
fess ional
Ġra p
ĠHis pan
Ġmat hematics
Ġrem aining
ĠPh ys
Ġown ership
ĠPr im
Ġ191 3
Ġexp anded
Ġtr ade
ĠPort age
Ġorgan ized
Ġfeat ure
Ġrecord s
Ġoper ating
Ġdep th
Ġbro ken
Ġcontin ues
au kee
Ġ. ..
Ġstr uct
Ġstr ucture
Ġback door
Ġgu ests
Ġgu ilty
uk i
Ġeng ines
Ġso ft
ĠRe ading
Ġany one
Ġpresent s
Ġworld wide
ford shire
ĠDe bor
ĠDe velopment
ĠEduc ational
ĠYemen i
ĠPal ace
Ġcond ition
Ġcomplet ely
Ġpass es
ĠSch omm
Ġrest oration
ĠAll iance
Ġint ens
ĠMal ta
ĠHouse hold
Ġdist ributed
Ġ189 0
Ġparticip ation
Ġadv anced
ĠCast ro
ĠEl iz
ari at
Ġprop osed
Ġyoung est
Ġeff orts
Ġjust ice
sy lvan
Ġmy ster
Ġamong st
Ġident ity
Ġsim ultane
Ġext ra
Ġinvestig ate
mi ÅĨ
ĠSing h
ĠAir port
ĠPre vious
Ġlet ters
Ġhistor ian
bur gh
Ġpres erved
ĠTe acher
ĠBat talion
ĠBar b
Ġengine ering
kn ow
ĠMu fti
Ġpri est
Ġhold ing
Ġhon our
Ġassist ance
ĠPalest inian
Ġreb ell
ĠPri ze
Ġcult ure
Ġcommission ed
Ġinit ial
Ġinit ially
Ġinfl uen
ĠKurd s
cher s
Ġweap on
Ġimport ance
Ġexpress ed
Ġexplos ion
rac lit
Ġtarg ets
Ġcap able
ĠId lib
Ġcollect ions
Ġprison ers
Ġautom atically
ĠCop a
Ġequ ipment
Ġcritic ized
Ġappro x
ĠTay side
ĠTay lor
ST IM
Ġcur ler
ĠSur vey
ĠFer moy
ĠUk raine
ĠKe ithel
Ġkeep ing
Ġentire ly
Th angjing
Ġsil ent
ĠBac helor
ĠRen oir
Ġarran ged
Ġoccas ions
ĠÅ Į
ĠDes ande
ĠJon oubi
zh ong
ĠMas ters
ĠBor is
Ġsuff ered
Ġhig her
Ġsex ual
ĠTun is
Ġground s
ĠChic ago
ĠChic outimi
Ġtribut ary
Ġinsp ired
ĠGar rett
Ġimpro ved
ograp her
Ġsumm oned
Äį eviÄĩ
Ġpun ish
Ġthous ands
Ġet c
Ġdeter min
ĠStan ley
ĠUnivers iade
Ġconsult ant
Å« miÅĨ
Ġwood en
ĠPenn sylvan
Ġassign ments
Ex tract
Ġdiplom atic
ĠMake e
Ġris k
Ġattemp ts
ĠCommiss ar
ĠTeh ran
resp ond
Ġadop ted
Ġpreced ing
ĠEngine ering
ĠHistor ic
Eb uthou
Ġcou ple
Ġmax imum
ĠIB M
ĠKr Å«miÅĨ
Ġunivers ities
ĠAnth ony
Ġdism iss
ĠCarl os
Ġpict ure
ĠAld er
Ġnarr ative
ĠEc onom
ĠKÃ©n ogamichiche
×ķ ×
Ġhyd ro
ĠHE STIM
ĠDub ai
Ġath lete
ellig ence
forc ement
ĠCommon wealth
Amer ican
Page Extract
Ġbant amweight
ĠTenness ee
Ġhtt p
ĠBrist ol
ĠFrid ay
ĠNash ville
epSub PageExtract
ĠYaz idi
ĠDebor ah
ĠSchomm ers
ĠPennsylvan ia
ĠKrÅ«miÅĨ Å¡
epSubPageExtract or
" |
0 9
1 00
3 5
4 5
5 00
9 0
A T
C on
D T
E P
E S
L a
L loyd
N o
O M
P ass
Q ue
V F
a id
b re
b ra
b ast
b ank
c are
e o
e er
e or
f it
f ort
f oot
h ur
i ents
i enced
j er
j eno
k m
k ott
l ies
l ins
l inder
n oon
o is
r um
r ast
r ical
r imin
s or
t ty
u ro
u zz
v ine
x in
Ã §
Ã ´
Ñ Ĥ
× Ļ
Ī Ĵ
Ġt ort
Ġt ear
Ġt ied
Ġt ree
Ġt akes
Ġt ouch
Ġt emper
Ġa ud
in ation
in ct
Ġthe ater
or us
en i
Ġw orth
Ġw estern
at ur
at io
Ġs al
Ġs ay
Ġs ect
Ġs ust
Ġs ave
Ġs earch
Ġs ailing
is hes
re c
ar o
al g
al am
Ġin ters
Ġin form
it ants
Ġf ict
Ġf ake
Ġf ix
Ġf avor
as a
as ters
as ium
Ġc y
Ġc ard
Ġc ust
Ġc old
Ġc ann
Ġc ities
Ġc ash
Ġc aught
Ġc ode
Ġc ounter
Ġb al
Ġb ill
ic y
ic it
Ġp le
Ġp ages
ĠS A
ĠS i
ĠS n
ĠS ri
ĠS ult
ĠS ix
ĠS ett
Ġto t
om or
Ġm all
Ġm ust
Ġm ale
Ġm ech
ĠT y
ĠT in
ĠT ad
ĠT rop
ĠT roy
ĠA qu
Ġd ress
Ġd imens
ĠC all
ĠC ell
ĠC ric
ĠC hile
Ġh y
Ġh ired
il and
il ies
il io
ĠM P
ĠM er
ĠM aj
ĠM Ã¡
ĠM aur
Ġre ar
Ġre str
Ġre form
Ġre ality
ol n
ol ved
st an
el ly
el ve
el sh
el co
ĠI f
ĠP A
ĠP in
ĠP ac
ĠP rom
ĠP ere
ĠP ash
ĠP oz
ĠP ST
ac c
ac ement
iv a
iv as
iv ated
Ġl ay
Ġl ab
Ġl oss
Ġl akes
ec rated
ĠThe n
ir ing
ĠB ak
ĠB ost
ĠB ah
ĠB Ã¼
ĠD et
Ġn ative
Ġth in
Ġth ir
Ġfor ec
ot al
ot ic
ĠR ed
ĠR ac
ĠR ag
ĠR ound
ĠR iche
et tle
ĠL ey
ĠL iver
ut ing
ut il
ut ies
us ing
ĠF our
ĠF act
ĠF ather
ĠF isher
ĠF estival
ĠF aculty
ĠJ all
ĠG ard
ĠG ess
ch urch
ĠN ak
ĠN ations
ĠN ez
ĠN icol
Ġg e
ist ance
ĠW he
ĠW ake
ĠW arn
ĠW oman
ĠW orces
ĠW elsh
Ġst ore
Ġst ating
Ġst anding
th a
ow l
Ġbe ach
ĠE P
ĠE mer
ĠE ug
ĠE vent
ĠE rik
ag ues
ĠO ri
ĠO cean
Ġan om
Ġan im
Ġal ph
her ic
os a
os aur
um e
est e
est ion
oc c
oc ate
oc als
ra k
Ġcon sequ
ud den
Ġcom ics
âĢ ľ
ĠHe ves
ĠHe brew
op eration
op lan
Ġv ocals
av id
av ia
Ġpro claimed
Ġr u
Ġr acing
ak ia
ub ice
ia h
od ies
ab et
Ġch ance
Ġch ron
Ġch annel
ĠCh lo
ĠCh ris
ous sac
end ers
qu are
Ġcomp lete
Ġex am
Ġex ecut
ast ing
ound s
ran jeno
ug ar
amp s
ĠY uen
Ġsp ect
Ġsp ace
Ġsp eed
Ġy our
Ġy ards
ĠV en
Ġun organ
ĠAr ound
ĠAr med
ĠAr aru
Ġwho le
ik ovsk
iz ing
ivers ary
Ġres ear
Ġres igned
Ġoff ensive
Ġab use
Ġsh are
Ġsh ape
ĠMar ie
ĠMar ines
Ġag ency
per ial
Ġbec omes
Ġj uven
Ġcont ained
Ġcont ested
Ġcont emporary
Ġsc oring
Ġrec ru
Ġwe ight
ĠPar agu
Ġsec ret
br ini
Ġ5 2
Ġ5 00
rop shire
urn ing
Ġfin ancial
Ġreg ime
Ġ195 4
ĠEn vironment
Ġcol leg
ĠCol lins
ex p
ĠZ ag
ĠZ omor
ook er
Ġen joy
ĠJan e
Ġpre m
ĠComm ander
Ġim age
Ġim pr
19 6
ĠInd epend
Ġunder st
Ġunder standing
ather weight
Ġbu y
ĠSp ort
aj un
ĠSh ropshire
ĠPro ton
Ġ193 1
Ġ193 3
Ġass embly
ĠSy l
ĠFor m
Ġind irect
Ġind icated
Ġfam ilies
Ġnumber ed
Ġsome one
Ġsupp lied
ef an
Ġcons ecutive
Ġart work
Ġser ial
ĠCon n
ĠCon vention
Ġinter ested
Ġdo zen
Ġ7 0
Ġrepresent atives
cy linder
Ġed ge
Ġattack ers
Ġra in
ĠReg ina
ĠSa ud
Ġ191 4
sh mi
Ġexp ected
Ġam b
Ġam ount
Ġtr ust
Ġstart s
ert ation
Ġconf ront
Ġ15 0
Ġdevelop ing
Ġmin ute
ĠGu ang
ĠDemocrat s
Ġstr ugg
Ġdescrib ing
Ġter ms
Ġkill ing
Ġref ers
uk a
Ġappoin t
Ġlast ed
ĠSe bast
Ġdisc our
Ġeng aged
Ġsurv ey
Ġresult ing
Ġinc umbent
Ġcr ime
ĠComp uter
ĠÐ »
ĠÐ ¿
Ġpost s
eth ing
ĠChrist church
ti enne
Ġclass ic
ĠPe ace
ĠPe ters
ring ton
rol led
Ġexper ienced
Ġmer ges
Ġhand ling
Ġdist urb
ĠIr vine
ĠÂ °
ĠMus ik
Ġbrother s
Ġmark ed
ĠAg u
ĠAg ency
Ġperson nel
Ġel der
Ġbusiness man
Ġpo ems
Ġdaugh ters
Ġvo ter
Ã¼ n
sy cho
ĠHar old
ĠCourt ney
Ġvisit or
Ġca uses
Ġlarg ely
ĠDav is
Ġbeh alf
Ġproper ties
Ġfoc used
abor atory
onym ous
ming ham
Ġcapt ure
ĠBat elco
ĠGra z
Ġeven ing
Ġconsid er
Ġbat tle
ĠFl inders
Ġsw orn
ĠHol mes
ĠWe ek
Ġsit uated
Ġball oons
Ġpat ron
Ġread ing
Ġaff ected
Ġevery one
Ġcontrol led
oud a
ĠPri x
ĠPri or
Ġexhib itions
Ġport r
ĠDan iel
Ġsaf ety
ĠFilm fare
Ġteacher s
Ġexplos ives
go ing
war en
ĠPat ric
Ġpolic ies
Ġav oid
Ġcor respond
ĠTam my
Ġnewsp apers
ĠAdministr ator
Ġwinn er
Ġfe atherweight
Ġgl ass
Ġgl ob
rik es
aval ry
Ġassoci ate
pro fessional
Ġhom eless
Ġplann ing
Ġtyp e
Ġshi ft
ĠHist ory
ĠRoman ian
Ġalleg ations
Ġregard ed
Ġregard ing
Ġpaint ing
Ġmiss ing
ĠTor onto
ĠMore y
Ġhealth care
Ġsubmar ines
Ġoccas ionally
Ġjournal ist
Ġmethod s
Ġstand ard
Ġposs ible
Ġemer ged
Ġens ure
Ġovers eas
ĠDar gan
ĠLab our
ĠKir am
Ġdispl aced
Ġblock ed
Ġpur p
ĠSout heast
ĠFed eral
ĠEv ans
ĠVo iland
Ġdiss ertation
bs ite
Ġachie vement
ĠAy res
ĠBur lington
ĠDu ke
Ġgirl s
ĠPhilipp ine
AS A
zz ly
Ġâ ĪĴ
Ġcorn er
Ġperform ing
ĠBelg ian
mn asium
Ġwalk ed
Ġhor se
Ġlog istics
Ġexamp le
Ġarg ued
ĠZh ang
Ġenc ounter
ĠSaf ed
Ġcal m
ĠHold ing
ĠDun more
cha ikovsk
ÅĦsk i
edd ing
Ġpiec es
ĠChi kk
ĠChap ter
Ġimm igr
ĠHere fordshire
ĠGri zzly
Å¡en je
Ġnegot i
isi Ã³n
ĠTang any
ĠBir mingham
ĠFried rich
ĠMarsh all
ĠColomb ian
ĠDoug las
Ġinhab itants
ĠIly a
ĠPard ubice
Ġdeploy ed
ĠProble m
Ġannounc ement
ĠEdg ars
ĠStafford shire
Ġwithdra w
Band iera
Ġwear ing
Ġinaug ural
ĠBec ause
ĠBens ouda
Ġnom ine
ĠLoyal ist
ĠJourn al
ĠJaff a
ĠVij aya
ĠZab ranjeno
ĠEliz abeth
Ġinfluen ced
zhong jiang
hur st
kott ur
Ġfict ional
ĠTad oussac
ĠCric ket
ĠBost on
ĠRiche y
ĠJall ianw
ĠNez ha
ĠWorces tershire
Ġalph abet
Ġunorgan ized
ĠAraru ama
ĠParagu ay
chaikovsk y
ĠChikk odi
% ),
' m
0 3
2 9
2 000
3 4
3 8
5 2
8 2
8 9
A F
A s
A Ã©
D S
G er
I d
L L
M s
P LA
P sycho
R en
S hi
T C
U N
a q
a fter
a ise
b o
b ell
b ler
b ee
d o
d own
d ale
e il
e ast
e ased
f ire
f ilm
f ather
f iel
f eld
g ow
h op
h orn
h aw
h aching
i ya
j Ã¶
k ar
l ad
l ate
l ican
m ere
m ember
n ers
n orth
p ret
p olit
p ool
s ince
s elling
t ese
u ent
u ff
u ential
w ith
w ear
w hile
w aukee
y ok
y ev
z i
z u
z im
z ens
Å ¼
Ñ ģ
Ġ )
Ġ u
Ġ ir
Ġt ies
Ġt rou
Ġt ail
Ġt ank
Ġt ier
he ss
Ġa er
Ġa uth
Ġa ired
Ġa waren
in as
in et
on ents
ed ed
ed ge
or ms
en idae
Ġw el
Ġw ick
Ġw ords
Ġw itness
Ġw edding
an al
an pur
at aka
Ġs ource
Ġs ays
Ġs elling
Ġs ize
Ġo pin
is f
re b
re f
re ater
ar ity
ar ant
al er
Ġin quiry
it als
Ġf an
Ġf it
Ġf est
Ġf lower
Ġf Ã¼r
as y
as ion
as hed
as me
as mine
as gow
Ġc ards
Ġc artel
Ġc lean
es ch
Ġb id
Ġb ig
Ġb ell
Ġb oys
Ġb ranch
Ġb igg
Ġb odies
ic hi
ic ient
Ġp ap
Ġp ick
ĠS ou
ĠS av
ĠS ex
ĠS oci
ĠS ev
ĠS zent
Ġto ll
Ġm oth
Ġm ales
le ft
le ague
ĠT re
ĠT im
ĠT ob
ĠT chaikovsky
ĠA stronom
Ġd rop
Ġd omin
Ġd iving
ĠC B
ĠC orn
ĠC elebr
ĠC SX
ĠC reek
ĠC ajun
Ġh our
Ġh air
il leg
am al
am ah
ĠM r
ĠM es
ĠM ur
ĠM est
ĠM ang
ĠM und
ĠM ach
ĠM ikh
ol is
ol ph
st ra
st ein
ĠH el
ĠH ad
ĠH ans
ĠH ana
ĠH aving
ro st
ad t
ad al
ĠP ed
ĠP res
ĠP ook
ĠP oint
ac ent
ac ional
ac ier
iv ity
Ġl or
Ġon line
em eter
em brini
ĠB i
ĠB eng
ĠB lo
ĠB ox
ĠB asketball
ĠB ush
ĠB illy
ĠD own
ĠD ann
ĠD aly
ĠD augh
ĠD yer
Ġis ol
ot is
ot ten
id ers
id den
ĠR y
ĠR und
ĠR ob
ĠR uth
ĠR oth
et r
ĠL t
ĠL as
ĠL ions
ĠL az
ĠL iving
ĠL inc
ĠL otan
ig i
ay er
ay at
ay alam
ut o
ut ed
ut or
ĠF ood
ĠF ier
ĠF urther
ĠF ront
ĠF uture
ĠJ ack
ĠJ udge
ĠJ DT
ĠG et
ĠG ab
ĠG ilm
ĠG ron
ĠG reg
ch ayat
ers h
ĠN um
ĠN ight
ĠN eg
ĠN ob
ĠN ev
Ġ( -
Ġ( ),
Ġg one
Ġg iving
Ġg ross
Ġg overnor
ĠW W
ĠW ater
and ar
and hi
Ġst ri
Ġst ood
Ġst adium
Ġst orm
Ġbe am
ber haching
ĠE le
ag an
ĠO k
ĠO ric
os is
ri z
ver ted
ul um
ul ate
oc ol
ra ph
ĠU b
ĠU s
ĠU pper
ĠU VF
ĠK arn
ĠK BO
ĠK ovo
ĠK Ms
ĠIn t
Ġcom ment
op h
Ġv ess
av ior
Ġpro s
Ġr ue
Ġr ural
Ġr ule
ak s
ill es
ill ing
ia ble
od ed
ab l
ab ric
ab led
ab lish
Ġch all
Ġch ant
Ġch oral
ĠSt ew
ere van
Ġse ized
Ġse vent
Ġse ems
ov ers
end ent
ell i
ap h
ap ted
Ġcomp il
Ġcomp ound
Ġex oplan
cl air
ĠUn til
ran ce
ĠY asme
ĠY erevan
uc hess
Ġsp lit
ang el
ĠV er
ĠV inc
ĠV iet
Ġun spec
ass ador
ĠShe tty
ik arim
se x
Ġnot ice
ĠTh ree
ĠTh angjing
Ġ18 37
20 18
Ġres ources
Ġres idence
Ġoff ering
Ġab olished
Ġsh own
ĠAl an
ĠAl bert
Ġad mitted
Ġad miral
ĠMar ine
Ġsu it
aw a
ss on
Ġafter noon
over y
Ġatt orney
Ġatt racted
tern s
ens en
Ġdis app
Ġrec ip
Ġrec omm
oot ing
Ġwe ather
Ġwe alth
br idge
ĠSen a
Ġover l
Ġ5 3
mp h
ĠEn er
Ġ4 4
ĠCol lection
ĠCol onel
Ġ197 2
Ã© e
Ã© bert
act ion
pl ace
Ġim ag
Ġall ies
sp e
Ġcompet ing
Ġfound ers
ann a
ann on
Ġper mitted
ĠSh a
Ġ196 1
Ġass umed
Ġ6 5
ĠSy n
ĠFor mer
Ġent itled
che n
pt ion
ans ion
Ġsupp lement
Ġ17 5
led ge
Ġrece ive
Ã¡ nd
Ã¡ il
Ġsur pr
Ġmusic ologist
ĠAugust ana
oth y
oth ing
Ġqu al
ĠCl in
Ġlead s
Ġsub s
Ġmar riage
ĠCon stitut
Ġinter ior
Ġinter cepted
Ġinter vention
Ġdo ing
Ġdo zens
Ġthere fore
Ġcar rying
ĠPol icy
ick s
Ġrel atives
ĠSc ient
Ġest ate
Ġest uary
ĠAust in
ĠAust ria
Ġed itions
Ġprov ed
ĠPl aces
ĠRep ort
aint ing
Ġ12 5
enn y
Ġme ters
Ġmed ium
ĠFran z
arg o
arg ed
Ġrem ove
Ġtit les
Ġac res
ott ingham
Ġfl o
ister ed
Ġ191 0
Ġ191 5
Ġexp ansion
Ġtr ue
Ġtr igg
Ġcour ts
Ġ13 4
Ġtra ined
Ġtra iler
Ġoper ation
Ġvis ual
Ġmin istry
osp itals
Ġorigin s
ask s
Ġdr iven
Ġcan cer
Ġocc ur
ins ky
Ġgo es
Ġgo als
Ġdistrict s
Ġprot ect
Ġactiv ism
Ġsm ugg
Ġ190 1
Ġ190 9
Ġprogram mes
umb le
ird s
Ġexpl oded
hel m
ĠIndian s
com p
ĠTr ude
ĠSe e
ĠSe as
Ġsurv iving
Ġresult ed
Ġlong er
Ġland ed
Ġland sc
ĠEx per
Ġfac ulty
Ġclaim ing
Ġmanag ing
Ġbeg un
Ġhigh light
ys elf
Ġlaw yer
Ġhelp ing
Ġclass es
Ġ188 0
Ġ188 3
Ġ188 6
ĠBe ard
af ayette
urd ay
inc et
ĠSch Ã¶n
ĠMal tese
Ġparticip ants
ĠAg ricultural
Ġyoung er
Ġperson ality
Ġfact ors
Ġche f
Ġche ese
Ġmy th
ĠHar less
cept ion
Ġship s
ĠMed al
Ġnov els
Ġrepl acing
Ġcrit ics
ĠGl asgow
ĠWil helm
Ġdet ail
Ġdet ective
Ġallow s
ÃŃ n
Ġbomb s
Ġhistor ic
ĠDr ug
ĠRev iew
ĠGra inger
Ġeconom y
Ġsign al
ĠFl ag
ĠMad jer
ĠOff ic
ĠX I
Ġpat terns
ute au
Ġfun ction
Ġwind s
Ġcast le
Ġdemonstr ators
Ġcandid ates
Ġill ness
ĠPri y
ĠSwed en
Ġfem in
ĠDan cer
Ġprim arily
Ġinit i
Ġinfl uence
Ġdou b
Ġdou bles
ĠSuper ior
Ġsk ills
ĠJac ques
ĠGr ay
Ġdoctor al
Ġexplos ions
ĠMe udon
ĠPat ri
Ġplan et
Ġconfl uence
Ġbelie ve
Ġepis ode
ĠTam il
ĠAp ost
ĠCard inal
Ġval ue
Ġcontribut ion
Ġstrong est
Ġautom atic
Ġtorpedo ed
Ġtorpedo es
Ġbas is
Ġdiv isional
Ġspe ech
Ġ185 7
Ġsqu are
ĠBr ig
Ġ180 3
Ġenl arged
Ã¡n y
Ġdiscuss ed
oll ah
ĠKe ith
Ġlect ures
Ġdesign ated
Ġaccess ible
Ġsuccessful ly
Ġtrad itional
Ġsound track
ĠMos que
ĠHill s
ĠEst efan
Ġconv icted
ĠKar ol
Ġrul ing
Ġsubject s
ĠCont in
ĠAbd ikarim
Ġflow s
ĠAlex ander
Ġabs ence
ĠZyga enidae
Ġposs ess
II I
zh ou
Ġsusp ected
ĠRub ber
ĠRap ids
ĠKir ch
Ġseek ing
ĠCla ude
Ġfresh water
Ġmem ory
ĠDor rington
Ġevac uation
ĠVal en
Ġknow ledge
Ġinterview s
Ġincre asing
sych ology
Ġtarget ed
Ġtarget ing
Ġschol ars
Ġreason s
ĠPu Å¡enje
Ġlook ed
ĠWind sor
Ġproble m
ĠPhilipp ines
Ġillustr ations
yc otis
Ġâ Ĥ
ĠSo chi
ĠSom alia
Ġmaint ain
Ġmaint ained
ĠWol ver
Ġvac ant
Ġsee ing
Ġarm ament
Ġcommit ted
Ġimpro ve
Ġcommunic ation
Ġintern al
Ġcorn ers
Ġmun icipality
ĠAv iv
Ġthous and
Ġstream s
ĠExp ress
Ġbrief ly
Re illy
ĠGy mnasium
ĠWay ne
Ġconn ected
Ġcompos er
Ġexamp les
Ġcontinu ing
Ġpeace ful
rem ely
ĠAre as
ĠBall oon
ĠBarn ard
ĠBarn by
ĠLi iga
ĠArgent ine
Ġcop ies
Ġcorp s
ĠMans field
Ġliber al
ĠBook s
Ġadj acent
Ġpra ised
ĠSus an
ĠRT E
Ġheav ily
Ġatmosp here
ĠMarg aret
keep er
ĠGuer ra
Ġconstruct or
Ġphilosop hy
ĠSong s
ĠBern ard
ĠBuck ingham
ĠAssoci ate
Ġtraff ick
ĠMalays ia
ĠBosn ian
Ġult imately
Ġaver age
Ġsom ething
ingu ished
ĠLak shmi
chw il
Ġstab bed
ĠChaz an
Ġquick ly
Ġpropos al
Ġfrequ ently
found er
Ġavi ation
Ġwor st
Ġfigh ters
Ġmurd ered
ĠTet raclit
Ġreject ed
ĠDmit ry
ĠUt tar
ĠIntern et
Ġrebell ion
Ġapprox imately
Ġpunish ment
Ġdetermin ed
Con necticut
Que en
Ġmech an
ĠTrop hy
Ġdimens ions
ĠPac ific
ĠPere ira
ĠLiver pool
ĠFact ory
ĠEmer gency
Ġanom aly
udden ly
ĠChlo Ã©
ĠVen ez
Ġjuven ile
ĠZag reb
ĠZomor odi
Ġimpr ison
Ġindirect ly
ĠSaud is
ĠSebast ian
Ġpurp ose
ĠTangany ika
Ġwithdraw al
Ren oir
fiel der
Ġauth ors
Ġawaren ess
Ġfest ivals
Ġbigg est
ĠCajun s
ĠMikh ail
ĠPook kottur
emeter y
ĠRund ek
ĠLinc oln
ĠFier ro
ĠGilm ore
ĠGron ing
ĠOric on
ĠKarn ataka
ĠYasme en
ĠVinc ent
Ġunspec ified
ĠTrude au
ĠSchÃ¶n berg
ĠAbdikarim ov
0 4
0 5
0 6
3 1
4 7
6 0
7 7
8 5
9 2
A R
A t
A nd
B uzz
C l
C ast
C omp
D R
D avid
E st
G C
G ASA
H K
H S
H e
I t
K ar
L ou
L ocal
M aster
N ational
P h
P l
P r
P ort
R aj
S e
S al
T R
T V
T W
T ok
V id
a ed
a ult
a uthor
b d
b ol
b ro
b ie
b ook
b ase
c ing
c ome
c ked
d a
d d
d ivision
e u
e lected
f a
f us
f ired
g ian
g ate
g rand
h m
h ai
k ir
l ist
l ai
l ob
l ieutenant
l iga
l eston
m o
m oud
m ont
n ow
n um
n ik
o ach
o ft
p e
p re
p ly
p erson
p eck
r ation
r ish
r age
r ne
r era
s ong
s outh
t ures
t hel
u z
v inder
w i
w as
w oman
w agen
y ard
y ond
z on
z ig
Ã ī
Ã ł
Ñ Ģ
Ñ ĭ
Ø §
Ù ħ
á ¹
Ġ *
Ġ =
Ġ ess
Ġ ener
Ġ illeg
Ĩ er
Ġt on
Ġt el
Ġt ub
Ġt ell
Ġt ry
Ġt ried
Ġt rees
Ġt rying
Ġt utor
Ġa uction
in it
in rich
in burgh
er ies
er to
er ick
Ġthe sis
on ian
on ial
on so
on ey
or b
or ters
en as
Ġw ard
Ġw ond
Ġw ins
an cer
at ri
Ġs low
Ġs tern
is bury
re al
re ation
al se
Ġin her
Ġin formed
Ġin teg
it ary
it ors
it tle
Ġf ul
Ġf ra
Ġf aced
Ġf ailing
Ġf alse
Ġc ow
Ġc oc
Ġc ous
Ġc up
Ġc oin
Ġc ells
Ġc rown
es ota
Ġb in
Ġb it
Ġb ay
Ġb ud
Ġb oss
ic i
ic ate
ic ial
ic ide
Ġp ed
Ġp ain
Ġp age
Ġp air
ĠS C
ĠS T
ĠS ukh
ĠS DF
ou ri
ou ston
om a
Ġm ag
Ġm art
Ġm ild
Ġm ind
Ġm iles
le m
le igh
le ans
le ps
ĠT s
ĠT en
ĠT ra
ĠT ok
ĠT ony
ĠA S
ĠA ary
Ġd ies
Ġd ang
Ġd ign
Ġd ance
ĠC F
ĠC ut
ĠC os
ĠC ant
ĠC rit
ĠC ost
ĠC are
ĠC ai
ĠC ru
ĠC ensus
ĠC urrently
ĠC avalry
Ġh at
Ġh ol
Ġh all
Ġh ung
Ġh uge
ent ures
ent ially
il st
il ton
am an
am ber
am ily
ĠM ack
ĠM ater
ĠM umb
ĠM ichel
Ġre in
Ġre ctor
Ġre aching
Ġre organ
st ers
st ory
st ream
el oc
ĠH al
ĠH ur
ĠH ir
ĠH angar
ĠH ouston
ro vers
ĠI V
ĠI b
ĠI an
ĠI ll
ad d
ad ar
ad ier
ĠP i
ĠP y
ĠP il
ĠP ur
ĠP ow
ĠP op
ĠP ict
ĠP ower
ĠP ayette
ĠP sychology
ur m
ur aki
Ġl if
Ġl apt
Ġl oyal
Ġl ower
ec hes
em y
em ed
ir t
ĠB ase
ĠB eat
ĠB eh
ĠB onn
ĠB ranch
ĠB aba
ĠB WF
ĠD ow
ĠD ong
ĠD ix
ĠD iet
ĠD Ã¡il
Ġn ations
Ġn atural
ter ies
Ġth ings
Ġth ink
Ġth ought
Ġfor ew
Ġe ye
ot e
ot es
ĠR oc
ĠR og
ĠR ome
ĠR io
ĠR oger
et ime
Ġhe rit
ĠL or
ĠL im
ĠL ect
ĠL ok
ĠL outh
ĠL eop
ĠL ock
ĠL unch
ig uation
us et
Ġas cent
ĠF at
ĠF ree
ĠF air
ĠF uk
ĠJ in
ĠJ al
ĠJ ag
ĠJ ul
ĠJ uto
ĠG radu
ĠG amb
ĠG oog
ĠG ender
ĠG ersh
ĠG andhi
ĠG illes
ch arge
ĠN af
ĠN ipp
ĠN ils
ĠN AT
ĠN acional
ĠN HS
Ġg r
Ġg ard
Ġg ran
ct ional
ist ani
ith a
ith s
ĠW I
ĠW an
ĠW ern
Ġst ay
Ġst ret
Ġst ayed
Ġbe ar
Ġbe yond
ber ger
ĠE U
ĠE ve
ĠE very
ĠE OS
ag ers
ĠO t
ĠO ur
ĠO sw
Ġan c
Ġan g
Ġan ime
Ġwh aling
Ġal one
os es
os hi
os ph
ri er
est y
ul ations
ul ip
ra ham
Ġcon cer
Ġcon ning
ĠK o
ĠK av
ĠK ap
ĠK ath
ĠK ham
ĠK atherine
ĠK aji
ĠK ova
ĠK elly
ĠK uraki
hi e
ud a
ud an
ĠIn v
ĠIn sp
ĠIn str
Ġv en
Ġv et
Ġv eter
Ġde an
ew ay
our ed
Ġr ac
Ġr ang
Ġr ubber
if ically
ard y
od cast
ab akh
Ġch ooglin
ĠSt ill
ĠSt oney
ĠSt urm
ĠCh art
ĠCh ampions
ĠCh annel
Ġse a
ov en
ov an
ov ann
ov akia
ell a
ell es
ap es
og d
orn o
Ġcomp ris
Ġex clus
ran ean
ict ions
ug u
ug osl
ine app
ĠY a
ĠY u
ĠY ugosl
uc cess
Ġsp ort
Ġsp ring
Ġsp ots
ang a
Ġte en
Ġun t
Ġun us
Ġher self
ĠAr m
ik ya
Ġnot iced
Ġcl er
ĠTh ough
20 17
man hurst
Ġwhe el
Ġoff ered
ĠOn tar
rou d
Ġad apted
ĠMar io
ĠMar tha
ult ze
Ġag ric
ĠCom rad
Ġ3 00
let te
let ons
aw ar
Ġj ur
Ġj ob
we gian
Ġman ages
Ġdis gu
Ġdis ease
Ġsc r
Ġsc ar
Ġsc rat
Ġwe bsite
Ġ5 9
ric ulum
Ġloc ations
Ġreg ions
Ġ4 6
Ġcol umn
ress ion
ah n
ah ar
Ġpr int
act ions
ĠComm ons
âĢĻ .
ark ed
Ġsecond s
ĠInd ies
Ġcompet itions
Ġ192 3
Ġret ail
air y
air ed
air craft
Ġspec ifically
li x
li est
Ġnum bers
ob olus
ann e
Ġper cent
ĠSh ort
Ġass ets
ix Buzz
ĠSy ed
Ġent ering
ib ly
Ġinv aded
Ġinv asion
ĠGer ald
ĠGer ais
Ġcons ecut
Ġcons ervation
Ġcons ervative
Ġcons ecrated
Ġmusic ian
ier i
Ġart illery
ĠCl ar
ĠCl if
Ġmar gin
ĠJoh or
Ġinter im
min ton
min ute
uss ian
Ġcar go
Ġ7 5
Ġ8 0
ĠAd d
Ġrel atively
Ġrepresent s
Ġrepresent ing
Ġed ited
Ġprov inces
hen s
ern Ã¡nd
ech t
ism o
ism s
enn er
Ġset up
Ġset ting
Ġdesc endant
reat he
Ġcent ers
Ġmat ters
form ing
ĠPh D
Ġown s
ĠPr incet
Ġmon arch
Ġrefer ence
Ġ9 7
ĠCan cer
leg o
ĠPort land
Ġorgan ised
Ġhead ed
Ġcour ses
Ġcour tyard
Ġsix teen
icip al
Ġla und
Ġoper ator
Ġbl og
ĠDep ort
Ġdep art
Ġdep ict
Ġdevelop er
Ġbro ke
ĠGu am
Ġdr ivers
ĠMid west
Ġstr ing
Ġstr ict
Ġcan c
Ġem ot
Ġter min
Ġformer ly
Ġpar ent
ĠEd inburgh
Ġgu ard
Ġgu arant
uk ata
ĠSec ret
ĠMan chester
ĠMan eu
ĠMan ikya
Ġprogram me
Ġrun ners
aff er
Ġauthor ity
Ġdem anded
Ġexpl o
Ġpublic ly
ĠTr uteau
ĠSe ason
ĠSw ift
ĠOr mond
ĠOr leans
Ġdisc us
ribut ion
Ġpoin ted
Ġeng agement
ĠÃ ģ
onom ous
Ġinc orpor
ĠRe al
ĠÐ ²
ĠÐ ½
Ġland f
Ġland s
ĠAb out
Ġ188 1
Ġ188 4
ĠMon ey
af a
ĠUK IP
Ġviol ating
ĠPal ais
Ġcond em
Ġcomplet ion
inc ial
ĠSch ul
ĠSch ultze
aut y
aut ical
ĠMal ayalam
Ġmer c
Ġhand led
Ġdist inct
Ġ189 6
anc ing
Ġchart s
Ġdiffer ences
ĠÂ «
Ġtour ing
Ġleg end
Ġeff ective
Ġprod ucts
Ġfew est
Ġfact or
Ġche cked
ĠHar v
Ġtw in
Ġship yard
ĠMed ia
ĠMed iter
ĠAng lican
Ġsim ple
Ġext remely
Ġinvestig ated
Ġinvestig ating
Ġbeh avior
isc rimin
ĠMart ins
Ġestablish ing
Ġsouth west
Ġbomb ings
ĠMountain s
ĠDr aga
ĠOx land
ĠInstitut ion
Ġbat teries
Ġne ut
kn echt
Ġsw im
ĠSal isbury
Ġdam aged
ĠMun ting
ĠBl oc
ĠBy rne
Ġsit es
Ġinj uries
ĠSocial ist
Ġread y
Ġread ers
Ġnort heastern
Ġsout heast
Ġsout heastern
Ġneed s
Ġassist ing
ij uana
Ġsess ions
ĠSam ar
ĠMil waukee
mb ri
Ġfem ales
Ġcross ing
ĠMet ro
ĠMet ropolitan
ĠNor wegian
amb ers
amb iguation
ĠStud y
Ġrecogn ition
Ġrecogn ised
ĠCons ervative
ĠPet e
ĠPet ite
ĠÑ Ĥ
Ġdra wn
Ġstop ped
ĠProfess ional
Ġdefeat ing
Ġrespons es
Ġrespons ibility
Ġcor rupt
ĠAk bar
ĠMoh amed
Ġlim it
ĠGal lego
ĠOut lier
Ġcontribut ing
Ġcollect ed
Ġaccount s
Ġperforman ces
Ġautom ob
An n
Ġtri p
Ġdest r
ĠCop leston
ĠCop manhurst
chie f
Ġgood s
Ġcritic ised
int endant
Ġdiv or
Ġdiv ided
ĠRich mond
Ġspe aking
Ġ185 0
Ġ187 9
Ġwarn ed
Ġsqu at
Ġbo at
Ġdel iver
Ġhom es
Ġreview ed
ĠHam ilton
ĠWith out
ĠEm ir
ĠEm ilio
Ġ180 1
Ġdiscuss ions
Ġtyp es
Ġtalk s
Ġshi res
Ġpurch ase
Ġmission ary
ĠCro at
ĠCro wn
ĠCro fton
ĠRang oli
ĠGall en
Th is
Ġide as
Ġsup erv
omm od
Ġmiss ions
ĠNeh ls
ĠKar l
Ġrul es
Ġspir its
Ġscient ist
Ġeffect s
ãĥ ¼
Ġske letons
Ġinstr uctions
Ġfar mer
ĠAlex and
ĠCap it
ĠCap ital
ĠMo ore
ĠMex ican
ĠClass ic
Ġemer gency
Ġpoet ry
Ġovers aw
ĠMac lean
adi q
ĠRap h
ĠLuc as
Ġsuff ering
Ġsched ule
ĠCla ud
Ġsubsequ ent
ĠBrazil ian
Ġinf irm
ĠMod enas
ĠOver peck
Ġvol unte
Ġunc le
ĠProt esters
ĠProt estant
Ġphil anth
ĠAndr Ã©
Ġemploy ees
Ġincre ased
Ġincre ase
ĠMonteneg rin
Ġneigh bour
Ġaim s
Ġaim ed
Ġfr ag
Ġfr ame
Ġfall en
Ġfall ing
Ġpan el
Ġdoc uments
ĠCzech osl
ĠPu erto
ĠBol ton
ĠDev on
ĠDev il
Ġtravel ed
Ġer ected
Ġsyn agogue
Ġder ived
ĠMah moud
ĠArmen ian
Ġguitar ist
ograp hed
Ġintern et
ĠSher lock
Ġmun icipal
ĠAh ly
Ġdro ve
ĠHouth is
Ġtransl ation
Ġtransl ator
Part y
Ġsurr ounded
Ġsurr ounding
Ġsugg ested
ĠSat urday
Ġhor ror
ĠHon ours
Ġconst able
Ġcompos ers
ĠAlf red
Ġmanufact urer
EE E
Ġfed eral
Ġcelebr ate
Ġlic ence
ĠNag orno
Ġgrow ing
ĠEll ie
ĠOper ations
ĠArgent ina
Ġwindow s
Ġbring ing
ĠSin clair
ĠBu ilding
ĠKen ogami
ĠKat z
Ġdeleg ate
odd ard
Ġcharg ed
Ġcharg es
Ġexperiment al
Ġspirit ual
Ġwa iting
Ġcred ited
Ġpurs ue
ĠSche mbri
ĠPak istan
Ġlo an
Ġele ven
Ġele ments
ĠRan ji
ĠIndust rial
Ġsettle ment
ĠBrook lyn
ĠÄ Ĩer
Ġcateg ories
Ġbott om
ĠSund ay
Ġaltern ate
Ġsha ft
ropri ate
Ġprep ared
Ġprincip al
Ġknock ed
Ġdispers ed
sch feld
Ġtim ber
ĠSop tic
ĠMinn esota
ĠDiv isiÃ³n
Ġthank s
ĠRol and
Ġplayoff s
Ġappar ently
Ġenvironment al
Ġsymb ol
ĠDeleg ation
Ġopportun ity
Ġmotorcy cles
ĠSaskat oon
dis ambiguation
Ġtun nel
Ġsubl anguages
Ġbur ied
ĠCirc uit
ĠBet ween
usse ini
ĠGut knecht
Ġprob ably
Ġseg ments
Ġexamin ation
ĠSpe aker
Ġrap id
Ġstruct ures
ĠBarb ara
Ġdismiss ed
Ġhydro gen
Ġtort ure
Ġsust ained
Ġinform al
Ġcann ot
ĠSi ena
ĠTy phoon
ĠAqu atics
ĠMaur ice
ĠPA GASA
ĠPin to
ĠRag in
ĠWhe eler
ĠEug ene
occ an
Ġcolleg es
Ġenjoy ed
ĠGuang zhou
ĠPatric ia
Ġalphabet ically
Shi res
pret ation
Ġtank er
Ġwitness es
ĠDann y
ĠLt d
ĠNev ada
ĠUb ukata
ablish ment
ĠStew art
Ġexoplan ets
ĠViet nam
Ã©bert ville
ĠApost olic
ĠContin ental
ĠKirch berger
ĠWolver ines
Ġtraffick ing
ĠGroning en
Kar abakh
Ġtub es
Ġful ly
Ġcous in
ĠSukh vinder
ĠTok yo
ĠAary an
Ġdies el
ĠMumb ai
ĠHir schfeld
ĠBase ball
ĠDow ling
ĠRog ers
Ġherit age
ĠLeop old
ĠNaf isa
ĠNAT O
ĠOsw ald
Ġconcer ts
ovann i
ineapp le
ĠOntar io
Ġagric ulture
ĠComrad s
Ġdisgu ised
Ġconsecut ively
ernÃ¡nd ez
ĠPrincet on
ĠManeu ver
ĠMediter ranean
ĠDraga Å¡
Ġphilanth rop
! âĢĻ
' .
' ve
) :
. )
. -
. <
4 1
5 9
8 00
A r
A ch
B l
B o
B ar
C D
C E
D W
D o
E T
E MA
F C
F F
F L
F P
F or
G l
H ist
H MS
H usseini
I v
L e
L ennon
M on
M ichel
N ile
O n
O r
O x
P al
P ri
P ika
S F
S w
S he
S adiq
T r
T am
U P
U S
V III
W A
W hen
Y our
a us
b in
b et
b oy
b inda
c or
c le
c ard
c ip
c ase
c ular
c ert
c aster
c ÃŃa
c onsec
d i
d u
d ated
d istrict
d ney
e on
e it
e ut
e ap
e ira
f ers
f rom
f ra
f riend
f lix
g eneral
g roup
g rant
h at
h as
h ing
h ol
i at
i ad
i em
i os
i ques
j it
j ava
k g
k u
k an
l on
l ar
l ast
l ik
l icht
m other
m aster
m berg
n ew
n ame
n Ã¶n
o os
o ters
o ise
p her
p ost
p ts
p son
p read
r Ä
r ent
r ill
r end
r ade
r ucture
s a
s il
s ider
t or
t ra
t hen
v ian
v ina
v elled
w ig
w ich
w ang
w ise
x ic
y t
z ur
z qu
² Ķ
Â °
Ã ª
Ã Ł
Ä ±
Å ĳ
Ñ Į
× ¨
Ù Ħ
å ı
å ²Ķ
ï ¼
Ġ +
Ġ :
Ġ ~
Ġ ign
Ġ util
ĺ Ĩ
Ġt or
Ġt all
Ġt end
Ġt ens
Ġt ons
Ġt rib
Ġt ick
Ġt empor
Ġt reated
he mi
Ġa p
Ġa w
Ġa est
in ued
er c
er as
on ic
on ies
or g
or an
or ious
or ica
en ary
en obolus
Ġw r
Ġw ors
Ġw ides
Ġw ounds
an G
an ath
an iah
at u
Ġs le
Ġs ell
Ġs oci
Ġs alt
Ġs uddenly
Ġo p
is is
is ions
is ters
re z
re te
re hens
al us
it ement
Ġf ell
Ġf ail
Ġf air
Ġf estival
as es
Ġc le
Ġc oun
Ġc ore
Ġc ited
Ġc urt
Ġc iting
Ġb ed
Ġb ac
Ġb ab
Ġb ass
Ġb urned
Ġb ishop
Ġb otan
ic ations
Ġp it
Ġp ion
Ġp ure
Ġp orts
ĠS ent
ĠS el
ĠS ue
ĠS hip
ĠS aw
ĠS tern
ĠS cho
ĠS oon
ĠS ull
ĠS ED
ĠS LC
ou p
ou st
Ġto day
Ġto ols
Ġto xic
om s
Ġm ist
Ġm os
Ġm ess
Ġm ount
Ġm agaz
Ġm icro
ĠT ol
ĠT ow
ĠT og
ĠT ik
ĠT ime
ĠT ower
ĠT rain
ĠT ennis
ĠT irm
ĠT otal
ĠA st
Ġd ated
Ġd ie
Ġd ivers
Ġd yn
Ġd ream
Ġd oll
Ġd inner
Ġd uties
ĠC A
ĠC D
ĠC ec
ĠC res
ĠC av
ĠC ert
ĠC zer
ĠC reed
ĠC lear
ĠC ulture
ĠC iro
ĠC inema
ĠC emetery
Ġh un
Ġh um
Ġh ind
Ġh its
ent ed
il a
il o
ĠM K
ĠM ag
ĠM ort
ĠM iz
ĠM ind
ĠM ean
ĠM az
ĠM embers
ĠM uch
ĠM yan
ĠM Ã¸
ĠM MA
ĠM iller
ĠM uela
ĠM EP
ĠM Ã¼n
Ġwas te
Ġre ed
ol ics
st ill
st ant
st ock
st yle
el o
el ia
ĠH y
ĠH om
ĠH il
ĠH un
ĠH end
ĠH ull
ĠH alf
ĠH IV
ĠH inrich
ĠH ernÃ¡ndez
ro c
ro e
ro g
ro ck
ro city
ĠI P
ĠI ce
ĠI ss
ĠI mp
ĠI ram
ĠI lo
ĠI DF
ĠI SI
ĠI EEE
ad enobolus
ĠP les
ĠP ots
ĠP LA
ĠP apers
ur ance
ac co
iv o
iv an
Ġl ob
Ġl ink
Ġl oud
Ġl aboratory
ec ke
Ġon es
em it
ĠThe res
ĠThe ological
ĠB o
ĠB es
ĠB il
ĠB od
ĠB ell
ĠB ry
ĠB ach
ĠB ased
ĠB ron
ĠB ru
ĠB ux
ĠB ukh
ĠB jÃ¶
ĠB reathe
ĠD ur
ĠD ra
ĠD ear
ĠD und
ĠD ean
ĠD ance
ĠD MA
ĠD EA
ĠD uchess
Ġn ick
Ġn orm
Ġth r
Ġis lands
ot o
id o
id ency
ĠR a
ĠR om
ĠR el
ĠR un
ĠR and
ĠR est
ĠR od
ĠR ican
ĠR ock
ĠR af
et as
et her
et ry
Ġhe ir
Ġhe ight
ĠL ud
ĠL ang
ĠL ind
ĠL ai
ĠL ank
ĠL ata
ĠL iter
ĠL ennon
ĠL ittle
ig her
ay o
ay as
ut ation
ut ive
im o
im p
im en
im ity
us n
us hi
us hed
ĠF le
ĠF ul
ĠF ant
ĠF ive
ĠF ine
ĠF ord
ĠF ah
ĠF ior
ĠF ield
ĠJ es
ĠJ ay
ĠJ ain
ĠJ aw
ĠJ iang
ĠJ oint
ĠJ eff
ĠG en
ĠG ro
ĠG ir
ĠG uth
ĠG raft
ĠG LA
ĠG reek
ĠG aza
ch y
ch air
ers et
un a
un us
un ning
ĠN i
ĠN on
ĠN il
ĠN ames
ĠN eed
ĠN iang
ĠN AS
ĠN ancy
ĠN atio
ĠN ottingham
ĠN GC
Ġ( âĢĺ
Ġg ate
Ġg reen
Ġg ains
Ġg ift
ist a
ist e
ĠW as
ĠW ade
ĠW als
ĠW AC
Ġst rikes
th i
ow y
ber y
ber to
ĠE b
ĠE ric
ĠE rn
ag os
ĠO f
ĠO p
ĠO man
ĠO ola
Ġan imal
Ġan sw
Ġal ias
um in
um aise
ri o
ri x
ul s
oc ent
oc co
oc racy
ĠU A
ian i
Ġcon fer
Ġcon sp
Ġcon verted
ĠK al
ĠK um
ĠK ip
ĠK yle
ĠK olk
ĠK enny
hi a
hi pp
ud s
ĠIn it
all a
ate gy
op hy
Ġv ocal
Ġv iral
Ġde ity
ew ard
ew here
Ġpro ceeded
Ġr um
Ġr ich
Ġr ivers
Ġr aced
Ġr ider
Ġr ivals
Ġr iders
ies s
ub b
ill iant
igh ter
pp e
ab ar
ab ad
ab Ã©
Ġch ass
Ġch oir
Ġch ambers
ĠSt and
ĠSt ories
ĠCh ampion
Ġpl ot
end ants
ell ers
ant ry
Ġex act
Ġex cess
Ġex isted
Ġor che
cl osed
ĠUn ichel
ran e
ran k
ial og
ict ment
erv es
erv ille
Ġev angel
Ġfir ms
ĠY un
ĠY ale
ĠY amah
Ġsp oken
Ġk m
ang ing
ang hai
Ġy et
ĠV ers
ĠV ill
ĠV ice
ĠV ik
ĠV ide
ĠV isc
ĠV olk
Ġte aches
Ġun s
Ġun ac
Ġun able
Ġun exp
ass ed
ass el
ie f
ie v
ie val
ack ed
ĠShe pher
ĠAr lington
ĠAr binda
ik lai
Ġnot e
Ġnot ably
Ġcl in
Ġcl ash
Ġcl othing
ome g
Ġ18 00
20 14
iz i
Ġres emb
Ġres ettle
Ġres istance
man ent
und es
te enth
Ġpart ly
Ġpart ially
Ġab ility
Ġsh all
Ġsh ock
Ġsh orter
ĠOn ly
ĠAl ban
ĠAl nÃ¶n
Ġad ver
ĠMar ÃŃa
ure k
ure au
Ġag greg
Ġ3 7
Ġsu its
aw la
Ġj ud
to ine
Ġcont ent
Ġcont est
Ġcont act
Ġcont acted
Ġcont rovers
Ġatt ract
ind u
ĠAn cient
ens es
Ġdis ag
Ġdis ability
Ġsc iences
Ġrec on
Ġrec alled
Ġwe b
old s
Ġcomm only
Ġdes ire
Ġelect ron
Ġover t
). "
iss ance
ts chwil
uct ed
uct ive
Ġ5 000
resent ed
Ġloc ked
for ced
mp iad
Ġreg istered
ĠLe o
ĠLe eds
Ġro w
Ġ195 9
Ġact ors
ĠZ hen
ĠZ eph
ĠZ amal
ĠZ etas
ĠJan ata
ah in
ah ara
are st
Ġpr aying
Ġpr ayer
ĠComm anding
ail and
Ġstud ying
Ġhous ing
ĠInd ones
az aki
ram a
ĠSp iess
ĠSp urek
Ġret ro
Ġret ained
Ġret ali
Ġspec imens
Ġspec imen
ob e
olog ies
ĠSh osh
ĠSh anghai
ĠPro ject
Ġass ess
Ġass emb
ĠSy dney
Ġind ex
Ġind iscrimin
Ġind ictment
inn ings
ĠEng ert
che yev
ina e
Ġ16 83
Ġend ang
Ġend ors
ans k
ib l
ib al
ten bar
Ġacc ommod
Ġsupp osed
Ġsupp lies
Ġ17 6
led ged
ĠGer tr
Ã¡ k
Ġsever ely
ilit ation
ilit ated
ĠOly mpiad
ev a
aly sis
ĠNov a
Ġqu estion
Ġdef ender
Ġmar ijuana
ĠCon er
ourn e
min ster
Ġcre ation
ĠAd am
iment s
ale igh
Ġprov incial
alk ari
ĠCount ess
Ġform ally
Ġattack ing
Ġmed als
ĠFran co
Ġadd s
ĠGe hr
ĠGe ographical
Ġcent er
Ġcent uries
Ġrem ember
Ġac know
ĠSa x
ĠSa umaise
ĠPh leps
ĠEu ros
ĠPr in
ĠPr ince
ott ing
Ġimp osed
Ġmon itor
Ġfl ash
ĠCan on
ll er
ĠUS L
Ġtr uth
omin antly
Ġhead s
ĠAnd alus
elf are
Ġtop ic
Ġtra ins
Ġoper ate
Ġoper ates
ĠWest minster
Ġann iversary
Ġresp ective
ĠPart ridge
Ġorigin ated
Ġdr ag
Ġdr um
Ġstr ategy
Ġdeb t
Ġwar rant
Ġwar bler
Ġocc urs
ins ula
ĠEd iel
ounc ill
Ġgu ide
Ġprot ected
Ġactiv ists
uk ura
Ġ190 2
18 6
Ġproduc ing
ĠRo java
CA C
Ġgradu ation
Ġgradu ally
ĠGeor get
Ġexpl ained
Ġexpl ored
ĠIndian a
app y
app ro
com m
ĠTr inity
Ġdisc ont
ves end
itte es
co operation
Ġinc arn
ĠRe bec
ĠComp os
ĠComp uting
ĠÐ º
Ġvot ing
Ġ188 9
ĠTom ki
ĠMon te
ĠBe ira
ĠDe ep
Ġstation ed
ĠOg unt
ĠMor ris
ĠMor occan
Ġnomin ations
Ġeduc ational
Ġband s
Ġrest ored
Ġreported ly
arm a
Ġint ent
Ġint ended
Ġint elligence
ĠCo oper
ĠMal abar
Ġcamp ing
Ġcamp us
Ġhand s
Ġrequ ire
Ġrequ ested
Ġrequ ires
Ġ189 1
Ġ189 2
Ġ189 7
Ġ189 9
Ġadv ant
Ġadv ance
Ġdiffer ence
Ġsold ier
ĠEl ka
ours elf
ĠRepublican s
Ġsl ight
Ġsl aves
Ġprod uctions
Ġbusiness es
Ġpo em
Ġvo iced
Ġweek ly
Ġweek end
ĠAc ad
ĠPhil osop
ha al
alc raft
ĠHar ry
Ġconc ent
Ġconc ert
Ġord ers
Ġord ained
Ġlaun ch
Ġsystem s
Ġtw elve
Ġold er
Ġput ting
irc raft
ĠAng us
sc ore
Ġsim ply
Ġfif ty
Ġfif teen
ĠCath olics
class ification
Ġrepl ace
Ġrepl acement
ĠGl en
ĠGl acier
reed om
Ġdet ention
Ġdet ectives
Ġinst all
Ġinst ances
Ġbody work
ĠCam eron
ĠCam bridge
ĠPer th
ĠPer ry
Ġroom s
Ġpres ervation
ĠMir ror
ĠRev ision
ĠGra ham
ĠGra vina
ĠGra vesend
Ġstreet s
ĠOx T
ĠLiber al
ĠLiber man
ĠWall ace
Ġadministr ated
ĠQu ar
Ġsw it
Ġsw itch
ĠSal v
ĠMc C
ĠMc Queen
ĠMc Master
ĠMun ich
ĠHol o
Ġcoll aps
ĠWilliam s
Ġinj ury
Ġpat rol
Ġaff airs
Ġevery thing
Ġren ew
Ġmountain s
ĠHas hemi
Ġvict ory
Ġcontrol s
Ġdemonstr ations
ĠSu z
ĠAct ing
ĠMil ovan
ĠMost ly
Ġreb u
oz ia
ĠMet alcraft
ĠNor r
Ġjourn als
Ġinit iated
Ġpower ful
ĠStud io
ĠVir go
arr ison
ĠCons ult
ĠPet its
ĠNet flix
Ġdisp at
Ġexpress way
Ġexplos ive
Ġboard s
ĠRu fus
Ġrad ical
Ġpolic emen
Ġview s
IC O
Ġcor re
ĠMoh ari
Ġcomb ined
Ġtex ts
Ġcollect ive
ĠAdministr ative
Ġstrong ly
Ġconcern ed
An other
Ġtri ps
Ġcirc uit
Ġbas al
Ġbas ic
ĠAnn ual
ole cular
pro fit
Ġdram atur
ĠRam anath
Ġ187 8
Ġappro ach
Ġregular ly
Ġprivate er
Ġconduct ing
writ ing
Ġfind s
Ġdel iber
ĠHam burg
ĠEar ly
Ġ179 4
Ġdoes n
Ġtyp ically
Ġtalk ing
Ġshi pping
Ġpast or
Ġtow els
Ġhapp ens
ĠPaul i
Ġstat ue
Ġten ure
Ġtrad itions
Ġsem if
ĠSant ar
ĠSant os
ĠTor res
ĠRen ard
ĠEst ablishment
Ġclos ure
Ġscient ists
Ġoccup ied
ĠJacob ite
gress ive
ĠÅ ł
Ġturn s
Ġflow ers
Ġbi ography
ĠMo en
ĠIm perial
ĠBut ler
ĠLong horn
Ġstand ings
ĠInter pretation
Ġabs or
ĠClass ical
ĠSecond ary
200 8
ori ography
Ġsusp ic
ĠTer riers
ĠMac room
adi olus
ĠBh im
Ġseek s
Ġdispl ayed
Ġorganiz er
Ġtext ile
Ġfear s
Ġbr ut
Ġpow der
ĠCamp bell
Ġhuman itarian
ĠDor othy
ĠLu igi
ĠJo e
Ġsepar ated
Ġplat oons
Ġevac u
Ġevac uated
ĠVo ters
Ġ184 1
Ġemploy ed
Ġemploy ment
ĠCharl ie
Ġpeak ed
fin ity
Ġcam eras
ĠMit ch
ĠBad ar
ĠBad minton
ĠDu Å¡
Ġexc ited
Ġinsp ir
Ġcover ing
ĠSom erset
Ġthreat ened
ĠRay mond
ĠGar cÃŃa
ĠWol f
Ġesc aped
Ġpress ure
ĠMot or
ĠMass acre
ĠEp uthou
ĠUnivers al
Ġoutlet s
Ġoperational ly
Ġvaranop id
ĠOrgan ization
ĠExp o
Ġsignificant ly
wh o
wh ich
Ġsugg est
Ġconn ection
ĠKore a
Ġenc our
Ġimprov isation
Ġflood ing
Ġphot ograph
ĠÃī tienne
ĠKazakh stan
IV E
Ġmilit ants
ĠAre a
ĠMake over
ĠHold ings
ĠBear a
ĠRaj esh
ĠLam bert
ĠEll en
ĠOl t
Ġconnect ing
Ġchap ter
Ġpartn ership
Ġattemp ted
Ġpred ominantly
ĠCommiss ariat
Ġobserv ed
Ġobserv ations
Ġlegisl ator
ĠMoham med
Ã¤ ffer
Ġtechn ical
Ġpers p
Ġpiec e
ĠSub division
ĠAut om
ĠAut onomous
ĠHor se
Ġseem ed
Ġrepeated ly
Ġadj ust
Ġconsist ently
Ġmeas ure
Ġincident s
Be autiful
Ġtreat ment
Ġfle e
Ġfle w
Ġpsych ic
ĠSem inary
ĠSche me
ĠApp le
ĠRad io
Ġatmosp heric
ĠJose f
ĠGi ovanni
Ġgra ve
Ġste am
ĠVis ayas
Ġimplement ation
Ġfeel ing
Ġmaterial s
CP D
Ġben ef
Ġbann ers
ĠTour ism
ĠAz am
ĠMov ement
ĠRh ode
ĠRon cor
ĠLanc ers
ĠLanc aster
ĠJab ÅĤ
ĠGhana ian
Ġconvers ation
ĠVa asa
Ġtele ph
Ġsha res
Ġprincip les
ĠAgain st
Ġdispers e
Ġneighbor ing
Py ozia
ĠCa quot
ĠNaz i
ĠWal ter
ĠWal enty
ĠKay leigh
odg orica
ĠStev e
ĠVict oria
Ġattempt ing
ĠZur ich
ĠZur lo
Ġreleg ated
ĠAtlant a
ĠAtlant ic
Ġorganis ers
ĠGuard ian
ĠCoast al
ĠBroad acre
Ġsuper ior
Gr sh
cour tyard
Ġtax i
Ġfarm ers
lech num
ĠAuthor ity
Ġded icated
Ġden ied
Ġdimin utive
ĠBul let
Ġnob le
ĠLat vian
ĠLew es
ĠFellow ship
ĠGo al
ĠGib bs
ĠEr zur
ĠEsc uro
Ġprox imity
Ġproceed s
ĠVÃ¡ zqu
Ġresc ue
Ġdisband ed
ĠLeban on
ĠHispan ics
ĠPrim era
Ġintens ified
Ġmyster ious
Ġsimultane ously
ĠPrevious ly
ĠTunis ian
ĠEconom ics
rast ructure
Ġtouch down
Ġsect ions
Ġinters ection
Ġfix tures
Ġcy cl
ĠTin tenbar
Ġdress ed
ĠProm oted
ĠPash a
ĠPoz zu
ĠBah rain
ĠBÃ¼ tschwil
ĠNicol as
ĠWarn ecke
ĠEvent ually
Ġanim ation
osaur us
Ġchron icle
Ġresear chers
ĠIndepend ence
Ġconfront ation
ĠÐ» Ð¸
Ġglob al
ĠKiram agers
Ġimmigr ation
Ġnomine es
ĠJallianw alla
Ger man
Id aho
do ctor
polit ician
Ġu pper
isf ied
ĠSav annah
ĠHana e
adal ga
ĠPed ro
ĠGab ri
riz ona
Ġvess els
Ġpros ecut
Ġsevent h
Ġsuit case
Ġrecomm ended
ĠEner ji
spe aking
Ġsurpr ised
Ġqual ification
Ġsubs idi
Ġsmugg ling
Ġlandsc ape
Ġdetail s
ĠPriy anka
ĠValen cia
Ġscholars hip
ĠâĤ ¬
ĠTetraclit idae
Cast illa
National e
thel ess
wi ÅĦski
Ùħ Ø
Ġener gy
Ġfra ud
Ġcoc aine
Ġbud get
ĠCai ro
ĠCru z
ĠMater iel
ĠMichel le
ĠPy ram
ĠPur iklai
ĠPow ell
ĠPop pin
Ġlapt op
Ġforew ing
ĠFuk ami
Ġgard en
Ġanc est
ĠKova ÄįeviÄĩ
Ġvet o
Ġcompris es
Ġunus ual
ahar lal
ĠShort ly
Ġdepict s
Ġcondem n
ĠSchul ze
ĠHarv ard
ĠBloc her
Ġdestr uction
ĠCapit ale
Ġinfirm ary
Ġphilanthrop ist
Ar ch
Iv Ã¡ny
Pika uba
consec r
lik ely
åı £
å²Ķ åı£
Ġtempor arily
Ġwides pread
Ġbac helor
ĠSent ai
ĠStern licht
ĠSull ivan
Ġmos que
Ġmagaz ines
ĠTog ether
ĠTik Tok
ĠTirm izi
ĠCzer wiÅĦski
ĠCreed ence
ĠClear water
ĠMean while
ĠMÃ¸ ller
ĠHend erson
ĠHinrich sen
ĠIram ba
ĠIlo ilo
ĠPots dam
Ġlob by
ĠBux ton
ĠBjÃ¶ rn
ĠLud wig
ĠLank an
ĠJaw aharlal
ĠGuth rey
ĠGraft on
ĠGLA Y
ĠKip iani
ĠKolk ata
Ġchass is
ĠUnichel a
ĠYamah a
Ġunexp ected
ĠShepher d
ĠZeph aniah
ĠZamal ek
ĠShosh one
Ġdiscont inued
ĠRebec ca
ĠOgunt ayo
Ġcollaps ed
ĠMilovan ov
ĠLonghorn s
ĠRoncor oni
ĠJabÅĤ o
ĠErzur um
ĠVÃ¡zqu ez
ĠPozzu oli
" "
, âĢĿ
0 8
3 2
3 6
4 2
4 8
4 9
7 3
7 5
7 9
7 00
9 3
? "
A M
A N
A U
A m
A p
A q
A ce
A rab
B A
B I
B ay
B aq
B ahn
B anG
C B
C C
C L
C M
C N
C R
C T
C ity
C onn
D ie
E R
E t
E FA
E ng
F I
F e
F l
F ive
F rench
G B
G ar
H op
H ip
H ele
I B
I s
J apan
K ab
K ib
L E
L ondon
L ove
L afayette
M ar
M al
M usic
N ov
N ext
P C
P M
P P
P e
P ar
P ok
Q u
R iviÃ¨re
R une
R IVE
S A
S ing
S tar
S ett
S adalga
T al
T om
T etr
U TC
W hy
a ith
a ver
b at
b al
b ay
b led
b ilt
b ama
b ishop
b idden
b assador
b ollah
b ourne
c in
c on
c ar
c ric
c ock
c ille
c eland
d as
d ate
d irect
d ont
d iction
e lect
f am
f ect
g s
g or
g le
g us
g ers
g reat
g otten
h n
h u
h le
h our
h ard
h ill
h of
h ope
h att
h cheyev
i ar
i ation
i ary
i ology
i ji
i ems
j al
j ans
j amin
k es
k oh
l n
l ag
l ong
l ie
l ater
l ah
l au
l ford
l aga
m at
m ir
m us
m ist
m ath
m Ã¡n
n o
n en
n it
n es
n em
n ot
n ob
o i
o ter
o ch
p a
p ol
p op
p ubl
r ag
r ine
r ics
r illa
s i
s u
s er
s ed
s an
s old
s az
s aka
s quare
t us
t own
t les
t rik
u ous
u ine
u ters
v o
w art
w estern
w right
w here
x t
y i
y es
z hi
z eg
Ä «
Å ¾
Å Ļ
× ª
× Ķ
à ¥
ä ¸
Ġ urd
Ġ iron
Ġt ill
Ġt act
Ġt ape
Ġt emple
Ġt enth
he w
he ed
he ld
he me
in y
in ter
in qu
in als
in bed
er ry
er ful
Ġthe ory
on ak
on ne
on ius
on ora
ed es
ed ly
ed ition
or l
or er
or io
en h
en ly
en ov
en ius
Ġw ord
Ġw ishes
Ġw elfare
an iÄĩ
an za
an ja
at re
at om
at est
at ore
at ina
at ma
Ġs ed
Ġs ac
Ġs ab
Ġs end
Ġs ure
Ġs ail
Ġs ank
Ġs ale
Ġs ense
Ġs unk
Ġs ugar
Ġo cean
is er
is ers
ar ent
ar ina
ar ms
ar ati
ar ctic
al u
al le
al id
al ina
al ora
Ġin ches
Ġin ception
it chen
Ġf at
Ġf ur
Ġf ast
Ġf ond
Ġf ile
Ġf use
Ġf led
Ġf alls
Ġf iled
Ġf olk
Ġf isher
Ġf illed
Ġf reedom
as il
as form
as hes
Ġc od
Ġc ell
Ġc ant
Ġc ement
Ġc ott
Ġc alc
Ġc ites
Ġc asks
Ġc ouncill
Ġb es
Ġb ag
Ġb ul
Ġb ik
Ġb urning
Ġb irds
ic z
ic as
ic ata
ing ly
Ġp al
Ġp ack
Ġp over
Ġp ale
Ġp hen
Ġp ne
Ġp airs
Ġp apers
Ġp roud
ĠS ul
ĠS ep
ĠS ound
ĠS ang
ĠS hed
ĠS ie
ĠS ack
ĠS ign
ĠS eg
ĠS ean
ĠS ib
ĠS ony
ĠS reen
ĠS itar
ĠS oul
ĠS andy
ĠS ny
ĠS adr
ĠS quare
ĠS ansk
ion f
ion ed
ou m
om i
om ent
om pl
Ġm and
Ġm ant
Ġm ail
Ġm oon
Ġm amm
Ġm asc
Ġm asters
le agues
le cille
ĠT as
ĠT ac
ĠT ag
ĠT oy
ĠT urn
ĠT ext
ĠT ouch
ĠT emper
ĠT aco
ĠT ukura
ĠA D
ĠA K
ĠA med
ĠA ks
ĠA BC
ĠA rizona
Ġd ur
Ġd ia
Ġd ry
Ġd ates
Ġd ancer
ĠC H
ĠC er
ĠC it
ĠC el
ĠC ra
ĠC ook
ĠC inc
ĠC BS
ĠC oup
Ġh ar
Ġh ook
Ġh ors
Ġh ospitals
Ġh anja
il k
il al
il ia
il era
il oviÄĩ
am or
am ation
am ilitary
ĠM A
ĠM end
ĠM ik
ĠM ai
ĠM urr
ĠM ission
ĠM aced
ĠM ika
ĠM ats
ĠM iam
ĠM ax
ĠM ico
ĠM oss
ĠM LA
ĠM iy
ĠM icro
ĠM yself
ĠM oust
Ġwas p
Ġre venue
ol f
ol y
ol pur
ol lette
st ead
st oke
st adt
el ine
el ry
el son
ĠH M
ĠH em
ĠH im
ĠH ort
ĠH ope
ĠH avel
ĠH osh
ĠH Ã©bertville
ro it
ro th
ĠI celand
ad s
ad u
ad ion
ad le
ad el
ĠP a
ĠP it
ĠP ent
ĠP ut
ĠP ast
ĠP ry
ĠP ike
ĠP aso
ĠP DC
ĠP ainting
ĠP odcast
ĠP ineapple
ĠP resented
ĠP odgorica
ur ers
ur man
ur ts
ur ities
ac a
ac on
ac hi
ac ity
ac ts
ac ci
iv ation
Ġl os
Ġl ines
Ġl ying
Ġl ooting
Ġl atest
Ġon to
Ġon going
em ar
em atina
ĠThe ss
ir an
ir ations
ir hy
ir acy
ĠB re
ĠB ang
ĠB urn
ĠB rad
ĠB ob
ĠB ury
ĠB urt
ĠB aker
ĠB ogd
ĠB undes
ĠB ureau
ĠD al
ĠD am
ĠD og
ĠD oh
ĠD Ã©
ĠD uk
ĠD arts
ĠD RIVE
Ġn ut
Ġn ep
Ġn one
Ġn aval
Ġn eck
Ġn aked
ter m
ter bury
ter ophy
Ġth rew
Ġth inking
Ġ" ".
Ġ" ",
Ġ" âĢľ
Ġfor ty
Ġe th
ot ive
id d
id ay
id us
ation ing
ĠR as
ĠR em
ĠR ak
ĠR ey
ĠR ens
ĠR ex
ĠR az
ĠR ever
ĠR ick
ĠR eng
et ic
et ition
Ġhe ro
Ġhe aling
Ġ20 21
ĠL on
ĠL il
ĠL ow
ĠL if
ĠL ight
ĠL ah
ĠL Ã©
ĠL ib
ĠL au
ĠL yn
ĠL ung
ĠL Ã¼
ĠL ocal
ĠL loyd
ĠL inda
ĠL VIII
ĠL oos
ig ue
ig be
ay ant
ay ton
ut s
im bed
us anne
ĠF u
ĠF on
ĠF il
ĠF ear
ĠF eat
ĠF ern
ĠF onn
ĠF icht
ĠF onsec
ĠF abric
ĠF amily
ĠF ollette
ĠJ ed
ĠJ am
ĠJ im
ĠJ ian
ĠJ ia
ĠJ oy
ĠJ Ã¸
ĠJ uris
ĠG h
ĠG ur
ĠG if
ĠG ov
ĠG aw
ĠG az
ĠG Ã¶
ĠG round
ĠG ori
ch t
ch ar
ĠN an
ĠN ar
ĠN and
ĠN ich
ĠN ey
ĠN ever
ĠN iel
ĠN ick
ĠN oor
ĠN gang
ĠN atural
ĠN alkari
ĠN adu
ĠN ayant
Ġg er
Ġg ent
Ġg ay
Ġg ap
Ġg overn
Ġg odd
Ġg range
Ġg reater
ct ors
ist le
ce ived
ce pts
ĠW ald
ĠW ailing
and a
and es
and ro
Ġst y
Ġst ain
Ġst ump
Ġst aged
Ġst aves
Ġst ores
Ġst anza
th at
th reat
ow s
ow ed
Ġbe er
Ġbe ating
Ġbe autiful
Ġbe adle
ber n
ĠE nd
ĠE qu
ĠE ven
ĠE mb
ĠE BS
ĠE grant
ĠE thi
ag ram
ag ua
ĠO il
ĠO les
ĠO berhaching
ĠO bama
Ġan th
Ġwh aler
Ġwh ilst
Ġal tar
Ġal umn
Ġal umin
her a
os cia
os init
um ph
um ental
ri or
ri pted
est ions
est ino
ver icks
ul u
ul es
ul ine
ul ating
oc ese
ra it
ĠU EFA
Ġcon ven
Ġcon vent
Ġcon greg
ĠK i
ĠK as
ĠK le
ĠK ent
ĠK art
ĠK ann
ĠK ev
ĠK na
ĠK emp
ĠK ais
ĠK ane
ĠK eral
ĠK night
ĠK anpur
ĠK assel
ĠK CPD
ud h
ud y
ud oise
ĠIn f
ĠIn fl
Ġcom fort
res borough
all ies
ĠHe art
art ing
art et
op al
op ter
op ia
Ġv eil
Ġde emed
ew ise
av Ã¡r
Ġpro f
Ġr ay
Ġr iding
Ġr idge
Ġr allies
ia e
pp en
Ġit em
ab e
ab lo
Ġch ill
ear ly
ich aul
ĠSt e
ĠSt ory
ĠSt oddard
ere au
Ġse lection
ov ina
Ġpl ane
ight y
ight ed
ant o
ant ic
ge on
ment a
og ram
qu el
qu iem
Ġcomp ar
Ġcomp iler
Ġcomp onents
Ġcomp rehens
cl osure
ĠUn ity
mer ce
mer ah
Ġle ech
Ġle af
Ġle aves
Ġle agues
ast ic
ast rop
ran ger
ran king
ust ed
up er
erv as
amp les
rit e
ĠY it
ĠY urt
ĠY osh
ĠY ourself
ĠY urts
uc lear
Ġsp oke
00 1
Ġk il
Ġk ites
ang ed
ĠV el
ĠV ad
ĠV ald
ĠV lad
ĠV entures
hed ral
ord ers
ord inary
Ġun ion
Ġun ity
Ġun aw
Ġun inc
Ġun ification
ie u
ie furt
ĠShe ikh
ĠAr c
ĠAr ne
ĠAr ms
ĠAr ena
ĠAr bury
ĠAr ctic
ik i
se e
Ġnot ion
Ġnot hing
Ġcl ar
Ġcl imb
Ġcl ients
Ġcl imbed
ĠTh orn
ĠTh ird
ĠTh urs
ĠTh urman
Ġrep eat
Ġrep utation
Ġ18 19
20 12
20 16
20 15
20 11
iz ia
ater al
Ġshe ll
Ġres erved
man o
und a
te xt
Ġwhe ther
Ġab str
Ġab bre
Ġsh aring
ition ally
ace ae
ach t
ĠAl m
ĠMar x
ĠMar che
ĠMar rak
ure ate
Ġag o
Ġag ricultural
ade h
Ġplay list
Ġwork er
per or
oy e
oy le
Ġ3 4
Ġsu icide
Ġapp lic
Ġapp rent
let own
Ġj oy
Ġj ail
Ġj uris
Ġj asmine
Ġafter wards
ip s
we et
ake but
over eign
eg al
ren e
Ġcont rac
Ġcont estant
Ġatt ributed
Ġbut ter
ĠAn imal
ĠAn alysis
ens is
Ġdis aster
Ġdis used
Ġsc ale
Ġsc atter
Ġsc rap
Ġsc heme
Ġrec reation
Ġcomm ittees
istr ation
Ġdes ert
ath a
ath s
iss a
iss ions
iss ement
Ġ5 5
Ġfin s
Ġfin ance
Ġreg ulation
Ġro se
Ġ195 3
Ġother wise
Ġ4 00
oh ada
Ġup dated
Ġcol leagues
ex ia
ĠZ one
ĠZ ee
ook s
Ġen forcement
Ġen closure
ress ions
Ġpre c
Ġkn ighted
wn ed
Ã© c
Ã© na
Ġim ages
19 80
19 39
19 38
ament e
ament al
ark o
Ġhous ed
Ġunder w
sp orts
rad es
rad ing
ĠSp ir
ĠSp ace
Ġret aining
vel stoke
ob a
ann ibal
Ġper mit
ĠSh ay
ĠSh im
ĠSh ow
ĠSh all
ĠSh af
Ġass isted
Ġass erted
Ġsong writer
ph an
ph id
ĠFor bes
Ġind ic
ced ure
inn ess
inn ati
Ġent ert
Ġent rance
che wan
Ġsing ers
Ġ16 88
pt y
pt ions
ib but
Ġco ol
omen a
Ġacc ompl
ĠAt tic
ĠAfter wards
Ġrece ives
ĠSum mit
any i
ĠNov el
ĠCl er
ĠCl are
ĠCl onak
Ġdef ence
Ġdef ensive
Ġcount ies
Ġcount ess
Ġ10 1
ĠJu an
Ġsub t
Ġsub stitut
Ġsub arctic
Ġmar que
ĠCon str
ĠCon vers
Ġinter medi
Ġinter esting
min en
Ġreport ing
Ġthere after
Ġcre ators
Ġcar ry
Ġcar riers
red ited
ick er
ĠAd j
ĠAd lers
ĠAd miral
ĠAd vis
iment al
Ġrel ative
Ġrel ocated
Ġgroup ed
Ġprov oc
ĠPl ant
ern i
ern um
uen ot
Ġform s
Ġra pper
Ġdec or
Ġdec ide
Ġdec ade
Ġdec lin
Ġdec ades
Ġdec eased
Ġlist s
ĠReg ular
Ġme ets
Ġmed ieval
ĠGe offrey
Ġdesc ript
Ġdesc ends
ĠJohn ny
Ġprom pt
Ġprom oter
Ġmat ter
Ġrem n
ve hope
Ġac id
Ġac cept
ĠPh ang
ĠEu ro
Ġown ers
ĠPr ison
Ġimp act
Ġmon ument
Ġ191 1
sh a
Ġexp ort
Ġexp osure
Ġ9 2
ĠCan terbury
ĠCar uana
Ġtrans form
Ġtrans fers
ll a
Ġam alg
ĠSouth west
ĠUS A
ĠUS S
ĠWar s
ĠWar haw
ĠPort o
ĠPort sm
omin al
omin ated
Ġsupport s
Ġsuc ceed
Ġph arm
ĠTurk men
ĠDemoc racy
ĠAnd ers
Ġ15 00
Ġtop ics
Ġtra velled
Ġmembers hip
Ġdep icted
Ġdep orted
Ġmin ors
ĠGu ad
ask a
ross ing
ez et
tal ions
Ġem p
Ġem pty
Ġter rain
Ġter ror
ĠMin as
Ġkill ings
Ġpar ish
Ġpar ental
Ġpar alle
Ġpar amilitary
ĠAm ar
ĠAm bed
ĠAm alia
ĠAm bassador
Ġref lect
ĠHer bert
ven ge
ĠEd itor
ĠEd win
Ġgu ards
Ġprot ection
Ġprot ested
Ġprot agon
Ġsm art
Ġsm oke
ĠMan hatt
ĠRuss ell
Ġproduc ers
Ġrun ner
Ġrun off
Ġbel t
ĠRo xin
CA R
Ġauthor ed
Ġmid night
Ġmid fielder
Ġdem anding
Ġ11 4
Ġ11 5
Ġ11 6
Ġexpl ains
Ġexpl aining
app ed
ĠTr ade
ĠTr acks
ĠSe jo
ĠOr igin
ĠOr ara
Ġdisc over
Ġpromot e
Ġpromot ing
Ġsurv iv
Ġso le
Ġinc orre
Ġcr uc
Ġcr ash
Ġcr imin
ĠRe ich
ĠRe velstoke
Ġany thing
ĠComp lex
rid ges
Ġland ing
Ġsy mp
Ġpost ed
Ġpost ers
ĠAb b
ĠAb raham
ĠAb alora
eth wick
ĠDistrict s
ĠQue zon
Ġbeg ins
Ġchar ity
Ġob l
Ġhigh ly
ys ics
Ġclass ification
ĠTom orrow
ĠTom Ã¡s
ĠDe ad
af e
af ar
Ġviol in
Ġviol ated
Ġviol ations
rol l
ĠPal mere
Ġexper ts
Ġexper iences
Ġpass eng
ĠSch Ã¤ffer
ĠAll en
Ġri par
Ġri oters
arm ac
Ġcare fully
ĠCo le
ĠCo imb
Ġcamp s
Ġmer ger
Ġhand ed
Ġrequ esting
Ġdist ort
Ġdist inguished
Ġ189 3
anc a
ĠCast ano
ĠCast illo
echn ical
fl ies
isl ature
Ġround ed
ax onius
ari us
iod es
Ġtour ist
Ġwin ters
Ġmark s
Ġprop ort
Ġprop ose
Ġleg islative
Ġyoung sters
Ġel se
Ġel abor
Ġpe aking
Ġpo le
Ġvo id
Ġsent enced
Ġopp ose
ĠSk y
ĠHar wood
cept able
Ġconc rete
Ġord inary
Ġmass ive
ĠBro wn
Ġrank s
Ġspecial ized
Ġship ments
Ġvisit ors
Ġident ification
Ġca uc
Ġca using
Ġmet eor
ĠChe f
ĠChe v
ĠJos h
Ġext reme
Ġperiod ically
Ġartist ic
Ġinvestig ations
Ġproper ly
Ġarr ival
tr asform
isc ated
esh iva
Ġdet ained
Ġdet ailed
ĠWood ward
Ġallow ing
Ġqualif ying
ĠAthlet ic
Ġtournament s
Ġsol ar
Ġinst alled
itar ies
ĠSing le
Ġmot ion
Ġmot ivated
ĠCam den
ĠPer Ãº
ĠPre cip
ĠLou v
ĠKh awla
Ġcharacter istics
13 01
ipp ed
ĠBat tar
ĠBar on
ĠBar rage
Ġep onymous
Ġgener a
Ġgener ation
ĠOx fam
Ġbat tles
Ġbat talions
Ġhost s
Ġne arest
ĠLiber t
ĠFl or
ĠFl ight
rain ed
ĠSal minen
Ġdam ages
Ġhit ting
ĠMc Gu
ĠMu ir
ĠMad ison
ĠHol land
ĠBl ue
ĠBl affer
Ġcoll ar
ĠX u
ĠX ie
ĠX IV
ĠSocial ists
Ġaff ili
Ġhold er
Ġwat ched
oming dale
Ġhon ours
ĠLa usanne
Ġgather ing
ij ing
ĠSer ge
ĠSam uel
ĠAct ion
Ġreb el
Ġvide os
Ġexhib it
Ġexhib ited
sequ ently
Ġcross ed
Ġcrowd s
Ġport ray
ĠMet eor
ĠDan iloviÄĩ
Ġvers es
Ġvers ions
Ġjourn ey
Ġrail road
Ġconfir m
Ġinfl ux
Ġinfl uential
ĠFin al
ĠFin ally
ĠWh at
ĠWh it
ĠWh ale
ĠSuper league
ino is
Ġsk ill
arr assed
ĠCons ul
ota enius
Ġanaly ses
Ġimmedi ate
Ġexpress ways
Ġsen ator
Ġdra ins
Ġdra wing
ĠPat rick
ĠBud avÃ¡r
Ġplan ets
Ġpolic eman
Ġview ers
Ð¾ Ð²
ĠTam alia
ĠMen otti
ĠId igbe
ĠGal izia
Ġred uc
Ġcontribut e
Ġcontribut ions
ĠPlat ycotis
Ġterrit ories
Ġcampaign s
Ġtri al
ĠTal ish
ĠBen jamin
ĠBen ezet
Ġequ al
Ġscreen writer
Ġscreen play
Ġassoci ations
Ġcritic ism
Ch amps
pro t
int endent
Ġins urance
Ġfig ure
ĠSm ethwick
ĠTon i
ĠHay rap
ĠRam acci
Ġspe ak
Ġ185 2
Ġ187 7
Ġappro ved
Ġprivate ering
Ġreview s
ĠHam di
ĠBr un
uther land
Ġ179 1
Ġ179 8
ĠCarol ine
Ġphys ics
Ġdiscuss es
Ġdiscuss ion
ĠMuslim s
Ġtalk ed
Ġcur ling
ĠSur intendant
Ġmach ines
Ġmission aries
ĠTown ship
Ġcollabor ated
Ġcollabor ator
ĠTransport ation
Ġpay ments
amin ia
ĠJust in
ĠGold water
Ġrul er
Ġclos ing
Ġclos ely
Ġ166 2
Ġ166 4
Ġquar ters
ĠCont emporary
Ġoccas ion
ĠAbd ul
ĠAngel o
port edly
Ġinstr uction
Ġinstr ument
Ġcert ific
ĠDes ler
ĠJon ck
ĠInter group
Ġposs ibly
Ġdrug s
tis burg
Ġens uring
Ġsusp ended
Ġrev ol
Ġrev olution
ros so
ĠBh art
ĠBh arati
ĠBor ough
ĠDar ul
ĠLuc iano
Ġlevel s
ĠScot ia
Ġinf rastructure
Ġinstitut es
Ġbr ace
Ġpur portedly
Ġpow ers
Ġmem ories
ĠCamp aign
ĠMa vericks
ĠLu ke
ĠJo an
Ġget ting
ĠEv ents
ĠUrs ula
Ġvol ume
Ġexist ing
iction ary
ĠVal ley
Ġunc ert
Ġunc lear
Ġ184 3
ĠProt ection
Ġrelationship s
ĠIraq i
fin al
fin als
Ġachie ve
Ġachie ved
isen hof
Ġpan chayat
Ġpot entially
ĠTo o
ĠTun nel
ĠHuman itarian
ecess or
ĠBol lywood
ĠUnder hill
Ġdev ast
Ġdev oted
Ġexc itement
Ġtravel ing
Ġillustr ation
Ġarchitect ural
iec e
wa et
yc le
Ġtribut e
Ġfoot age
ĠMah ar
ĠMah atma
Ġthreat ening
ĠRay mar
ĠRail road
ĠWol vehope
Ġvac ationing
Ġcommit ment
Ġcommunic ate
Ġcommunic ations
Ġsumm ers
ĠSS SI
ĠSim one
ĠSim pson
ĠSher iff
ĠSher rill
Ġmur icata
ĠTai wan
ĠTai yi
Ġdro pped
Ġhundred s
ĠMot ilal
ĠMass ey
ĠWork house
ĠEp stein
Ġdeter mine
ĠArn o
Ġrelig ion
ĠOrgan isers
ĠBelg ium
ĠBelg rade
bu ilt
inem at
ĠTel ugu
Ġhop ed
Ġhop es
ĠDis ability
ĠDream s
ĠDream ing
ĠGreen ville
Ġconst ables
ĠKÃ¶ pi
ĠKÃ¶ ppen
Ġveh icle
Ġkick box
ĠAlf onso
Ġadult s
ĠZh ou
Ġassign ment
ĠSaf ety
Ġimprov ement
Ġflood s
Ġcontinu ous
Ġobt ain
Ġadvis er
Ġadvis or
ĠRevolution ary
RA T
Ġ# "
Ġsn owy
Ġpen al
Ġpen insula
Ġdon ated
ĠCor osinit
amm atory
ĠIl ie
ĠIl lecille
Ġlic ens
ĠBear s
cha ft
Ġgrand mother
ĠWat ch
ĠElect ric
ĠOper a
Ġchap el
Ġchap ters
Ġpartn ers
Ġ177 6
ĠMoham mad
ĠMoham merah
Ġstatement s
Ġ× Ķ
Ġemb assy
Ġtechn ologies
Ġcop y
Ġpers ons
ĠTeh sil
ĠCr ime
ĠCr iminal
ĠMain z
Ġnarrow ing
Ġnarrow ly
Ġstep s
Ġdeleg ation
Ġexcept ional
Ġpreced ed
ĠProduction Next
Ġmeas ures
Ġminor ity
ĠMont real
EA N
Ġmental ist
ĠTar anto
ĠCat hedral
Ġharm on
Ġharm ony
ĠDist urb
ĠRan jit
ĠJa ber
ĠJa ide
ĠGri ff
ĠArch bishop
Ġattend ance
ĠIndust ry
ĠProgram s
Ġ167 0
ĠJohann es
Ġconstruct ed
Ġdocument ed
Ġnegot iated
Ġmurder er
28 5
We imar
Ã± ez
Åį ta
Ġbann er
Ġment ions
ĠTit ley
ĠAF C
Ġreign ing
ĠBern abÃ©
ĠDh olpur
ĠRh in
ĠRon ald
Ġasp ects
Ġasp irations
ĠFre ire
ĠNath an
Ġconvers ations
ĠVa udoise
Ġprep are
Ġsuppress ion
ĠPlay rix
Ġtraff ic
Ġairship s
ĠMalays ian
Ġidentify ing
Ġneighbor hood
ĠBosn ia
eron autical
Ġwild card
Ġfeed s
Ġboy c
Ġboy friend
Ġbreed ing
Ġmel od
Ġmel ody
ĠTro jans
ĠMinn eap
ĠHug uenot
ĠHind i
Ġlin ked
ĠDie ter
Ġbeat en
ĠUl ster
ĠInn ocent
opod a
ĠStev en
Ġlearn ed
Ġspons orship
ĠVar anop
ĠVol ks
Ġabd omen
Ġabd ominal
roph ils
Ġprepar ation
Ġreleg ation
Ġinvent ory
ĠPlan et
Ġemphas ized
orpor ated
ĠDeleg ate
Ġopportun ities
Ġsolid arity
Ġmotorcy cle
Ġscholar ly
ĠSaskat chewan
Don ald
Sh ohada
kin son
Ġur ged
Ġtheat re
Ġpil ot
Ġpil ots
ĠCur riculum
ĠCab inet
ĠMam mad
ĠHu ang
ĠLat via
ĠLew is
Ġgall ery
ĠEs sex
ĠChild ren
ĠLeban ese
Ġprin cess
ĠHispan ic
ĠPhys ics
Ġsoft ball
Ġmyster y
Ġsimultane ous
Ġextra ordinary
ĠSurvey or
ĠÅĮ saka
Ã´ t
Ġaud io
eni opoda
Ġbal let
ĠSn ooker
ĠMaj esty
ĠMÃ¡ laga
ivas an
Ġlab our
ĠDet roit
Ġthir ty
Ġforec asting
ĠLey te
ĠFisher y
ĠNak ahara
Ġconsequ ence
Ġprem ises
ĠForm ula
ĠConn ected
Ġstrugg le
Ġappoint ment
Ġdiscour aged
ĠPeters en
Ġdisturb ances
ĠAgu iar
ĠAgu ilera
Ġelder ly
Ġpatron ess
Ġcorrespond ing
Ġachievement s
yok i
Ġwick ets
Ġopin ion
Ġpick ed
ĠSoci ology
ĠTob acco
ĠAstronom ical
ĠCelebr ation
ĠMest is
rost ernum
ĠBlo omingdale
ĠRy Åįta
ĠFurther more
Ġstri ke
ĠEle onora
ĠUs ing
ĠInt elligence
abl anca
Ġchall eng
Ġchant ed
Ġoverl ook
ĠSyn agogue
ĠConstitut ion
Ġflo ors
Ġtrigg ered
ĠDrug s
ĠOffic ers
Ġiniti ative
Ġdoub t
ĠPatri ot
Ġpossess ed
ĠVenez uela
Ġimprison ed
ĠLincoln shire
Lou ise
Se a
TW C
aed a
grand father
kir k
Ø§ ÙĦ
Ġilleg al
Ġslow ly
Ġcoin c
Ġcrown ed
Ġped agog
ĠST AÃ©
Ġmart ial
ĠTs un
ĠAS EAN
Ġdang erous
ĠCut ler
ĠCant i
ĠCost a
eloc nem
ĠHur lford
ĠIll inois
ĠPil atus
ĠPict ures
ĠLect urer
ĠLock heed
ĠGoog le
Ġgr ass
ĠWI AC
ĠWern er
ĠEvery thing
ĠOt aman
osph ine
ĠKav ish
ĠInsp ector
Ġven ues
Ġexclus ively
ĠYugosl avia
Ġscr ub
Ġscrat ch
Ġpercent age
ĠClif ford
Ġlaund ering
ĠDeport ivo
Ġdepart ure
ĠOrmond e
Ġlandf alls
Ġneut rophils
Ġswim ming
Ġautomob ile
Ġdivor ced
Ġdeliver y
ĠEmir ates
Ġneighbour ing
ĠCzechosl ovakia
ĠÄĨer aniÄĩ
Pri est
iat ric
Ġtrib e
Ġtick et
Ġwr ong
Ġwors hipp
Ġbab y
Ġpion eer
Ġpure ly
ĠSel kirk
Ġdoll ars
Ġhind i
ĠMyan mar
ĠMÃ¼n ster
still inbed
ĠHun ter
ĠHalf set
ĠImp rov
ĠPles hcheyev
ĠTheres a
ĠBukh man
ĠDear mer
ĠLind s
ĠLiter ature
ĠFle et
ĠJes us
ĠGir ton
ĠNAS CAR
ĠUA E
Ġconsp iracy
ĠKum ar
ĠInit ially
ĠVik tor
Ġunac ceptable
omeg illa
Ġjud icial
Ġattract ing
ĠIndones ian
Ġretali ation
Ġassemb led
Ġindiscrimin ate
Ġendang ered
Ġacknow ledged
ĠAndalus ian
Ġadvant age
ĠPhilosop hy
ĠRevision ist
ĠSantar osa
Ġabsor bed
Ġevacu ate
ĠWolf gang
Ġpersp ective
Ġteleph one
Ġsubsidi ary
ĠPyram ids
consecr ators
Ap ica
Aq sa
Bay ou
Baq ir
Eng lish
Hele osaurus
Kib si
Pok al
Sett embrini
Tetr aria
cric keter
dont otaenius
hn uka
saz hnuka
zeg ovina
Ġurd u
Ġcant on
Ġpover ty
Ġphen omena
Ġpne um
ĠShed den
ĠSeg unda
ĠSreen ivasan
ĠSitar am
ĠSny der
ĠSansk rit
Ġmasc uline
ĠTemper atures
ĠAmed eo
ĠAks ai
ĠCra ig
ĠCinc innati
ĠCBS E
ĠCoup land
ĠMik ko
ĠMiam i
ĠMico ine
ĠMoss ack
ĠMicro district
ĠMoust afa
ĠPry sazhnuka
irhy tis
ĠBogd an
ĠBundes liga
ĠDoh a
ĠDuk han
Ġnep hew
terophy lla
ĠRak ÄįeviÄĩ
ĠRex roth
ĠRever end
ĠReng at
ĠLÃ© on
ĠLung ni
ĠLÃ¼ tisburg
ĠFonn ereau
ĠFicht ner
ĠFonsec a
ĠFabric ius
ĠGaw ler
ĠNand itha
ĠNey land
ĠNever theless
ĠNayant ara
Ġgodd ess
ĠEmb assy
Ġalumin ium
ĠKev in
ĠKna resborough
ĠKeral a
ichaul iodes
ĠVald emar
ĠVlad imir
Ġunaw are
Ġuninc orporated
ĠThurs day
Ġabbre vi
Ġjuris diction
akebut stillinbed
Ġcontrac ts
ibbut z
ĠClonak ilty
Ġintermedi ate
ĠAdlers ky
ĠWarhaw ks
ĠPortsm outh
Ġsucceed ing
Ġparalle l
ĠAmbed kar
ĠManhatt an
Ġincorre ct
Ġripar ian
trasform ismo
ĠPrecip itation
ĠBattar bee
ĠMcGu inness
ĠRamacci otti
ĠBharati ya
isenhof en
ĠCorosinit i
ĠIllecille waet
ĠMinneap olis
elocnem is
Ġworshipp ers
